<PAD>	0
<UNK>	1
<BOS>	2
<EOS>	3
!	4
"	5
#	6
$	7
%	8
&	9
'	10
(	11
)	12
*	13
+	14
,	15
-	16
.	17
/	18
0	19
1	20
2	21
3	22
4	23
5	24
6	25
7	26
8	27
9	28
:	29
;	30
<	31
=	32
>	33
?	34
@	35
A	36
B	37
C	38
D	39
E	40
F	41
G	42
H	43
I	44
J	45
K	46
L	47
M	48
N	49
O	50
P	51
Q	52
R	53
S	54
T	55
U	56
V	57
W	58
X	59
Y	60
Z	61
[	62
\	63
]	64
^	65
_	66
`	67
a	68
b	69
c	70
d	71
e	72
f	73
g	74
h	75
i	76
j	77
k	78
l	79
m	80
n	81
o	82
p	83
q	84
r	85
s	86
t	87
u	88
v	89
w	90
x	91
y	92
z	93
{	94
|	95
}	96
~	97
¡	98
¢	99
£	100
¤	101
¥	102
¦	103
§	104
¨	105
©	106
ª	107
«	108
¬	109
®	110
¯	111
°	112
±	113
²	114
³	115
´	116
µ	117
¶	118
·	119
¸	120
¹	121
º	122
»	123
¼	124
½	125
¾	126
¿	127
Â	128
Ã	129
Ä	130
Å	131
Æ	132
Ç	133
È	134
É	135
Ê	136
Ë	137
Ì	138
Í	139
Î	140
Ï	141
Ð	142
Ñ	143
Ò	144
Ó	145
Ô	146
Õ	147
Ö	148
×	149
Ø	150
Ù	151
Ú	152
Û	153
Ü	154
Ý	155
Þ	156
ß	157
à	158
á	159
â	160
ã	161
ä	162
å	163
æ	164
ç	165
è	166
é	167
ê	168
ë	169
ì	170
í	171
î	172
ï	173
ð	174
ñ	175
ò	176
ó	177
ô	178
Ċ	179
Ġ	180
ġ	181
Ģ	182
ģ	183
Ĥ	184
ĥ	185
Ħ	186
ħ	187
Ĩ	188
ĩ	189
Ī	190
ī	191
Ĭ	192
ĭ	193
Į	194
į	195
İ	196
ı	197
Ĳ	198
ĳ	199
Ĵ	200
ĵ	201
Ķ	202
ķ	203
ĸ	204
Ĺ	205
ĺ	206
Ļ	207
ļ	208
Ľ	209
ľ	210
Ŀ	211
ŀ	212
Ł	213
ł	214
Ń	215
Ġt	216
Ġa	217
he	218
in	219
re	220
Ġthe	221
on	222
er	223
Ġs	224
Ġw	225
at	226
Ġo	227
en	228
Ġc	229
it	230
is	231
an	232
or	233
Ġb	234
es	235
ed	236
Ġf	237
ing	238
Ġp	239
ou	240
Ġan	241
al	242
Ġto	243
ar	244
Ġm	245
Ġin	246
Ġof	247
Ġh	248
Ġd	249
âĢ	250
as	251
ic	252
Ġand	253
Ġth	254
le	255
om	256
ion	257
ll	258
ent	259
Ġn	260
Ġl	261
Ġre	262
st	263
ve	264
Ġe	265
ly	266
ro	267
Ġbe	268
Ġg	269
id	270
ut	271
ac	272
ot	273
ĠT	274
ĠI	275
Ġthat	276
Ġon	277
ay	278
ĠS	279
Ġis	280
et	281
im	282
am	283
ad	284
ow	285
se	286
ig	287
Ġfor	288
âĢĻ	289
ĠA	290
ver	291
ur	292
ct	293
ld	294
ĠC	295
Ġu	296
Ġst	297
Ġy	298
Ġit	299
Ġhe	300
ir	301
ation	302
ith	303
Ġwh	304
ĠM	305
ce	306
ter	307
ol	308
Ġwe	309
il	310
Ġwith	311
Ġas	312
ĠB	313
ch	314
ill	315
nd	316
ĠP	317
Ġwas	318
ers	319
Ġyou	320
ke	321
ĠâĢ	322
Ġcon	323
Ġde	324
Ġr	325
her	326
if	327
ate	328
ag	329
Ġat	330
Ġha	331
ĠW	332
Ġse	333
ĠH	334
ore	335
Ġpro	336
ul	337
pp	338
ment	339
ri	340
Ġare	341
ĠD	342
Ġ1	343
us	344
est	345
ist	346
Ġcom	347
and	348
ĠR	349
op	350
ain	351
ĠThe	352
Ġ2	353
igh	354
rom	355
end	356
Ġ(	357
te	358
th	359
od	360
Ġne	361
ĠF	362
um	363
un	364
Ġex	365
res	366
ab	367
âĢĿ	368
Ġnot	369
ĠN	370
Ġv	371
ess	372
Ġhave	373
ity	374
ould	375
Ġor	376
Ġby	377
ort	378
os	379
ĠG	380
ive	381
Ġfrom	382
ant	383
Ġal	384
's	385
oc	386
Ġsu	387
art	388
el	389
ĠL	390
Ġsh	391
Ġthis	392
em	393
qu	394
nt	395
ight	396
pe	397
ust	398
Ġle	399
ies	400
ĠE	401
Ġch	402
Ġsa	403
Ġab	404
The	405
out	406
all	407
ie	408
ack	409
red	410
00	411
ĠâĢľ	412
Ġhas	413
ally	414
ĠJ	415
Ġpl	416
Ġgo	417
ard	418
iv	419
Ġhis	420
ome	421
ap	422
ost	423
gh	424
ear	425
ĠO	426
Ġtr	427
our	428
Ġj	429
ak	430
ud	431
Ġwor	432
ast	433
Ġdo	434
Ġthey	435
Ġbut	436
rou	437
Ġcan	438
ge	439
Ġwill	440
Ġsaid	441
Ġwhe	442
ĠU	443
Ġk	444
ich	445
Ġall	446
ok	447
Ġ"	448
ide	449
Ġwho	450
ame	451
ans	452
ther	453
ial	454
Ġout	455
ff	456
Ġtheir	457
ong	458
pl	459
ice	460
ure	461
one	462
Ġmore	463
age	464
ions	465
act	466
Ġup	467
ike	468
Ġme	469
ous	470
ine	471
Ġad	472
ep	473
Ġabout	474
ated	475
ra	476
ber	477
pt	478
Ġone	479
Ġwere	480
Ġso	481
Ġus	482
ect	483
og	484
ime	485
ĠK	486
ia	487
Ġhad	488
are	489
ub	490
cc	491
Ġwould	492
Ġcl	493
Ġ20	494
Ġim	495
Ġwhich	496
ind	497
xt	498
ue	499
ake	500
iz	501
very	502
Ġag	503
Ġte	504
Ġoff	505
Ġcomp	506
Ġun	507
Ġbeen	508
Ġint	509
so	510
Ġen	511
per	512
ign	513
au	514
Ġcont	515
ĠTh	516
ary	517
Ġyear	518
ip	519
ace	520
ew	521
Ġlike	522
ven	523
ook	524
Ġinc	525
ays	526
Ġman	527
Ġpe	528
ĠIn	529
ry	530
ose	531
Ġres	532
able	533
ite	534
Ġper	535
ass	536
ord	537
Ġsp	538
ire	539
Ġother	540
mer	541
Ġsome	542
ile	543
ib	544
ence	545
ĠSt	546
ople	547
Ġ201	548
ks	549
ations	550
Ġover	551
ical	552
Ġthere	553
ress	554
Ġdis	555
ult	556
Ġnew	557
own	558
Ġalso	559
Ġthan	560
Ġar	561
Ġbec	562
ru	563
Ġthem	564
ance	565
ough	566
Ġapp	567
port	568
ount	569
ail	570
ree	571
int	572
Ġpart	573
Ġyour	574
Ġwhen	575
Ġwhat	576
orm	577
ond	578
Ġpeople	579
fter	580
Ġsc	581
ĠCh	582
av	583
ase	584
Ġqu	585
Ġany	586
Ġjust	587
Ġits	588
ĠY	589
ach	590
ction	591
Ġtime	592
of	593
Ġkn	594
ĠIt	595
Ġher	596
Ġ3	597
ens	598
lic	599
Ġrec	600
reat	601
Ġmy	602
Ġget	603
Ġif	604
ĠV	605
ian	606
.âĢĿ	607
Ġinto	608
ound	609
Ġwork	610
Ġtw	611
irst	612
vel	613
Ġno	614
du	615
ings	616
ere	617
ory	618
ick	619
ors	620
Ġour	621
ition	622
ident	623
ob	624
Ġ-	625
Ġpre	626
ove	627
Ġplay	628
ang	629
ink	630
ause	631
wn	632
text	633
amp	634
ade	635
ates	636
hing	637
ark	638
Ġro	639
Ġpol	640
Ġshe	641
vers	642
Ġco	643
,âĢĿ	644
Ġafter	645
ne	646
Ġfirst	647
Ġcould	648
Ġhow	649
ĠHe	650
Ġ19	651
ious	652
nder	653
ild	654
Ġacc	655
Ġhim	656
aw	657
't	658
ons	659
Ġpo	660
|>	661
<|	662
endof	663
endoftext	664
Ġonly	665
Ġfe	666
ict	667
hed	668
Ġpr	669
rit	670
ov	671
Ġtwo	672
ish	673
Ġcomm	674
âĢľ	675
Ġspe	676
form	677
Ġact	678
erv	679
Ġbl	680
we	681
Ġbet	682
Ġdec	683
."	684
ning	685
Ġback	686
Ġmost	687
ces	688
ft	689
ood	690
ck	691
ĠâĢĵ	692
Ġam	693
oy	694
Ġdid	695
rough	696
iff	697
ater	698
round	699
Ġagain	700
Ġ4	701
ual	702
day	703
ise	704
Ġunder	705
Ġdes	706
Ġwant	707
ull	708
sel	709
Ġcons	710
ĠâĢĶ	711
..	712
Ġbecause	713
Ġnow	714
lud	715
ents	716
man	717
Ġyears	718
tern	719
ublic	720
Ġneed	721
ec	722
Ġeven	723
Ġ$	724
iss	725
Ġinv	726
Ġatt	727
Ġknow	728
ĠWe	729
Ġsee	730
ments	731
ced	732
Ġadd	733
,"	734
old	735
Ġind	736
ting	737
Ġsec	738
fore	739
uch	740
Ġevery	741
urn	742
Ġ5	743
Ġsupp	744
Ġmake	745
pect	746
ĠUn	747
Ġem	748
Ġthese	749
ock	750
In	751
oll	752
Ġwhere	753
ject	754
ational	755
vern	756
Ġbu	757
Ġlook	758
Th	759
ĠAnd	760
oss	761
Ġdon	762
Ġev	763
ump	764
ating	765
Ġway	766
Ġbeing	767
Ġrem	768
ily	769
Ġmay	770
ng	771
row	772
lect	773
iew	774
Ġthen	775
Ġright	776
Ġmany	777
Ġ[	778
Ġdiff	779
Ġdef	780
ason	781
Ġrel	782
Ġcall	783
ĠBut	784
ĠTr	785
les	786
ied	787
ased	788
Ġinclud	789
Ġthink	790
aking	791
Ġreg	792
).	793
ont	794
meric	795
Ġimp	796
Ġthrough	797
ath	798
ited	799
rib	800
Ġsy	801
Ġshould	802
Ġpres	803
Ġsay	804
Ġfl	805
uring	806
Ġlast	807
ty	808
Ġthose	809
ower	810
Ġvery	811
other	812
Ġmuch	813
ities	814
ific	815
Ġstate	816
ĠThis	817
ative	818
Ġshow	819
tle	820
hen	821
Ġbr	822
ss	823
arg	824
Ġwell	825
oth	826
Ġph	827
ĠWh	828
als	829
und	830
Ġcount	831
Ġ200	832
Ġdoes	833
Ġdown	834
Ġown	835
arly	836
Ġend	837
Ġass	838
Ġbel	839
Ġuse	840
ics	841
ange	842
ts	843
--	844
Ġlong	845
ĠAmeric	846
ters	847
ince	848
Ġbefore	849
omet	850
gr	851
Ġmon	852
ward	853
Ġgovern	854
Ġstart	855
Ġreport	856
ible	857
Ġke	858
up	859
ues	860
ĠNew	861
oun	862
Ġfin	863
Ġteam	864
ble	865
Ġmade	866
ife	867
olog	868
ren	869
ener	870
),	871
Ġsuch	872
com	873
erson	874
ix	875
ek	876
Ġsm	877
rest	878
âĢĶ	879
lp	880
ility	881
Ġgoing	882
ism	883
ful	884
Ġworld	885
ually	886
Ġstud	887
ists	888
Ġgood	889
Ġac	890
tain	891
Ġsub	892
Ġeff	893
Ġsur	894
Ġagainst	895
It	896
its	897
Ġgame	898
Ġset	899
ork	900
Ġ6	901
Ġgu	902
Ġpoint	903
Ġent	904
ys	905
000	906
gan	907
ars	908
li	909
stem	910
Ġprov	911
Ġstill	912
roup	913
Ġwhile	914
illion	915
Ġhelp	916
Ġlead	917
ell	918
Ġmin	919
ms	920
ween	921
.<|	922
ax	923
ank	924
alk	925
imes	926
Ġsays	927
Ġob	928
cy	929
Ġprodu	930
ef	931
Ġinte	932
Ġgr	933
Ġinter	934
Ġinst	935
Ġstr	936
cess	937
Ġsim	938
self	939
Ġconf	940
Ġcol	941
Ġtake	942
io	943
ures	944
arch	945
Ġsame	946
Ġthough	947
Ġbetween	948
ollow	949
Ġoffic	950
ever	951
Ġcr	952
land	953
Ġdiffere	954
ool	955
uss	956
ution	957
Ġdisc	958
air	959
Ġop	960
ah	961
Ġed	962
Ġhigh	963
read	964
Ġnum	965
Ġlaw	966
Ġsign	967
way	968
Ġgovernment	969
gg	970
led	971
ĠRe	972
ner	973
hip	974
atch	975
hes	976
ames	977
any	978
Ġter	979
Ġsomet	980
cent	981
ten	982
velop	983
ted	984
We	985
Ġref	986
Ġtrans	987
Ġins	988
Ġrun	989
Ġser	990
Ġfound	991
Ġthree	992
ives	993
ave	994
Ġmem	995
Ġaround	996
Ġhere	997
ather	998
Ġmed	999
Ġreal	1000
Ġused	1001
ouse	1002
Ġ10	1003
ved	1004
Ġexp	1005
az	1006
ĠAr	1007
cept	1008
oot	1009
Ġsystem	1010
ĠYou	1011
ci	1012
Ġreally	1013
Ġmod	1014
ving	1015
con	1016
cer	1017
Ġgroup	1018
Ġsupport	1019
Ġ7	1020
Ġcour	1021
ets	1022
ale	1023
ins	1024
Ġcar	1025
Ġret	1026
Ġhand	1027
Ġpublic	1028
Ġspec	1029
pr	1030
ph	1031
ĠLe	1032
ying	1033
Ġgreat	1034
ense	1035
Ġext	1036
ton	1037
.[	1038
irect	1039
Ġcur	1040
Ġfam	1041
ĠCom	1042
alth	1043
Ġhapp	1044
Ġfact	1045
Ġexper	1046
ĠThey	1047
ĠTrump	1048
Ġfr	1049
Ġwom	1050
ĠIs	1051
Ġcap	1052
Ġboth	1053
Ġday	1054
Ġfind	1055
ĠAl	1056
ular	1057
Ġread	1058
ines	1059
oh	1060
ices	1061
Ġdet	1062
Ġlit	1063
Ġsl	1064
Ġrep	1065
uth	1066
Ġduring	1067
ĠSh	1068
ĠAs	1069
Ġ0	1070
Ġserv	1071
the	1072
min	1073
Ġmonth	1074
ision	1075
Ġdevelop	1076
Ġbig	1077
Ġ8	1078
Ġperson	1079
akes	1080
Ġfollow	1081
Ġcre	1082
ĠCl	1083
Ġiss	1084
Ġtold	1085
Ġsince	1086
ared	1087
med	1088
ically	1089
Ġweek	1090
ages	1091
ivers	1092
Ġwar	1093
Ġfew	1094
ording	1095
Ġcent	1096
Ġleg	1097
aj	1098
ex	1099
get	1100
Ġpolit	1101
ves	1102
ash	1103
Ġexpl	1104
ered	1105
Ġlot	1106
ric	1107
Ġbelie	1108
Ġgener	1109
Ġtoo	1110
Ġ9	1111
der	1112
ata	1113
rent	1114
Ġopp	1115
Wh	1116
Ġrequ	1117
Ġcontin	1118
iet	1119
bers	1120
anc	1121
Ġfil	1122
Ġcor	1123
ention	1124
ness	1125
Ġcle	1126
Ġresp	1127
Ġput	1128
ized	1129
ĠIf	1130
Ġanother	1131
20	1132
chool	1133
Ġinf	1134
Ġsomething	1135
Ġdifferent	1136
Ġloc	1137
ĠDe	1138
ute	1139
Ġinvest	1140
Ġsoc	1141
Ġpower	1142
Ġche	1143
uc	1144
Ġ'	1145
Ġpass	1146
Ġcommun	1147
Ġlife	1148
ĠFr	1149
Ġplan	1150
ody	1151
Ġrele	1152
ience	1153
Ġhead	1154
Ġthings	1155
ned	1156
thing	1157
Ġfar	1158
ox	1159
Ġart	1160
Ġposs	1161
Ġmet	1162
Ġcamp	1163
ross	1164
arge	1165
Ġvot	1166
ier	1167
This	1168
view	1169
Ġchild	1170
ants	1171
Ġask	1172
Ġmight	1173
Ġeach	1174
ize	1175
Ġdep	1176
iness	1177
Ġ.	1178
Ġnever	1179
Ġnext	1180
ĠFor	1181
ik	1182
ĠAn	1183
ield	1184
Ġsecond	1185
Ġmark	1186
Ġquest	1187
Ġbus	1188
Ġadv	1189
Ġdem	1190
Ġcome	1191
Ġgot	1192
ĠâĢĺ	1193
ret	1194
Ġopen	1195
Ġbest	1196
ient	1197
ital	1198
Ġallow	1199
ĠThat	1200
rat	1201
Ġseem	1202
Ġpost	1203
ple	1204
tem	1205
nce	1206
Ġfeel	1207
ĠPro	1208
ĠUS	1209
ug	1210
Ġpri	1211
gram	1212
Ġpercent	1213
cl	1214
Ġhome	1215
Ġdist	1216
Ġdirect	1217
ired	1218
Ġincre	1219
Ġcontro	1220
ĠRep	1221
son	1222
less	1223
orn	1224
osed	1225
Ġresult	1226
Ġhard	1227
Ġcare	1228
ately	1229
Ġmillion	1230
chn	1231
Ġcomple	1232
Ġplace	1233
Ġwithout	1234
Ġinform	1235
Ġincluding	1236
Ġimport	1237
Ġav	1238
conom	1239
Ġhum	1240
Ġide	1241
Ġproble	1242
Ġbuild	1243
Ġtop	1244
ama	1245
Ġnumber	1246
Ġcountry	1247
gy	1248
oney	1249
aim	1250
ĠBl	1251
ral	1252
tt	1253
ably	1254
uro	1255
Ġstand	1256
Ġgl	1257
Ġel	1258
riend	1259
Ġfour	1260
ished	1261
ways	1262
Ġpartic	1263
Ġbetter	1264
Ġtri	1265
But	1266
Ġrecent	1267
co	1268
Ġinterest	1269
Ġmov	1270
Ġlet	1271
ration	1272
Ġseason	1273
Ġless	1274
Ġturn	1275
Ġlittle	1276
Ġbeh	1277
Ġmil	1278
ead	1279
Ġappro	1280
ract	1281
line	1282
Ġbro	1283
ling	1284
ised	1285
Ġcalled	1286
app	1287
10	1288
Ġcase	1289
Ġdr	1290
ĠInd	1291
Ġrest	1292
Ġleft	1293
Ġpop	1294
Ġann	1295
ĠZ	1296
ency	1297
Ġmove	1298
ode	1299
ina	1300
Ġattack	1301
ĠThere	1302
Ġkeep	1303
Ġfull	1304
ering	1305
Ġdidn	1306
be	1307
Ġfun	1308
Ġmain	1309
ajor	1310
__	1311
Ġeffect	1312
inal	1313
me	1314
leg	1315
Ġprev	1316
Ġprogram	1317
Ġusing	1318
to	1319
Ġtest	1320
Ġpay	1321
ature	1322
Ġear	1323
Ġval	1324
Ġpolice	1325
Ġwrit	1326
Ġform	1327
Ġeconom	1328
Ġdata	1329
Ġnews	1330
Ġpos	1331
Ġwin	1332
Ġchar	1333
ĠAmerican	1334
Ġlevel	1335
Ġsit	1336
ains	1337
iving	1338
uck	1339
Ġsmall	1340
ined	1341
ready	1342
He	1343
Ġschool	1344
Ġlist	1345
ology	1346
rap	1347
mit	1348
ided	1349
ploy	1350
're	1351
ger	1352
Ġeas	1353
Ġprocess	1354
ird	1355
Ġchange	1356
orth	1357
Ġwomen	1358
Ġcurrent	1359
Ġrece	1360
Ġprom	1361
Ġhist	1362
Ġdri	1363
Ġ=	1364
ians	1365
reen	1366
Ġpresident	1367
Ġcompany	1368
used	1369
Ġmat	1370
ruct	1371
Ġalready	1372
ohn	1373
ĠUnited	1374
wit	1375
Ġty	1376
Ġwhy	1377
Ġbre	1378
Ġunt	1379
Ġmoney	1380
Ġsol	1381
Ġalways	1382
Ġlater	1383
Ġexpect	1384
Ġtechn	1385
Ġbusiness	1386
ĠHow	1387
Ġofficial	1388
ron	1389
ĠQ	1390
ĠOb	1391
stand	1392
iversity	1393
Ġbook	1394
Ġbo	1395
ĠPh	1396
aign	1397
Ġthing	1398
Ġclass	1399
Ġproject	1400
ases	1401
Ġclaim	1402
Ġjob	1403
Ġinformation	1404
Ġorgan	1405
aff	1406
ĠShe	1407
Ġtalk	1408
ards	1409
ĠBe	1410
Ġdesign	1411
Ġstory	1412
Ġchang	1413
Ġmajor	1414
Ġable	1415
Ġprof	1416
Ġ--	1417
lection	1418
iven	1419
ertain	1420
Ġrese	1421
Ġhealth	1422
Ġvis	1423
urs	1424
Ġfree	1425
outh	1426
here	1427
ĠAd	1428
Ġoper	1429
ĠSo	1430
Ġaway	1431
ior	1432
ĠCan	1433
Ġmust	1434
Ġcity	1435
ample	1436
...	1437
rist	1438
sc	1439
ural	1440
Ġhappen	1441
uthor	1442
Ġ18	1443
acy	1444
urity	1445
Ġimportant	1446
Ġkill	1447
Ġsk	1448
ption	1449
Ġest	1450
ured	1451
Ġold	1452
Ġpast	1453
Ġpat	1454
ĠSe	1455
ury	1456
ending	1457
Ġdoesn	1458
ission	1459
Ġleast	1460
Ġgrow	1461
Ġedit	1462
Ġvar	1463
ained	1464
Ġcost	1465
ney	1466
ider	1467
ĠGo	1468
ides	1469
Ġdays	1470
Ġtell	1471
Ġhop	1472
Ġcampaign	1473
side	1474
Ġstre	1475
Ġ12	1476
Ġmen	1477
Ġcame	1478
Ġaff	1479
ĠMar	1480
Ġconst	1481
resident	1482
Ġenough	1483
Ġview	1484
ccess	1485
Ġkind	1486
ĠSp	1487
oad	1488
ern	1489
Ġmaking	1490
els	1491
Ġlarge	1492
Ġrecord	1493
50	1494
ush	1495
Ġmar	1496
Ġfriend	1497
Ġfamily	1498
âĢ¦	1499
ley	1500
Ġelect	1501
eral	1502
Ġpolic	1503
Ġtax	1504
ising	1505
by	1506
pped	1507
ality	1508
ator	1509
ified	1510
As	1511
ived	1512
ror	1513
Ġuntil	1514
arent	1515
ional	1516
Ġpolitical	1517
Ġvide	1518
Ġdeal	1519
ries	1520
alf	1521
augh	1522
Ġve	1523
Ġworking	1524
ued	1525
ĠRepublic	1526
Ġtook	1527
Ġdeb	1528
bs	1529
If	1530
ister	1531
Ġline	1532
ĠJohn	1533
aining	1534
Ġair	1535
----	1536
Ġes	1537
ane	1538
Ġintern	1539
Ġfore	1540
iol	1541
ocrat	1542
Ġbecome	1543
Ġactually	1544
aps	1545
ony	1546
Ġmean	1547
work	1548
ĠSc	1549
Ġfund	1550
ware	1551
19	1552
ĠPl	1553
St	1554
Ġformer	1555
Ġoften	1556
ĠEuro	1557
ann	1558
ott	1559
Ġwon	1560
Ġgive	1561
Ġaccording	1562
Ġever	1563
most	1564
eng	1565
year	1566
Ġprote	1567
wh	1568
aring	1569
Ġgames	1570
ison	1571
Ġhuman	1572
Ġbas	1573
Ġword	1574
ization	1575
Ġreturn	1576
Ġtimes	1577
Ġorder	1578
ĠRuss	1579
Ġbit	1580
ĠDem	1581
Ġname	1582
oint	1583
11	1584
gin	1585
Ġsever	1586
ĠCon	1587
ĠAll	1588
Ġpar	1589
Ġdev	1590
icle	1591
for	1592
uture	1593
ither	1594
iqu	1595
Ġ199	1596
ĠMc	1597
ĠAt	1598
Ġwr	1599
raft	1600
Ġsing	1601
Ġperform	1602
ĠSy	1603
idd	1604
Ġmarket	1605
Ġfac	1606
Ġcharac	1607
There	1608
ĠOr	1609
ĠMay	1610
Ġra	1611
Ġdoing	1612
Ġappear	1613
ER	1614
ched	1615
Ġplayers	1616
Ġla	1617
Ġnight	1618
Ġlear	1619
aken	1620
rop	1621
ats	1622
mber	1623
Ġtoday	1624
Ġearly	1625
Ġ15	1626
Ġseen	1627
//	1628
Ġhaving	1629
Ġ,	1630
Ġpot	1631
Ġchildren	1632
Ġevent	1633
Ġmedia	1634
Ġsocial	1635
Ġcrit	1636
ĠPresident	1637
Ġwhether	1638
Ġseveral	1639
Ġcontrol	1640
idence	1641
ene	1642
Ġmeet	1643
sh	1644
Ġmilit	1645
Ġpress	1646
Ġwent	1647
artment	1648
Ġfive	1649
Ġyoung	1650
ories	1651
Ġprop	1652
iously	1653
Ġsure	1654
Ġequ	1655
Ġquestion	1656
Ġocc	1657
une	1658
Ġlikely	1659
vert	1660
Ġmembers	1661
br	1662
Ġcertain	1663
ium	1664
ands	1665
Ġeng	1666
Ġwater	1667
ĠYork	1668
Ġexample	1669
ots	1670
ĠCol	1671
Ġside	1672
Ġarg	1673
Ġdone	1674
enn	1675
Ġvers	1676
Ġant	1677
Ġinvol	1678
ĠMr	1679
ĠStates	1680
ĠEurope	1681
ended	1682
let	1683
Ġalong	1684
Ġshort	1685
Ġsuccess	1686
ee	1687
ential	1688
Ġmonths	1689
ball	1690
Ġhour	1691
Ġ11	1692
ĠSte	1693
iver	1694
ially	1695
And	1696
Ġsex	1697
lf	1698
Ġwithin	1699
Ġdesc	1700
imate	1701
Ġcourse	1702
Ġfight	1703
urch	1704
ubl	1705
Ġamong	1706
Ġactiv	1707
uff	1708
âĢĵ	1709
ague	1710
Ġonce	1711
ster	1712
Ġfuture	1713
Ġinvestig	1714
ulation	1715
rew	1716
Ġpossible	1717
ĠObama	1718
Ġcho	1719
nect	1720
ĠCar	1721
Ġunderstand	1722
iting	1723
Ġconcer	1724
ĠOn	1725
Ġ]	1726
ones	1727
ortun	1728
Ġproblem	1729
ĠBr	1730
Ġpriv	1731
Ġmeans	1732
Ġviol	1733
Ġauthor	1734
itive	1735
ggest	1736
ĠNo	1737
Ġavail	1738
oci	1739
ourn	1740
my	1741
Ġknown	1742
Ġproduct	1743
Ġnon	1744
ivid	1745
Ġthought	1746
Ġyet	1747
gress	1748
Ġacross	1749
Ġlocal	1750
ald	1751
ler	1752
Ġhold	1753
ĠTe	1754
Ġfail	1755
ĠWhen	1756
ĠState	1757
inc	1758
Ġcommunity	1759
Ġreason	1760
Ġorig	1761
Ġsuggest	1762
Ġ&	1763
12	1764
Ġmakes	1765
verage	1766
por	1767
not	1768
back	1769
Ġ2016	1770
Ġi	1771
book	1772
Ġasked	1773
ederal	1774
orld	1775
Ġreported	1776
You	1777
aged	1778
ensive	1779
Ġgiven	1780
Ġstrong	1781
Ġprob	1782
Ġmus	1783
Ġothers	1784
Ġbelieve	1785
Ġvideo	1786
iber	1787
Ġben	1788
Ġgetting	1789
ĠHouse	1790
ances	1791
Ġannoun	1792
Ġlight	1793
ored	1794
ober	1795
ĠUniversity	1796
Ġ30	1797
itions	1798
Ġident	1799
iron	1800
Ġsent	1801
Ġcut	1802
Ġlim	1803
Ġca	1804
ĠChrist	1805
ĠCo	1806
iety	1807
30	1808
urther	1809
Ġsour	1810
Ġcreat	1811
Ġcond	1812
ĠX	1813
ams	1814
've	1815
Ġnet	1816
ashing	1817
Ġbat	1818
ament	1819
Ġnational	1820
.,	1821
Ġclose	1822
Ġstarted	1823
Ġsaf	1824
Ġdeath	1825
aster	1826
Ġavailable	1827
arm	1828
For	1829
Ġhig	1830
Ġbased	1831
Ġissue	1832
Ġindust	1833
ĠMin	1834
ĠDemocrat	1835
Ġlow	1836
Ġfollowing	1837
resent	1838
Ġaccount	1839
Ġland	1840
use	1841
ĠCent	1842
Ġemploy	1843
Ġlove	1844
Ġ2015	1845
Ġ#	1846
Ġhistory	1847
Ġago	1848
orts	1849
selves	1850
Ġmom	1851
Ġparty	1852
ability	1853
Ġseries	1854
Ġcomes	1855
Ġtrying	1856
uly	1857
utes	1858
Ġalmost	1859
ĠAm	1860
gether	1861
ument	1862
Ġtogether	1863
ination	1864
AT	1865
ĠAmerica	1866
Ġidea	1867
pro	1868
ief	1869
Ġaccess	1870
Ġfoc	1871
eb	1872
hers	1873
ilar	1874
ĠFl	1875
reed	1876
ails	1877
Ġcommit	1878
itional	1879
Ġisn	1880
ĠSen	1881
Ġclear	1882
Ġ16	1883
ĠOne	1884
Ġtrad	1885
though	1886
ring	1887
ĠWhat	1888
Ġpract	1889
Ġadded	1890
Ġimpro	1891
Ġexperience	1892
erence	1893
Ġfilm	1894
15	1895
Ġhalf	1896
ustom	1897
ged	1898
Ġhit	1899
af	1900
ĠBro	1901
witter	1902
rict	1903
Ġanal	1904
Ġprot	1905
inton	1906
ograp	1907
unch	1908
Ġ2014	1909
Ġrul	1910
ividual	1911
Ġlooking	1912
Ġsix	1913
Ġlive	1914
Ġanything	1915
Ġarea	1916
Ġcomplete	1917
erman	1918
minist	1919
Ġmiss	1920
rael	1921
ĠComm	1922
Ġfav	1923
ĠEx	1924
tempt	1925
Ġris	1926
ai	1927
nes	1928
Ġpresent	1929
ote	1930
rug	1931
Ġsaying	1932
raw	1933
aid	1934
ĠCanad	1935
Ġvict	1936
IN	1937
cially	1938
Ġbad	1939
ows	1940
uge	1941
Ġtaken	1942
Ġentire	1943
ert	1944
oto	1945
ĠPr	1946
ators	1947
Ġmor	1948
Ġbill	1949
Ġcompet	1950
ĠEng	1951
Ġbehind	1952
ien	1953
Ġaut	1954
'm	1955
ĠTo	1956
Ġcourt	1957
play	1958
Ġtry	1959
Ġtre	1960
wards	1961
Ġmilitary	1962
Ġz	1963
Ġnear	1964
osp	1965
What	1966
Ġface	1967
Ġmult	1968
Ġ14	1969
Ġsecurity	1970
Ġer	1971
ĠPol	1972
ps	1973
ev	1974
Ġproper	1975
Ġdiscuss	1976
Ġthreat	1977
Ġstudy	1978
Ġsingle	1979
Ġrather	1980
Ġindividual	1981
ĠAf	1982
ĠWar	1983
ĠBrit	1984
Ġsw	1985
ĠÂ	1986
Ġquick	1987
Ġtot	1988
ĠDon	1989
An	1990
Ġmind	1991
ĠSec	1992
lement	1993
ales	1994
amed	1995
atic	1996
ĠNorth	1997
aper	1998
Ġpubl	1999
par	2000
Ġpolicy	2001
Ġmess	2002
ris	2003
Ġblack	2004
Ġwanted	2005
Ġfall	2006
irc	2007
**	2008
off	2009
Ġfood	2010
Ġsum	2011
Ġsomeone	2012
lling	2013
ids	2014
On	2015
ĠDep	2016
ĠMan	2017
Ġ/	2018
Ġcult	2019
Ġspecial	2020
Ġcomb	2021
Ġkey	2022
Ġplayer	2023
Ġredu	2024
Ġ|	2025
ĠGr	2026
Ġbring	2027
Ġ13	2028
Ġcompan	2029
Ġ17	2030
ply	2031
rote	2032
Ġattempt	2033
ĠBar	2034
ĠNational	2035
Ġtaking	2036
When	2037
yn	2038
ON	2039
ify	2040
olution	2041
Ġ:	2042
viron	2043
Ġfoot	2044
ĠCal	2045
://	2046
Ġelse	2047
Ġpret	2048
Ġbody	2049
Ġspace	2050
over	2051
dd	2052
Ġcoun	2053
elt	2054
Ġprobably	2055
16	2056
icult	2057
.)	2058
Ġfront	2059
Ġcou	2060
Ġnothing	2061
ashington	2062
ĠIm	2063
Ġconnect	2064
ches	2065
ĠWorld	2066
Ġresearch	2067
14	2068
ming	2069
ĠClinton	2070
ĠCity	2071
Ġcoming	2072
Ġpoints	2073
ĠIsrael	2074
RE	2075
Ġhowever	2076
Ġdescrib	2077
go	2078
Ġjo	2079
Ġsignific	2080
Ġsimilar	2081
lier	2082
reme	2083
cing	2084
Ġbenef	2085
ĠAust	2086
Ġdecision	2087
Ġeither	2088
aces	2089
ĠHar	2090
ault	2091
Ġmass	2092
mb	2093
Ġsus	2094
Ġtarg	2095
ully	2096
sy	2097
ana	2098
Ġfeat	2099
That	2100
Ġimm	2101
Ġconv	2102
Ġexist	2103
irl	2104
Ġenc	2105
Ġ2013	2106
Ġrights	2107
Ġservice	2108
ĠSu	2109
asing	2110
ung	2111
IS	2112
oon	2113
Ġfire	2114
Ġdoc	2115
Ġwrote	2116
Ġfurther	2117
Ġhouse	2118
rodu	2119
Ġban	2120
ww	2121
Ġfig	2122
Ġchall	2123
Ġthird	2124
Ġprotect	2125
Ġwa	2126
Ġcreate	2127
sw	2128
Ġstop	2129
Ġfield	2130
now	2131
Ġpick	2132
AN	2133
ape	2134
ively	2135
Ġmeas	2136
Ġrepl	2137
Ġcompl	2138
ĠWith	2139
Ġissues	2140
pping	2141
Ġbegin	2142
Ġsuper	2143
amer	2144
Ġstep	2145
ried	2146
ently	2147
Ġwhole	2148
Ġrelations	2149
Ġseems	2150
Ġ)	2151
Ġtem	2152
Ġcompanies	2153
pecially	2154
Ġdue	2155
Ġexec	2156
Ġcand	2157
Ġeverything	2158
Ġfederal	2159
Ġstates	2160
ĠGu	2161
Ġey	2162
Ġroom	2163
aul	2164
Ġtra	2165
Ġwatch	2166
ĠGe	2167
Ġcustom	2168
Ġleaders	2169
ran	2170
13	2171
uation	2172
ĠHowever	2173
pite	2174
ĠJan	2175
ĠWashington	2176
Ch	2177
lam	2178
Ġself	2179
Ġrole	2180
ilt	2181
Ġsound	2182
Ġlab	2183
head	2184
Ġdam	2185
ivil	2186
Ġofficials	2187
Ġstri	2188
So	2189
lu	2190
Ġ2012	2191
iday	2192
ibility	2193
Ġreleased	2194
ĠInst	2195
Ġbegan	2196
ĠDav	2197
ĠApp	2198
ĠSouth	2199
Ġopt	2200
obal	2201
Ġstudents	2202
Ġtreat	2203
eal	2204
Ġfinal	2205
Ġcharacter	2206
Ġposition	2207
Ġmatter	2208
Ã©	2209
ender	2210
Ġener	2211
lim	2212
Ġdou	2213
Ġoutside	2214
ery	2215
sec	2216
ades	2217
vironment	2218
Ġdevelopment	2219
Ġstatement	2220
Ġhimself	2221
Ġ2017	2222
Ġstat	2223
Ġabove	2224
like	2225
Ġinit	2226
Ġbreak	2227
Ġ100	2228
Ġamount	2229
Ġprovide	2230
att	2231
Ġhours	2232
Ġitself	2233
Ġthemselves	2234
Ġoffice	2235
Ġrepresent	2236
Ġaction	2237
Ġdi	2238
Ġbecame	2239
Ġ198	2240
Ġgeneral	2241
Ġcontinue	2242
ĠPart	2243
Ġcountries	2244
ĠIntern	2245
Ġneg	2246
iod	2247
Ġaddress	2248
tee	2249
Ġ25	2250
Ġgun	2251
aced	2252
ask	2253
Ġtrue	2254
Ġspecific	2255
ograph	2256
umb	2257
arter	2258
reg	2259
Ġlarg	2260
Ġsignificant	2261
lish	2262
Ġsimply	2263
ĠAss	2264
ĠRes	2265
Ġwasn	2266
'll	2267
Ġinterview	2268
acebook	2269
ili	2270
Ġground	2271
Ġrad	2272
oid	2273
ogn	2274
Ġdifficult	2275
Ġrunning	2276
ĠJust	2277
Ġevidence	2278
Ġadminist	2279
BC	2280
Ġcop	2281
17	2282
ream	2283
Ġdrug	2284
Ġversion	2285
Ġbar	2286
ogle	2287
ĠEd	2288
Ġagree	2289
iddle	2290
eks	2291
Ġbuilding	2292
ĠChina	2293
Ġneeds	2294
Ġprofess	2295
angu	2296
Ġgroups	2297
Ġtyp	2298
Ġrespons	2299
Ġcommon	2300
Ġshows	2301
Ġeveryone	2302
Ġdom	2303
Ġdest	2304
Ġneeded	2305
Ġball	2306
Ġwoman	2307
ĠGerman	2308
Ġlat	2309
Ġbelow	2310
right	2311
ĠSep	2312
light	2313
ournal	2314
Ġmusic	2315
Ġexc	2316
Ġrelease	2317
ift	2318
Ġinj	2319
Ġpretty	2320
ĠMed	2321
ĠAb	2322
AR	2323
ribut	2324
Ġinclude	2325
Ġsaw	2326
Ġdeep	2327
body	2328
Ġap	2329
18	2330
Ġplayed	2331
Ġquite	2332
Ġindustry	2333
Ġcharg	2334
Ġmag	2335
Ġenergy	2336
Ġplaying	2337
Ġmot	2338
Ġ50	2339
Ġcandid	2340
Ġsense	2341
Ġphys	2342
Ġlate	2343
Ġalleg	2344
Ġwhite	2345
ĠHis	2346
ival	2347
Ġfriends	2348
Ġgen	2349
Ġlegal	2350
atur	2351
Ġanim	2352
isc	2353
bo	2354
yle	2355
ĠAfter	2356
How	2357
AS	2358
where	2359
Ġabs	2360
lev	2361
Ġinstead	2362
Ġred	2363
Ġbillion	2364
Ġlost	2365
Ġespecially	2366
Ġvalue	2367
ĠMus	2368
ĠWest	2369
Ġhost	2370
Ġhom	2371
time	2372
osing	2373
oring	2374
ĠNews	2375
ager	2376
Ġple	2377
istic	2378
Ġweeks	2379
epend	2380
ĠNot	2381
ccording	2382
omm	2383
Ġforward	2384
ique	2385
Ġdeter	2386
Ġelection	2387
Ġrecently	2388
Ġjud	2389
Ġtrack	2390
Ġsuff	2391
Ġvote	2392
lt	2393
ĠTwitter	2394
Ġobject	2395
medi	2396
Ġperiod	2397
Ġchanges	2398
Ġopportun	2399
ĠWhite	2400
ĠOct	2401
Ġlonger	2402
irt	2403
arc	2404
oke	2405
Ġpain	2406
Ġsoon	2407
Ġsite	2408
Ġ{	2409
Ġep	2410
hod	2411
ript	2412
ached	2413
Ġaccept	2414
ĠCong	2415
____	2416
Ġshoot	2417
Ġeconomic	2418
Ġhope	2419
irm	2420
oe	2421
Ġmoment	2422
Ġdecl	2423
lege	2424
Ġconsum	2425
ĠWill	2426
Ġpie	2427
Ġtit	2428
Ġcheck	2429
oph	2430
Ġpotential	2431
Ġblock	2432
ĠMarch	2433
ij	2434
ole	2435
Ġwrong	2436
duct	2437
ners	2438
ĠDepartment	2439
Ġhigher	2440
onse	2441
Ġcred	2442
Ġonline	2443
Ġfocus	2444
Ġ24	2445
Ġconsider	2446
key	2447
Ġeduc	2448
ancial	2449
ĠMy	2450
ns	2451
iding	2452
Ġcirc	2453
Ġworks	2454
Ġrelig	2455
Ġshare	2456
Ġparent	2457
cial	2458
Ġheld	2459
25	2460
Ġpred	2461
ĠDr	2462
Ġwalk	2463
Ġwebs	2464
Ġled	2465
Ġlo	2466
ularly	2467
==	2468
Ġreve	2469
lear	2470
Ġstay	2471
ĠThese	2472
overed	2473
Ġstru	2474
Ġgoal	2475
ĠRepublican	2476
Ġrisk	2477
Ġwords	2478
ĠAug	2479
Ġrev	2480
Ġsold	2481
Ġreview	2482
icro	2483
Ġcontract	2484
Ġresults	2485
Ġservices	2486
Ġlaws	2487
They	2488
Ġcode	2489
cil	2490
ĠMich	2491
Ġwind	2492
Ġfunction	2493
Ġaud	2494
ĠSyri	2495
Ġce	2496
put	2497
Ġtotal	2498
aut	2499
fect	2500
Ġarticle	2501
Ġage	2502
Ġapplic	2503
Ġminutes	2504
urd	2505
ĠMe	2506
Ġpersonal	2507
ilities	2508
Ġanyone	2509
uary	2510
ients	2511
itution	2512
ĠJune	2513
asons	2514
Ad	2515
ateg	2516
Ġprim	2517
anger	2518
Ġtarget	2519
Ġden	2520
Ġearlier	2521
ule	2522
Ġfavor	2523
Ġexpress	2524
haps	2525
Ġdead	2526
fer	2527
Ġansw	2528
che	2529
Ġupd	2530
Ġpopular	2531
Ġcomput	2532
Ġvol	2533
pril	2534
Ġnecess	2535
ham	2536
Ġhy	2537
Ġrate	2538
ES	2539
aging	2540
Ġtechnology	2541
apan	2542
Ġrespect	2543
val	2544
ĠPe	2545
Ġenvironment	2546
Ġ2011	2547
Ph	2548
Ġreceived	2549
ĠNe	2550
Ġexpected	2551
ĠPar	2552
ember	2553
ude	2554
ends	2555
Ġbase	2556
Ġcreated	2557
Ġsurpr	2558
Ġanti	2559
ĠSm	2560
ĠJuly	2561
alt	2562
eter	2563
Ġproblems	2564
uel	2565
Ġways	2566
iple	2567
Ġport	2568
action	2569
Ġprivate	2570
ĠDo	2571
Ġscient	2572
Ġincrease	2573
ray	2574
reet	2575
Ġannounced	2576
Ġcomment	2577
isl	2578
Ġcannot	2579
Ġeasy	2580
Al	2581
Ġshot	2582
ĠCongress	2583
Ġquestions	2584
ĠEn	2585
bit	2586
Ġforce	2587
aterial	2588
hern	2589
Ġimpact	2590
Ġet	2591
ĠMond	2592
na	2593
ples	2594
Ġpack	2595
Ġ+	2596
ĠFacebook	2597
Ġpur	2598
Ġlangu	2599
atives	2600
ĠGod	2601
ctor	2602
Ġinvolved	2603
omb	2604
aving	2605
ills	2606
60	2607
lex	2608
hood	2609
onst	2610
ĠAustral	2611
Ġdiv	2612
uesday	2613
Ġexecut	2614
Ġmodel	2615
itiz	2616
Ġsen	2617
Ġspeak	2618
Ġstaff	2619
Ġexact	2620
Ġcivil	2621
ires	2622
Ġnearly	2623
Ġtype	2624
ourt	2625
okes	2626
Ġoriginal	2627
Ġcases	2628
Ġcontent	2629
Ġ197	2630
Ġrelationship	2631
Ġterror	2632
ĠGoogle	2633
To	2634
Ġleave	2635
ĠFriday	2636
Ġresponse	2637
Ġcapt	2638
Ġinside	2639
Ġ<	2640
rem	2641
Ġphot	2642
At	2643
lled	2644
Ġfans	2645
llig	2646
ĠApril	2647
ĠRed	2648
Ġinternational	2649
Ġcoll	2650
Ġheart	2651
Ġaverage	2652
Ġbroad	2653
Ġarrest	2654
Ġusers	2655
ĠCount	2656
cast	2657
Ġcal	2658
rel	2659
Ġcell	2660
Ġworth	2661
Ġsoft	2662
Ġur	2663
Ġliving	2664
ĠEm	2665
bor	2666
ips	2667
Ġnation	2668
ky	2669
Ġkilled	2670
Ġreports	2671
Ġ2010	2672
ãģ	2673
ging	2674
Ġbecom	2675
Ġsource	2676
ĠMonday	2677
ĠTuesday	2678
Ġsubject	2679
ech	2680
Ġworked	2681
atural	2682
ests	2683
Ġestab	2684
Ġimmedi	2685
EN	2686
Ġrespond	2687
Ġglobal	2688
Ġassoci	2689
joy	2690
tember	2691
Ġclub	2692
ops	2693
ĠAmericans	2694
ael	2695
Ġobs	2696
ites	2697
ĠPer	2698
ĠPal	2699
Ġchance	2700
Ġoil	2701
ĠAct	2702
Ġability	2703
Ġtakes	2704
rought	2705
Ġweap	2706
hel	2707
Ġprice	2708
ĠJapan	2709
ological	2710
Ġdirector	2711
izing	2712
Ġworkers	2713
Ġterms	2714
Ġtou	2715
Ġroad	2716
mon	2717
Ġpublished	2718
Ġdel	2719
ĠWhile	2720
Ġphone	2721
rain	2722
Ġcollect	2723
Ġfinancial	2724
Ġmid	2725
osition	2726
Ġdecided	2727
ises	2728
OR	2729
ĠRussia	2730
ĠSome	2731
ĠWed	2732
Ġmother	2733
Ġsqu	2734
Ġdefin	2735
Ġlack	2736
ovember	2737
Ġ40	2738
Ġgirl	2739
Ġstore	2740
Ġgave	2741
Ġbuy	2742
Ġinflu	2743
ĠCalif	2744
Ġlog	2745
Ġhappened	2746
ino	2747
Ġrequire	2748
ĠNow	2749
Ġemer	2750
Ġfem	2751
ĠSan	2752
Ġcapital	2753
clus	2754
Ġforeign	2755
Ġcurrently	2756
ĠOff	2757
based	2758
Ġgoes	2759
ĠBy	2760
oved	2761
ĠGeor	2762
vertise	2763
Ġsituation	2764
ĠCor	2765
Ġindic	2766
Ġoffer	2767
Ġwhose	2768
Ġ@	2769
Ġtal	2770
Ġmaterial	2771
Ġlives	2772
Ġaffect	2773
rown	2774
ought	2775
Ġplans	2776
nesday	2777
unt	2778
ese	2779
Ġarri	2780
Ġmember	2781
Ġpict	2782
ursday	2783
ĠFeb	2784
Ġparticip	2785
ruction	2786
Ġrecogn	2787
Ġturned	2788
Ġmethod	2789
Ġevents	2790
ĠJanuary	2791
ĠHill	2792
".	2793
Ġnetwork	2794
One	2795
ctions	2796
Ġteams	2797
ĠSund	2798
fully	2799
Ġbank	2800
Ġmeeting	2801
40	2802
Ġnorm	2803
Ġintrodu	2804
Ġsimple	2805
ĠIslam	2806
Ġill	2807
ĠAg	2808
Ġhuge	2809
ĠSeptember	2810
oud	2811
Ġregard	2812
Ġareas	2813
Ġcy	2814
order	2815
ĠTV	2816
Ġcouple	2817
Ġapproach	2818
Ġcareer	2819
aur	2820
ĠAfric	2821
ĠGl	2822
load	2823
ttp	2824
",	2825
Ġdeli	2826
Ġrace	2827
lin	2828
Ġperformance	2829
Ġpage	2830
ety	2831
apt	2832
ĠNovember	2833
Ġtool	2834
ĠDavid	2835
Ġfelt	2836
Ġquickly	2837
Ġmis	2838
Ġnumbers	2839
oor	2840
Ġemail	2841
Ġ21	2842
aily	2843
Ġord	2844
ĠEl	2845
istan	2846
ees	2847
Ġadministration	2848
Ġhon	2849
ĠWednesday	2850
Ġvictim	2851
ĠPaul	2852
Ġvia	2853
Ġimprove	2854
Ġengine	2855
Ġtext	2856
chie	2857
--------	2858
Ġfre	2859
Ġpull	2860
ĠAng	2861
Ġround	2862
bl	2863
Ġbuilt	2864
Ġ22	2865
Ġpers	2866
ĠEuropean	2867
Ġdig	2868
ĠThursday	2869
Ġfather	2870
ened	2871
ornia	2872
Ġloss	2873
avy	2874
Ġthous	2875
ÂŃ	2876
ructure	2877
Ġproduction	2878
Ġboy	2879
ume	2880
Ġheard	2881
eed	2882
down	2883
Sh	2884
Ġeconomy	2885
Ġenjoy	2886
ĠAugust	2887
Ġtrade	2888
ĠSch	2889
face	2890
Ġwebsite	2891
iment	2892
Ġsecret	2893
Ġcover	2894
Ġreveal	2895
Ġwide	2896
Ġboard	2897
Ġmatch	2898
AL	2899
Ġallowed	2900
ĠCourt	2901
Ġhands	2902
Ġspent	2903
Ġtravel	2904
Ġlower	2905
Ġbi	2906
Ġrepe	2907
atory	2908
Ġpoll	2909
Ġincluded	2910
Ġste	2911
cember	2912
ĠOctober	2913
Ġneigh	2914
Ġlegisl	2915
orters	2916
uses	2917
Ġbehav	2918
iction	2919
Ġknew	2920
Ġwants	2921
Ġtown	2922
?âĢĿ	2923
ights	2924
ĠBritish	2925
Ġsepar	2926
ences	2927
estern	2928
Ġvisit	2929
ĠCanada	2930
rect	2931
anks	2932
With	2933
Ġperfect	2934
Ġgets	2935
ession	2936
Ġmovement	2937
ze	2938
ishing	2939
ground	2940
agement	2941
Ġtried	2942
Ġcause	2943
âĢĿ.	2944
gest	2945
Ġ}	2946
Ġforces	2947
ĠSunday	2948
Ġens	2949
After	2950
force	2951
ceed	2952
Ġattention	2953
Ġparticular	2954
][	2955
ening	2956
Ġveh	2957
Ġbud	2958
Ġfear	2959
Ġpopulation	2960
Ġvarious	2961
ĠUK	2962
Ġreach	2963
ma	2964
Ġlooks	2965
Ġ23	2966
ĠCalifornia	2967
Ġbrought	2968
Ġvo	2969
ĠKore	2970
Ġlink	2971
ibly	2972
);	2973
urning	2974
arily	2975
ĠIS	2976
200	2977
Ġprevious	2978
ED	2979
Ġmention	2980
ĠRussian	2981
Ġmorning	2982
ĠQu	2983
cle	2984
idered	2985
ĠSw	2986
'd	2987
Ġfair	2988
Ġgrowth	2989
aker	2990
undred	2991
99	2992
sequ	2993
yond	2994
Ġprogress	2995
Ġfell	2996
raz	2997
alled	2998
Ġsong	2999
iam	3000
AC	3001
Ġtraining	3002
hold	3003
Ġsize	3004
uk	3005
Re	3006
ĠBlack	3007
cies	3008
ĠDecember	3009
idents	3010
field	3011
ledge	3012
ĠHer	3013
Ġcontact	3014
Ġdemand	3015
While	3016
Ġimage	3017
Ġhor	3018
Ġrac	3019
Ġhot	3020
ification	3021
OS	3022
Ġleader	3023
ecause	3024
Ġrules	3025
Ġliber	3026
Ġprep	3027
Ġsearch	3028
Ġess	3029
ĠPost	3030
set	3031
Ġcitiz	3032
Ġupon	3033
Ġstrugg	3034
ĠStreet	3035
Ġlatest	3036
come	3037
Ġindepend	3038
US	3039
uments	3040
inks	3041
arth	3042
Ġfeatures	3043
Ġcoach	3044
ondon	3045
ĠPark	3046
ges	3047
Tr	3048
Ġfast	3049
Ġtalking	3050
ĠCont	3051
ĠJew	3052
Ġaddition	3053
Ġstar	3054
Ġwond	3055
ĠSenate	3056
de	3057
oo	3058
IT	3059
ĠPat	3060
Ġspeed	3061
Ġexam	3062
iant	3063
Ġconsidered	3064
raq	3065
icles	3066
aries	3067
Ġreb	3068
omp	3069
bed	3070
Ġlevels	3071
eth	3072
ĠTimes	3073
ĠCounty	3074
lligence	3075
Ġslow	3076
Ġinvestigation	3077
ille	3078
Ġconduct	3079
aph	3080
ĠParty	3081
22	3082
ĠKing	3083
Ġmedical	3084
Ġmach	3085
imately	3086
vent	3087
Ġachie	3088
Ġlanguage	3089
aturday	3090
Ġcard	3091
Ġsn	3092
unk	3093
Ġcritic	3094
Ġsort	3095
ope	3096
ĠCenter	3097
ĠTex	3098
Ġpen	3099
Ġund	3100
wo	3101
ĠIndia	3102
Ġpaper	3103
ysis	3104
IC	3105
Ġ2008	3106
pir	3107
Ġconserv	3108
Ġparents	3109
imin	3110
Ġsexual	3111
Ġsystems	3112
Ġprior	3113
ha	3114
uit	3115
asc	3116
Ġdoll	3117
Ġwritten	3118
uf	3119
Ġsafe	3120
Ġbox	3121
Ġspokes	3122
igr	3123
Ġseek	3124
Ġsens	3125
Ġdocument	3126
het	3127
idge	3128
eared	3129
Ġincreasing	3130
Ġhear	3131
ani	3132
atform	3133
Ġdraw	3134
Ġseven	3135
Ġson	3136
ĠMuslim	3137
Ġeffort	3138
ruary	3139
Ġjobs	3140
sych	3141
ĠIran	3142
Ġextreme	3143
Ġprevent	3144
Ġlearn	3145
ining	3146
Ġserious	3147
Ġregul	3148
Ġinn	3149
Ġrange	3150
room	3151
rast	3152
Ġviolence	3153
ĠMark	3154
80	3155
ources	3156
ĠIraq	3157
itch	3158
OP	3159
Ġsurve	3160
Ġcompletely	3161
Ġconc	3162
Ġ...	3163
Ġ2009	3164
Ġmessage	3165
tr	3166
ico	3167
Ġâ	3168
She	3169
Ġobv	3170
Ġinteresting	3171
reedom	3172
Ġscreen	3173
abor	3174
Ġopportunity	3175
ĠKe	3176
ĠChar	3177
eff	3178
Ġclimate	3179
24	3180
Ġmajority	3181
anced	3182
Ġparticularly	3183
Ġdoub	3184
Ġjournal	3185
ĠRom	3186
Ġdespite	3187
Ġclaims	3188
Ġanswer	3189
Ġsociety	3190
mp	3191
ĠLondon	3192
Ġdefense	3193
Ġcarry	3194
entially	3195
aming	3196
Ġguy	3197
Ġextra	3198
ension	3199
ĠDonald	3200
isions	3201
Ġattacks	3202
Ġrequired	3203
erve	3204
rench	3205
illed	3206
Ġbiggest	3207
vertisement	3208
Ġexactly	3209
ĠEast	3210
Ġpaid	3211
ĠMore	3212
iers	3213
ibr	3214
Ġexperien	3215
Ġaren	3216
lying	3217
uclear	3218
inese	3219
Ġmodern	3220
Ġremain	3221
Ġquarter	3222
Ġofficers	3223
Ġhundred	3224
Ġcross	3225
Ġexcept	3226
ĠNet	3227
utions	3228
ari	3229
Ġtable	3230
Ġpractice	3231
Ġnatural	3232
inally	3233
Ġmiddle	3234
erc	3235
Ġ27	3236
Ġcertainly	3237
Ġdro	3238
oses	3239
ĠSaturday	3240
Ġstories	3241
Ġhistor	3242
Ġgas	3243
Ġproducts	3244
Ġsurv	3245
Ġlooked	3246
Ġsometimes	3247
nces	3248
Ġstuff	3249
Ġscience	3250
Ġfinally	3251
Ġuser	3252
AM	3253
Ġsummer	3254
Ġmovie	3255
Ġblood	3256
ospital	3257
aves	3258
Ġcommunic	3259
Ġaw	3260
ously	3261
Ġlay	3262
Ġchanged	3263
Ġones	3264
add	3265
Ġleading	3266
Ġdescribed	3267
ĠSand	3268
Ġimag	3269
Ġterm	3270
Ġeight	3271
ĠFebruary	3272
Ġprison	3273
Ġconvers	3274
fl	3275
ny	3276
Ġdetails	3277
icks	3278
Ġstarting	3279
ĠSpe	3280
Ġquality	3281
Ġoccur	3282
Ġpan	3283
hib	3284
Ġshowed	3285
Ġnamed	3286
Ġgiving	3287
Ġult	3288
Ġremains	3289
ĠMcC	3290
uing	3291
Ġregion	3292
pper	3293
Ġprovided	3294
Ġcosts	3295
akers	3296
ĠSoc	3297
arr	3298
Ġdamage	3299
ĠMor	3300
Ġmob	3301
Ġdanger	3302
Ġfit	3303
ĠTH	3304
ĠTur	3305
Ġchief	3306
aught	3307
Ġpoor	3308
Ġpath	3309
ida	3310
Ġeducation	3311
Ġmultiple	3312
Ġcontinued	3313
ett	3314
enge	3315
Ġgrowing	3316
No	3317
Ġdemonst	3318
Ġ*	3319
ĠChe	3320
Ġparts	3321
yl	3322
Ġ26	3323
Ġwriting	3324
Ġcomments	3325
Ġ28	3326
Ġment	3327
Ġmaintain	3328
Ġassist	3329
Ġthinking	3330
ĠDes	3331
inary	3332
ĠRepublicans	3333
ĠEven	3334
Ġpurp	3335
Ġrequest	3336
Ġwrite	3337
Ġfix	3338
Ġitem	3339
Ġpurch	3340
ĠCoun	3341
ables	3342
Ġdied	3343
ĠDemocratic	3344
FL	3345
coin	3346
ago	3347
Ġready	3348
Ġwouldn	3349
Ġimplement	3350
23	3351
Ġincreased	3352
Ġculture	3353
Ġefforts	3354
Ġvoters	3355
ux	3356
Ġcamer	3357
Ġmill	3358
aly	3359
....	3360
pre	3361
oper	3362
Ġreading	3363
mitted	3364
iminal	3365
Ġfile	3366
Ġusually	3367
Ġcalls	3368
Ġspot	3369
Ġeffects	3370
Im	3371
ĠGener	3372
zz	3373
ban	3374
Ġperhaps	3375
arian	3376
Ġalone	3377
fort	3378
iles	3379
ĠFirst	3380
ĠMon	3381
Ġalthough	3382
Ġtowards	3383
ĠLeague	3384
Ġconsist	3385
ĠBill	3386
ĠTexas	3387
Ġselect	3388
Ġguys	3389
Ġstandard	3390
ĠMichael	3391
Ġsubst	3392
Ġcele	3393
Ġbeyond	3394
Ġdirectly	3395
Ġplatform	3396
ĠChinese	3397
Ġ(@	3398
Ġhous	3399
using	3400
itute	3401
Ġspeech	3402
tered	3403
Ġreality	3404
icated	3405
Ġkids	3406
ĠJames	3407
Ġavoid	3408
Ġthroughout	3409
Ġfootball	3410
Ġstudent	3411
ara	3412
Ġcouldn	3413
rowd	3414
BI	3415
Ġunf	3416
ford	3417
Ġimmediately	3418
oul	3419
Ġrob	3420
Ġincludes	3421
Ġcat	3422
Ġconcept	3423
Ġcenter	3424
Ġchoice	3425
Ġscene	3426
Ġcomplex	3427
anch	3428
Ġadditional	3429
sp	3430
Ġchalleng	3431
ĠCons	3432
Ġwife	3433
Ġclos	3434
urt	3435
Ġtro	3436
Ġrecomm	3437
Ġresearc	3438
Ġepis	3439
hest	3440
itor	3441
Ġver	3442
ĠMinister	3443
Ġsle	3444
All	3445
Ġcorpor	3446
ĠâĢ¦	3447
Ġdesigned	3448
ĠSer	3449
urg	3450
agon	3451
Ġremember	3452
Ġsafety	3453
Ġsoftware	3454
ĠIndian	3455
wise	3456
Ġgone	3457
Ġil	3458
astic	3459
ports	3460
Ġsell	3461
Ġtoward	3462
Ġagency	3463
Ġten	3464
Ġofficer	3465
aches	3466
Ġfigure	3467
Ġpiece	3468
Ġbrain	3469
omen	3470
Ġbattle	3471
ĠJack	3472
men	3473
Ġcounter	3474
Ġdebate	3475
airs	3476
ression	3477
ston	3478
Ġthousands	3479
adem	3480
rupt	3481
Ġopin	3482
Ġahead	3483
icient	3484
Now	3485
imum	3486
Ġrelative	3487
irth	3488
Ġletter	3489
Ġreceive	3490
Ġpressure	3491
ĠÐ	3492
Ġblog	3493
oes	3494
ilies	3495
ampions	3496
Ġ>	3497
Ġsil	3498
Ġmoved	3499
Ġlaunch	3500
Ġappears	3501
Ġoption	3502
ĠPlay	3503
Ġpassed	3504
Ġut	3505
Ġclean	3506
Ġprec	3507
Ġstage	3508
roy	3509
Ġ60	3510
ĠBo	3511
ĠServ	3512
olute	3513
ĠII	3514
atever	3515
berg	3516
OT	3517
Ġproperty	3518
27	3519
Ġhelped	3520
amb	3521
Ġdrive	3522
ĠApple	3523
just	3524
Ġalleged	3525
ĠGreen	3526
Ġtwe	3527
new	3528
Ġdisapp	3529
Ġtour	3530
Ġmeaning	3531
Ġrock	3532
Ġdog	3533
Ġx	3534
Ġcris	3535
itation	3536
ĠAssoci	3537
Ġsuspect	3538
Ġdate	3539
ĠRich	3540
aughter	3541
Ġmoving	3542
Ġscore	3543
ĠDemocrats	3544
Ġorganization	3545
Ġsat	3546
Ġconditions	3547
Ġtouch	3548
Ġdark	3549
Ġcommand	3550
ĠThen	3551
?"	3552
Ġign	3553
Ġreasons	3554
Ġbudget	3555
Ġpark	3556
more	3557
Ġnuclear	3558
Ġmyself	3559
Ġnom	3560
Ġdeg	3561
Ġhappy	3562
Ġdevice	3563
Ġdifference	3564
rief	3565
ĠSim	3566
Ġmaybe	3567
chan	3568
Ġbeginning	3569
AD	3570
Ġcopy	3571
Ġnature	3572
Ġfailed	3573
Ġfan	3574
yan	3575
wood	3576
Ġcharacters	3577
Ġcast	3578
Ġcomputer	3579
Ġencour	3580
Ġaim	3581
Ġtitle	3582
Ġwall	3583
Ġcompared	3584
Ġleague	3585
ocked	3586
ĠSuper	3587
ivity	3588
Ġestim	3589
ĠVal	3590
ĠStar	3591
Ġcollege	3592
Ġeyes	3593
Ġshown	3594
ĠEnglish	3595
Ġcentury	3596
Ġpowerful	3597
ĠDay	3598
lease	3599
ource	3600
Ġbal	3601
aint	3602
Ġlimited	3603
Ġyes	3604
Ġband	3605
Ġcontribut	3606
Ġpositive	3607
Ġforced	3608
Ġsche	3609
Ġnecessary	3610
Ġrefer	3611
Ġcandidate	3612
Ġstra	3613
Ġdisp	3614
35	3615
cient	3616
Ġbooks	3617
Ġtrust	3618
AP	3619
ĠFrench	3620
Ġlargest	3621
26	3622
Ġarch	3623
enty	3624
Ġsal	3625
ĠHere	3626
Ġconference	3627
ĠRober	3628
aud	3629
Ġnote	3630
Ġanalysis	3631
ufact	3632
Ġspending	3633
Ġpresidential	3634
45	3635
ĠOf	3636
Ġcitizens	3637
orks	3638
Ġschools	3639
ĠMart	3640
igration	3641
ĠSyria	3642
Ġthrow	3643
Be	3644
venue	3645
ĠBen	3646
Ġaware	3647
Ġmeant	3648
Ġexecutive	3649
Ġeventually	3650
My	3651
Ġphysical	3652
Ġfollowed	3653
Ġfeature	3654
ĠTor	3655
Ġtreatment	3656
Ġcrowd	3657
ĠWind	3658
Ġfirm	3659
ĠAir	3660
Ġstreng	3661
Ġconfir	3662
Ġmix	3663
Ġbott	3664
ero	3665
orney	3666
Ġ29	3667
ares	3668
ĠDis	3669
Ġgrad	3670
Ġreligious	3671
Ġeasily	3672
board	3673
Ġautom	3674
Ġesc	3675
Ġpus	3676
band	3677
Is	3678
Ġcool	3679
etro	3680
Ġ196	3681
Ġfamilies	3682
Ġilleg	3683
ressed	3684
craft	3685
cul	3686
rated	3687
Ġactions	3688
Ġoverall	3689
ĠMex	3690
Ġallows	3691
Ġgives	3692
Ġfeed	3693
ĠÂ£	3694
ube	3695
):	3696
Ġsusp	3697
Ġyourself	3698
By	3699
Ġdraft	3700
bum	3701
ken	3702
Ġappeared	3703
Ġsmart	3704
Ġdetail	3705
Ġincome	3706
iring	3707
Ġanaly	3708
ĠBel	3709
Ġsigned	3710
New	3711
encies	3712
Ġcentral	3713
Ġideas	3714
Ġang	3715
ĠGovern	3716
Ġsenior	3717
Advertisement	3718
Ġfrequ	3719
Ġweapons	3720
Ġhar	3721
ID	3722
Ġdisplay	3723
Ġpromot	3724
Ġnice	3725
Ġcredit	3726
Ġdecades	3727
Ġpsych	3728
Ġpolitics	3729
Don	3730
Ġcrime	3731
OM	3732
EC	3733
Ġuses	3734
inn	3735
Ġdoor	3736
Ġdise	3737
uty	3738
ĠInternational	3739
Ġunique	3740
28	3741
Ġswe	3742
Ġaltern	3743
Ġlif	3744
According	3745
mar	3746
Ġdrop	3747
Ġsales	3748
Ar	3749
Ġdeveloped	3750
resh	3751
Ġcustomers	3752
ET	3753
Ġbenefits	3754
Ġconflic	3755
urance	3756
Ġrelated	3757
Ġcrisis	3758
ĠSchool	3759
Ġmist	3760
erry	3761
iable	3762
Ġpredict	3763
Ġnoted	3764
ĠCap	3765
29	3766
ĠAustralia	3767
ĠEU	3768
Ġtruth	3769
box	3770
Ġgoals	3771
iny	3772
Ġindividuals	3773
Ġcharge	3774
ĠEarth	3775
part	3776
Ġbeaut	3777
Ġcontinues	3778
onents	3779
ĠUnion	3780
ĠArab	3781
Ġobserv	3782
Ġrap	3783
Ġchallenge	3784
Ġsto	3785
nown	3786
Ġapparent	3787
ĠAngel	3788
itely	3789
ĠSmith	3790
Ġlic	3791
Ġprojects	3792
Ġpeace	3793
Ġmeasure	3794
ĠPolice	3795
Ġcorrect	3796
oti	3797
Ġintelligence	3798
ĠChristian	3799
Ġpreviously	3800
ĠGermany	3801
Ġfully	3802
Ġrule	3803
Ġmanager	3804
Ġbrother	3805
Ġrates	3806
Ġadvant	3807
Un	3808
change	3809
Ġexpand	3810
Ġclearly	3811
Ġreform	3812
Ġlines	3813
net	3814
Ġsuccessful	3815
riage	3816
Ġhighly	3817
Ġlarger	3818
ounds	3819
21	3820
Ġtraff	3821
Ġspread	3822
iance	3823
Ġseemed	3824
ĠCouncil	3825
ki	3826
Ġstraight	3827
Some	3828
ĠComp	3829
Ġcriminal	3830
Ġminor	3831
Ġemb	3832
ĠGeorge	3833
Ġprograms	3834
iced	3835
attle	3836
owers	3837
ĠFranc	3838
Ġincident	3839
Ġresources	3840
ĠTom	3841
Ġgreater	3842
Ġprimary	3843
IA	3844
inated	3845
antly	3846
Ġknowledge	3847
Ġstudies	3848
while	3849
dom	3850
Ġsave	3851
orter	3852
Ġweb	3853
ategy	3854
Ġkept	3855
Ġattract	3856
ĠFlor	3857
olic	3858
Ġspir	3859
que	3860
Ġemot	3861
Ġcolor	3862
Ġfeet	3863
ean	3864
ĠCr	3865
sey	3866
Ġrare	3867
Ġreached	3868
secut	3869
Ġarm	3870
ĠHigh	3871
levision	3872
ĠInternet	3873
ĠBrown	3874
oday	3875
iders	3876
osh	3877
rs	3878
Ġfavorite	3879
Ġplaces	3880
ĠRec	3881
Ġregular	3882
wide	3883
ota	3884
Ġmanufact	3885
Ġlaun	3886
ĠDef	3887
100	3888
Ġsend	3889
Ġprem	3890
ĠHam	3891
roll	3892
lick	3893
icit	3894
Ġknows	3895
Ġshooting	3896
Ġactivity	3897
Ġpun	3898
Ġsources	3899
Ġnormal	3900
icago	3901
bon	3902
term	3903
onent	3904
ingly	3905
ser	3906
ĠAnt	3907
ville	3908
Ġstatus	3909
Ġfighting	3910
Ġvoice	3911
Ġrise	3912
ocks	3913
Ġfine	3914
Ġowners	3915
Ġcaused	3916
Ġclaimed	3917
ĠMac	3918
Ġenem	3919
Ġliter	3920
ĠRob	3921
ĠGeneral	3922
aith	3923
EO	3924
Ġoptions	3925
Ġ2007	3926
Ġintegr	3927
ength	3928
ĠUp	3929
usion	3930
Ġspend	3931
ĠGold	3932
ado	3933
Ġcities	3934
miss	3935
Ġorganiz	3936
ING	3937
Ġended	3938
iled	3939
Ġresearchers	3940
Ġcalling	3941
Ġshut	3942
Ġreflect	3943
ĠLa	3944
mission	3945
Pro	3946
mark	3947
org	3948
âĢĿ,	3949
oles	3950
70	3951
roid	3952
Ġprices	3953
ĠEvery	3954
Ġalbum	3955
ĠFrom	3956
ifying	3957
Ġemployees	3958
Ġfemale	3959
ĠEngland	3960
ya	3961
www	3962
Ġvirt	3963
Ġhaven	3964
Ġele	3965
Ġraised	3966
mittee	3967
Ġjump	3968
uana	3969
33	3970
Ġsupposed	3971
itness	3972
Ġhappens	3973
Ġadding	3974
Ġpolicies	3975
Ġnames	3976
Ġcharges	3977
ĠBre	3978
Ġpros	3979
Ġtrou	3980
ribution	3981
ica	3982
uman	3983
Ġbasic	3984
iverse	3985
Not	3986
ĠMag	3987
Ġconcerns	3988
Ġtraditional	3989
Ġwait	3990
inger	3991
Ġabsolute	3992
Ġacqu	3993
Ġplant	3994
Ġhospital	3995
Ġfunding	3996
ram	3997
ĠBay	3998
Ġslight	3999
Ġcommer	4000
rol	4001
Ġprint	4002
Ġpatients	4003
Sc	4004
Ġauthorities	4005
Ġminister	4006
vere	4007
Ġcreating	4008
Ġhttp	4009
Ġfreedom	4010
ĠAP	4011
Ġmechan	4012
Ġscen	4013
Ġstyle	4014
ĠMo	4015
Ġseeing	4016
Ġgrand	4017
.âĢĻ	4018
Ġbeat	4019
Ġlik	4020
rian	4021
ona	4022
Ġstation	4023
ĠScott	4024
see	4025
Ġpush	4026
ijuana	4027
Ġbehavior	4028
Ġbeg	4029
Ġleaving	4030
Ġcry	4031
Ġimpl	4032
Ġbirth	4033
Ġir	4034
Ġactual	4035
EL	4036
Ġensure	4037
pen	4038
Ġoffered	4039
Ġagreement	4040
ĠFlorida	4041
Ġeth	4042
ĠBer	4043
soft	4044
ĠHillary	4045
Ġposted	4046
Ġgold	4047
ĠSun	4048
Ġweekend	4049
Ġgreen	4050
ĠMost	4051
ĠReg	4052
alse	4053
Ġweight	4054
OU	4055
Ġeye	4056
.'	4057
acing	4058
Ġdetermin	4059
Ġvac	4060
Here	4061
Ġrevealed	4062
ĠWell	4063
Ġapplication	4064
Ġmostly	4065
Ġvalues	4066
Ġpropos	4067
itude	4068
ĠAlex	4069
aby	4070
Ġwilling	4071
earch	4072
Ġrank	4073
Ġadop	4074
ĠAccording	4075
Ġadult	4076
ttps	4077
Ġestabl	4078
Ġrecords	4079
âĢ¢	4080
500	4081
Ġenforce	4082
Ġpicture	4083
Ġbelieved	4084
ĠLet	4085
Ġmer	4086
pri	4087
uild	4088
Ġbrief	4089
Ġlearned	4090
ĠLaw	4091
Ġinstall	4092
Ġstrategy	4093
Ġappl	4094
SA	4095
igned	4096
Ġchoose	4097
istry	4098
Ġdire	4099
Ġwonder	4100
Ġqual	4101
Ġmassive	4102
cher	4103
Ġdevices	4104
Ġbenefit	4105
Ġwild	4106
Ġparties	4107
ĠChicago	4108
Ġlawy	4109
Ġuns	4110
gen	4111
ĠPeople	4112
Ġcars	4113
ĠTrans	4114
ĠPhil	4115
Ġarrested	4116
ĠMat	4117
Ġmount	4118
Ġwhatever	4119
Ġwat	4120
ĠOh	4121
ĠFrance	4122
Ġstreet	4123
Ġ;	4124
Ġprovides	4125
Ġwhom	4126
Ġassault	4127
90	4128
ties	4129
liament	4130
Ġasking	4131
Ġinfluence	4132
Ġjudge	4133
Ġlose	4134
Ġfat	4135
Ġfeeling	4136
ste	4137
Ġoperations	4138
Ġproduced	4139
Ġtemper	4140
cont	4141
Ġcritical	4142
ĠSecret	4143
ĠLou	4144
Ġnegoti	4145
Ġmission	4146
Ġenter	4147
ĠBush	4148
Ex	4149
Ġimages	4150
Ð¾	4151
ĠStud	4152
Ġconfirmed	4153
point	4154
Ġshowing	4155
IL	4156
ĠPort	4157
Ġdistrict	4158
ription	4159
Ġruns	4160
Ġpattern	4161
Ġtend	4162
Ġborder	4163
Ġresidents	4164
ae	4165
orial	4166
rav	4167
Ġdebt	4168
However	4169
ĠÃ	4170
aked	4171
no	4172
Ġcru	4173
Ġteac	4174
mine	4175
ĠCommittee	4176
la	4177
udd	4178
Ġopposition	4179
Ġcelebr	4180
ĠWall	4181
ĠHealth	4182
Ġsection	4183
Ġdefend	4184
Ġetc	4185
estic	4186
Ġproduce	4187
Le	4188
icial	4189
ĠInte	4190
ĠCommission	4191
Ġdrink	4192
Ġindependent	4193
ĠMod	4194
ront	4195
cell	4196
ĠWhy	4197
Ġbrand	4198
ented	4199
ags	4200
ugg	4201
Ġcore	4202
ĠPress	4203
Ġtick	4204
Ġdigital	4205
ĠBit	4206
Ġhero	4207
Ġadvoc	4208
Ġdollars	4209
ocr	4210
rial	4211
Ġeffective	4212
Ġsolution	4213
ĠMal	4214
Ġvill	4215
Ġinterested	4216
ĠSam	4217
ĠKorea	4218
BA	4219
Ġhighest	4220
ords	4221
Ġmemory	4222
Ġopening	4223
Ġworse	4224
Ġlearning	4225
Ġresponsible	4226
Ġtrial	4227
Ġdaily	4228
Ġkick	4229
Ġtheory	4230
ĠOther	4231
Ġoffers	4232
ĠPalest	4233
Ġreplace	4234
Ġrestrict	4235
ĠGet	4236
Ġmur	4237
ĠOffice	4238
Ġagreed	4239
Ġtelevision	4240
ĠFrancis	4241
cience	4242
ĠMicro	4243
ĠBecause	4244
Ġoccas	4245
CC	4246
ST	4247
illing	4248
Ġvs	4249
Ġdetect	4250
Ġtrain	4251
aste	4252
Ġinvestment	4253
Ġtypes	4254
iation	4255
ĠWestern	4256
aks	4257
icians	4258
Ġchair	4259
Ġmiles	4260
Ġmillions	4261
Con	4262
uries	4263
Ġchem	4264
ĠJustice	4265
ĠDel	4266
Ġgenerally	4267
Ġbasis	4268
Ġproposed	4269
Ġ80	4270
ĠMike	4271
ĠMil	4272
ĠCup	4273
These	4274
ipe	4275
Ġheavy	4276
Ġexplained	4277
Ġmap	4278
ĠOur	4279
AA	4280
rad	4281
Ġder	4282
Ġbur	4283
oly	4284
win	4285
Ġpartners	4286
ĠAdd	4287
ander	4288
Ġopinion	4289
Ġdefe	4290
Ġonto	4291
Ġprotest	4292
________	4293
Get	4294
Ġassociated	4295
Ġload	4296
rig	4297
azing	4298
ĠNFL	4299
rate	4300
oom	4301
44	4302
ĠFound	4303
Ġmale	4304
Ġbecomes	4305
Ġreject	4306
vest	4307
outhern	4308
====	4309
ĠSecurity	4310
Ġcoal	4311
Ġobtain	4312
Ġdestroy	4313
Ġadvantage	4314
Ġassum	4315
ĠLiber	4316
Ġcondition	4317
Ġannounce	4318
Ġhundreds	4319
ading	4320
Ġachieve	4321
Ġopened	4322
Cl	4323
eline	4324
Ġunderstanding	4325
odes	4326
ĠJohnson	4327
coming	4328
icip	4329
Ġsurround	4330
well	4331
orthern	4332
bert	4333
upp	4334
Ġinitial	4335
ĠBig	4336
Ġsleep	4337
36	4338
Ġship	4339
rey	4340
Ġmarriage	4341
Ġmanagement	4342
ĠWindows	4343
Ġthus	4344
Ġlimit	4345
Ġborn	4346
32	4347
Ġbecoming	4348
known	4349
Ġphoto	4350
Ġeasier	4351
FC	4352
ĠGreat	4353
Ġrat	4354
Ġlegislation	4355
Ġcontrovers	4356
Ġunlike	4357
Ġelectric	4358
ĠMany	4359
Ġcamera	4360
witch	4361
Ġaccused	4362
Ġspl	4363
Ġneighbor	4364
Ġdouble	4365
Ġice	4366
Ġspecies	4367
Ġshared	4368
Ġjoin	4369
Ġillegal	4370
Ġ31	4371
ĠLab	4372
Ġ2006	4373
Mr	4374
Ġmachine	4375
Ġharm	4376
Ġserved	4377
ĠJer	4378
GB	4379
Ġextremely	4380
olf	4381
Ġactive	4382
Ġ35	4383
Ġserve	4384
Ġdocuments	4385
ĠIslamic	4386
Ġframe	4387
za	4388
Ġstrik	4389
level	4390
ĠDist	4391
Ġaudience	4392
lant	4393
BS	4394
Ġlocation	4395
ĠAM	4396
Ġscientists	4397
Ġbottom	4398
Ġvictims	4399
orrow	4400
Ġwealth	4401
Ġprofessional	4402
ih	4403
Ġresist	4404
Ġreduce	4405
Ġbelief	4406
Ġnine	4407
Ġsolid	4408
Ġwinning	4409
Ġmarijuana	4410
ĠUk	4411
Ġnegative	4412
75	4413
iful	4414
lands	4415
Ġcommunities	4416
Ġreturned	4417
ortunately	4418
Ġbed	4419
ears	4420
met	4421
Ġincred	4422
ĠPM	4423
ĠInstitute	4424
Ġchurch	4425
PS	4426
Ġdepartment	4427
irgin	4428
ĠSanders	4429
Ġran	4430
Ġvictory	4431
Ġpurpose	4432
Ġ90	4433
ĠCommun	4434
Ġamb	4435
Ġvehicle	4436
Ġinternet	4437
Ġleadership	4438
ĠHall	4439
istics	4440
ios	4441
Ġbomb	4442
Ġmobile	4443
ghan	4444
Ġinstance	4445
ipped	4446
38	4447
Ġseparate	4448
Ġexisting	4449
Ġnotice	4450
Ġhearing	4451
Ġdie	4452
Ġexplain	4453
Ġdoubt	4454
Ġfaith	4455
Ġteach	4456
house	4457
ĠYour	4458
atically	4459
ĠFin	4460
Ġepisode	4461
Ġwatching	4462
Ġcomfort	4463
ĠCanadian	4464
ĠBank	4465
aran	4466
Ġnotes	4467
ĠAtt	4468
ĠEv	4469
Ġfresh	4470
Ġunc	4471
Ġradio	4472
ĠInc	4473
Ġviews	4474
Ġputting	4475
asy	4476
Ġsupporters	4477
Ġconservative	4478
Ġpurs	4479
Ġargument	4480
omas	4481
ĠFox	4482
Ġmicro	4483
ario	4484
acity	4485
Ġlaunched	4486
works	4487
scrib	4488
OL	4489
Ġappeal	4490
iliar	4491
Ġitems	4492
Ġcommittee	4493
ĠArt	4494
resp	4495
ĠMad	4496
which	4497
Ġdefinitely	4498
Ġdangerous	4499
iller	4500
PA	4501
zen	4502
Ġcoverage	4503
Ġdirection	4504
ĠOver	4505
Ġsun	4506
Ġcharged	4507
Ġfloor	4508
Ġmax	4509
ography	4510
34	4511
EM	4512
ĠCarol	4513
ĠChurch	4514
Ġissued	4515
Ġdrugs	4516
Image	4517
ipp	4518
Ġtask	4519
Ġbackground	4520
Ġcompetition	4521
Ġtrend	4522
Ġstated	4523
vention	4524
andom	4525
ada	4526
Ġtraffic	4527
ĠFBI	4528
Ġcommercial	4529
ĠDirect	4530
urb	4531
NA	4532
Ġspoke	4533
inct	4534
Ġtransfer	4535
ctors	4536
Ġsuggested	4537
Ġstructure	4538
Ġsett	4539
gu	4540
ady	4541
Ġsites	4542
Ġhus	4543
Ġnorth	4544
ĠSince	4545
ĠLike	4546
Ġrestaur	4547
ampionship	4548
Ġlabor	4549
Ġdecade	4550
Ġrepeated	4551
ĠGame	4552
Ġreact	4553
oman	4554
Ġcards	4555
Ġanimals	4556
going	4557
Ġnovel	4558
but	4559
ribute	4560
Ġdaughter	4561
anted	4562
ĠSl	4563
Ġdriving	4564
Ġclosed	4565
Ġworst	4566
Ġcontain	4567
Ġentirely	4568
Ġded	4569
ĠBritain	4570
gency	4571
Ġdriver	4572
ga	4573
ĠWil	4574
Ġdisease	4575
Ġnor	4576
Ġtelling	4577
iling	4578
Ġsmaller	4579
Ġge	4580
Ġdiscovered	4581
Bl	4582
akistan	4583
ĠPri	4584
Americ	4585
ĠLos	4586
Ġhack	4587
!âĢĿ	4588
hem	4589
ference	4590
ius	4591
ĠQue	4592
spe	4593
Ġfalse	4594
Ġcash	4595
equ	4596
Ġconcerned	4597
ulf	4598
ait	4599
Ġplays	4600
Ġsurface	4601
semb	4602
annel	4603
Ġsupported	4604
ulated	4605
Ġtools	4606
Ġcompar	4607
oyal	4608
ĠChris	4609
Ġexperiment	4610
Ġfinding	4611
Ġtransport	4612
night	4613
Ġcateg	4614
ãĤ	4615
Ġaspect	4616
##	4617
Ġbusinesses	4618
Ġ70	4619
ĠUN	4620
Ġfarm	4621
Ġplease	4622
Ġolder	4623
azon	4624
phone	4625
how	4626
Ġactivities	4627
Ġrequires	4628
CH	4629
Ġgay	4630
itt	4631
ĠJones	4632
ibrary	4633
do	4634
Ġstrength	4635
48	4636
Ġwel	4637
andon	4638
Ġinsurance	4639
Ġconsequ	4640
37	4641
Ġlargely	4642
Ġmurder	4643
NN	4644
ici	4645
55	4646
Ġcaught	4647
Ġexerc	4648
Ġcandidates	4649
kins	4650
ĠIsraeli	4651
Ġallowing	4652
icy	4653
Ġblue	4654
ĠAre	4655
Ġannual	4656
ĠKen	4657
Ġtesting	4658
ĠTre	4659
ossible	4660
ĠSup	4661
Ġstrateg	4662
Ġraise	4663
Ġstock	4664
overy	4665
ĠRobert	4666
izes	4667
Ġdecisions	4668
Ġaccur	4669
rick	4670
Ġcontext	4671
lor	4672
Ġfuel	4673
ĠAc	4674
SP	4675
osure	4676
ĠUkrain	4677
Ġconcern	4678
Ġafford	4679
Ġbelieves	4680
Ġconstruction	4681
Ġtruly	4682
****	4683
Ġtim	4684
ĠTy	4685
ĠMiss	4686
Ġjustice	4687
igrants	4688
Ġgeneration	4689
Ġhighlight	4690
Ġunit	4691
rim	4692
Ġpresence	4693
ĠJewish	4694
anging	4695
!!	4696
ĠSil	4697
Ð°	4698
tery	4699
Ðµ	4700
ception	4701
ĠAfrica	4702
Ġguess	4703
ancy	4704
Ġwitness	4705
itable	4706
Ġholding	4707
ĠGree	4708
Ġestablish	4709
Ġlength	4710
Ġplanning	4711
ĠAfrican	4712
Ġsequ	4713
ava	4714
cknow	4715
Ġsan	4716
Ġplaced	4717
Ġrefuge	4718
Ġcatch	4719
ĠAfghan	4720
inter	4721
ĠAssociation	4722
Ġtells	4723
âĢĺ	4724
Ġscale	4725
Ġspokesman	4726
bre	4727
nel	4728
Ġrough	4729
Ġattend	4730
olly	4731
ĠVer	4732
Ġcells	4733
Ġjoined	4734
Ġmentioned	4735
Ġinterests	4736
Ġabuse	4737
pective	4738
ĠJim	4739
More	4740
Ġhasn	4741
ĠPC	4742
Ġiniti	4743
Ġenforcement	4744
ĠPre	4745
Ġkid	4746
ĠGOP	4747
Ġintroduced	4748
Ġdeliver	4749
Ġconflict	4750
ĠMer	4751
Ġrout	4752
ĠMicrosoft	4753
Ġphil	4754
âĢĶâĢĶ	4755
Ġupdate	4756
ros	4757
Ġmissing	4758
Ġproviding	4759
Ġwaiting	4760
Ġcancer	4761
39	4762
Ġrecommend	4763
ocracy	4764
Ġestablished	4765
ey	4766
isation	4767
Ġeat	4768
bour	4769
ĠYes	4770
Ġoccup	4771
ĠFrank	4772
ĠJeff	4773
ĠAngeles	4774
Ġremoved	4775
Ġ2005	4776
ula	4777
ĠFore	4778
Ġoffensive	4779
ĠInstead	4780
icon	4781
Ġinjury	4782
Ġsports	4783
47	4784
Ġfant	4785
Ġdiscussion	4786
lig	4787
Ġoperation	4788
Ġdownload	4789
Ġuseful	4790
Ġnewsp	4791
Ġconversation	4792
Ġhomes	4793
ronic	4794
Ġsouth	4795
Ġcook	4796
ĠCEO	4797
Ġassess	4798
ĠGroup	4799
itz	4800
formation	4801
Ġbanks	4802
onto	4803
Ġstopped	4804
ĠConst	4805
Ġobvious	4806
ications	4807
Ġmeasures	4808
ĠKh	4809
Ġmodels	4810
Ġfourth	4811
ĠMP	4812
Our	4813
season	4814
DA	4815
what	4816
Ġbul	4817
anda	4818
Ġ2018	4819
Ġfiles	4820
Ġgirls	4821
ĠLouis	4822
Ġstick	4823
cks	4824
vant	4825
azine	4826
mail	4827
umn	4828
Ġmanaged	4829
iter	4830
apped	4831
ĠPalestin	4832
oted	4833
ĠTim	4834
Ġfigures	4835
oms	4836
Ġidentified	4837
Pl	4838
Ġgraph	4839
kin	4840
ĠJud	4841
ĠSal	4842
Ġfinished	4843
igan	4844
Ġfunds	4845
real	4846
ĠPakistan	4847
Ġsetting	4848
Ġconclud	4849
Ġprefer	4850
Ġhair	4851
Ġcommitted	4852
ĠMexico	4853
49	4854
Ġskills	4855
Ġappropri	4856
Ġspirit	4857
ĠRock	4858
Ġveter	4859
Ġfocused	4860
Ġarrived	4861
ĠTHE	4862
Ġhousing	4863
ĠLeg	4864
ĠVirgin	4865
gers	4866
Ġkeeping	4867
Ġtherefore	4868
Ġacknow	4869
ulate	4870
Des	4871
Ġpartner	4872
Ġexclus	4873
ĠAndroid	4874
enses	4875
ups	4876
Ġearth	4877
Ġtransl	4878
outs	4879
place	4880
Ġtough	4881
ĠJapanese	4882
Ġ2000	4883
Ġrelatively	4884
Ã¡	4885
ĠSupreme	4886
wing	4887
owl	4888
Ġidentity	4889
Ġfeels	4890
ĠMet	4891
Ġotherwise	4892
rd	4893
Ġsurvey	4894
RA	4895
ĠRyan	4896
ocal	4897
ication	4898
itutional	4899
Ġprotection	4900
agn	4901
Ġexchange	4902
Ġowner	4903
isf	4904
Trump	4905
Ġsteps	4906
ĠInter	4907
Ġtrip	4908
imb	4909
Ġhusband	4910
Ġtweet	4911
gar	4912
Ġconnection	4913
ĠArmy	4914
Ġslightly	4915
ĠProf	4916
erences	4917
ka	4918
eah	4919
Ġweak	4920
ĠGovernment	4921
verse	4922
":	4923
Ġcircum	4924
Ġclick	4925
Ġelements	4926
ĠRichard	4927
Ġstrike	4928
Ġphotos	4929
Ġmere	4930
Ġdefensive	4931
ĠNor	4932
dden	4933
Ġgain	4934
Ġfle	4935
Ġdepend	4936
ucky	4937
Ġcollection	4938
onym	4939
hens	4940
Ġkilling	4941
Ġroll	4942
ighter	4943
Go	4944
Ġcorner	4945
ĠMartin	4946
ancing	4947
odies	4948
Ġsuggests	4949
uct	4950
Ġaggress	4951
with	4952
prof	4953
Ġguard	4954
Photo	4955
Ġgender	4956
makers	4957
ĠCollege	4958
Ġcommission	4959
ĠAlthough	4960
range	4961
Ġdat	4962
ĠSur	4963
46	4964
ĠIr	4965
ĠDec	4966
Ġmental	4967
icide	4968
Ġamazing	4969
rees	4970
ĠSub	4971
hi	4972
mas	4973
Ġplanet	4974
ĠTeam	4975
rency	4976
ĠOut	4977
Ġbigger	4978
Ġfailure	4979
ĠJose	4980
Ġsupply	4981
Why	4982
ania	4983
Ġstarts	4984
Ġsides	4985
vis	4986
hedul	4987
Ġfamiliar	4988
Ġremind	4989
Ġsust	4990
ils	4991
Ġspect	4992
uate	4993
Ġspeaking	4994
Ġtalks	4995
Ġhappening	4996
ym	4997
Ġorganizations	4998
Ġhate	4999
gypt	5000
Ġwindow	5001
Ġarmy	5002
ĠGood	5003
ĠJoe	5004
Ġnone	5005
uke	5006
ĠPet	5007
Ġtaxes	5008
Ġplanned	5009
Ġthanks	5010
ĠMary	5011
Ġstruct	5012
Ġpit	5013
Ġdecide	5014
Ġsudden	5015
Ġwish	5016
Ġcrew	5017
Ġcarried	5018
lo	5019
ĠMont	5020
oston	5021
Ġpet	5022
awn	5023
agues	5024
ynam	5025
Ġregist	5026
TC	5027
Ġmulti	5028
idering	5029
Ġhelping	5030
ano	5031
Last	5032
Ġaward	5033
Ġstandards	5034
Ġ32	5035
ĠFire	5036
gn	5037
Ġrevolution	5038
Ġenvironmental	5039
ĠWeb	5040
pm	5041
arsh	5042
ĠThomas	5043
olit	5044
Ġscript	5045
ola	5046
Ġseconds	5047
run	5048
ĠResearch	5049
Ġscientific	5050
ĠBern	5051
Ġimmigration	5052
Ġstanding	5053
ĠTheir	5054
Ġ45	5055
Ġque	5056
stream	5057
ocol	5058
Ġbeer	5059
Ġdomestic	5060
imal	5061
adium	5062
Ġpair	5063
uters	5064
ĠAlso	5065
fe	5066
ĠSecretary	5067
ĠUs	5068
Ġacadem	5069
Ġcold	5070
Ġvariety	5071
Ġmarkets	5072
Ġsch	5073
].	5074
HL	5075
Ġterrit	5076
Ġdropped	5077
Ġaccounts	5078
!"	5079
Ġfiled	5080
erous	5081
acks	5082
illa	5083
Ġbalance	5084
eless	5085
Ġimpossible	5086
ĠTer	5087
aven	5088
Ġinteract	5089
Ġrou	5090
Ġneighborhood	5091
aren	5092
Ġdegree	5093
Read	5094
ĠAtlant	5095
Ġturns	5096
ores	5097
itect	5098
Ġpossibly	5099
Ġappre	5100
Ġoperating	5101
Ġprinc	5102
Ġalternative	5103
Ġunion	5104
Ġvotes	5105
Ġvul	5106
ader	5107
Ġprofessor	5108
Ġtack	5109
ĠService	5110
Ġincreasingly	5111
ayer	5112
ruit	5113
Ġapply	5114
Ġfellow	5115
Ġcuts	5116
stein	5117
Ġhonest	5118
Ġunivers	5119
ĠPrime	5120
Ġserver	5121
iser	5122
Ġdevelopers	5123
arks	5124
ĠSyrian	5125
abb	5126
Ġapparently	5127
Ġlived	5128
Ġchanging	5129
Ġworry	5130
rastructure	5131
ĠCarolina	5132
Ġtests	5133
Ġunits	5134
Ġrich	5135
ĠTwo	5136
cious	5137
icted	5138
From	5139
aded	5140
Ġhumans	5141
IM	5142
ĠFoundation	5143
ĠMos	5144
Ġagencies	5145
Ġsounds	5146
ashed	5147
Ġtwice	5148
Ġultimately	5149
obby	5150
Ġlosing	5151
Ġphilos	5152
Ġauthority	5153
Ġsoldiers	5154
ãĥ	5155
Ġanimal	5156
Ġath	5157
ĠImages	5158
Ġsettle	5159
Ġschedul	5160
Ġmut	5161
Ġcolle	5162
Ġcorporate	5163
Ġabsolutely	5164
Ġhealthy	5165
Ġpaying	5166
och	5167
Ġequip	5168
iams	5169
Ġdeveloping	5170
Ġsea	5171
Ġcloser	5172
ĠDen	5173
Ġinnov	5174
ĠTime	5175
related	5176
Ġseeking	5177
Ġregarding	5178
roud	5179
coh	5180
Ġskin	5181
Ġexpensive	5182
ansion	5183
Ġpossibility	5184
Ġbeautiful	5185
Ġreligion	5186
ĠCentral	5187
Ġapart	5188
Ġfundament	5189
Ġexperts	5190
Ġsolar	5191
65	5192
Ġyards	5193
Ġwriter	5194
Ġflight	5195
Ġvast	5196
ĠDistrict	5197
ĠLast	5198
Ġdeploy	5199
Ġadjust	5200
Of	5201
Ġinternal	5202
ĠUnder	5203
ĠLat	5204
31	5205
ĠPeter	5206
ĠPlan	5207
apers	5208
Ġimagine	5209
ĠJon	5210
IV	5211
Ġapplications	5212
iot	5213
ologies	5214
Ġvision	5215
look	5216
state	5217
osen	5218
ĠFrancisco	5219
ĠToronto	5220
den	5221
Ġsitting	5222
Ġtrail	5223
Ġunless	5224
ĠUSA	5225
ĠJes	5226
isted	5227
Ġheat	5228
Ġgar	5229
Ġ2004	5230
Even	5231
Ġresponsibility	5232
Ġcapacity	5233
ĠDan	5234
IP	5235
atures	5236
ĠMiddle	5237
Ġerror	5238
aine	5239
ias	5240
Ġfol	5241
Ġsymb	5242
Ġarms	5243
Ġpil	5244
pire	5245
Ġcovered	5246
idden	5247
ĠBur	5248
Ġappoint	5249
Ġfamous	5250
ĠCamp	5251
Ġforms	5252
uzz	5253
ND	5254
Ġuniversity	5255
Ġtight	5256
top	5257
Ġpresented	5258
ortion	5259
oving	5260
enced	5261
ĠST	5262
ĠEgypt	5263
Ġearn	5264
ĠPut	5265
Ġconvention	5266
under	5267
Just	5268
ĠPublic	5269
Ġsurprise	5270
Ġattorney	5271
Ġelections	5272
Ġestimated	5273
Ġfif	5274
ĠAri	5275
gl	5276
Ġteen	5277
Ġinstit	5278
Ġvehicles	5279
rible	5280
ĠAmazon	5281
road	5282
Ġintended	5283
.âĢĿ<|	5284
Ġodd	5285
Ġrid	5286
Ġhelps	5287
Ġoccurred	5288
person	5289
Ġstreets	5290
uster	5291
hand	5292
ini	5293
ĠBoston	5294
ĠSol	5295
Ġ=>	5296
="	5297
sen	5298
ĠMur	5299
Ġsport	5300
Ġdetermine	5301
ressive	5302
ĠBitcoin	5303
Ġexpert	5304
alls	5305
Ġconsult	5306
uration	5307
Let	5308
Ġbroken	5309
Ġguaran	5310
lets	5311
Ġfired	5312
Ġton	5313
Ġflow	5314
Ġdomin	5315
ĠGal	5316
inte	5317
porary	5318
eder	5319
LE	5320
Ġshall	5321
Ġreserv	5322
Ġtroops	5323
ION	5324
ĠThose	5325
Ġhyp	5326
Up	5327
Ġnar	5328
terday	5329
Ġpieces	5330
ĠChief	5331
Ġprepared	5332
ĠMass	5333
ĠCath	5334
Ġrapid	5335
orage	5336
ĠJo	5337
rie	5338
Ġlocated	5339
ĠSocial	5340
Ġbaby	5341
----------------	5342
Ġconclus	5343
Ġbringing	5344
Ġprove	5345
Ġspecifically	5346
ĠAny	5347
Ġpotentially	5348
Ġsector	5349
anche	5350
Ġrandom	5351
Ġjail	5352
OW	5353
Ġselling	5354
ĠVe	5355
Ġgovernments	5356
ĠOnce	5357
Ġscr	5358
Ab	5359
Ġequal	5360
Ne	5361
class	5362
Ġfaster	5363
Ġheav	5364
ĠSpr	5365
Ġboost	5366
useum	5367
vey	5368
war	5369
Ġclin	5370
Ġproposal	5371
oty	5372
Ġfactors	5373
Ġplenty	5374
TH	5375
Ġequipment	5376
Ġcouncil	5377
Ġera	5378
Ġinfrastructure	5379
Do	5380
Ġstress	5381
phas	5382
Ġstars	5383
ĠJournal	5384
ĠRub	5385
endment	5386
ĠVirginia	5387
Ġbreat	5388
Ġprosecut	5389
Ġvoted	5390
Ġoffering	5391
Ġcarbon	5392
inent	5393
Ġexpressed	5394
Ġcombat	5395
Ġvulner	5396
ĠParis	5397
Ġbroke	5398
()	5399
ureau	5400
Ġclot	5401
ours	5402
ĠFederal	5403
Ġruling	5404
Ġretail	5405
ĠGuard	5406
Ġrefused	5407
Ġdram	5408
Ġelected	5409
ĠOpen	5410
ĠRiver	5411
Every	5412
Ġsecure	5413
cean	5414
Ġseasons	5415
Ġconducted	5416
,'	5417
Ġchallenges	5418
Ġremove	5419
isher	5420
ht	5421
Ġmethods	5422
Ġweapon	5423
noon	5424
Ġpointed	5425
ĠIsland	5426
Ġmaster	5427
Ġremained	5428
ĠAustralian	5429
Ġprime	5430
ENT	5431
Ġtrig	5432
ĠMel	5433
Ġpositions	5434
ĠCru	5435
Ġinfect	5436
Ġdin	5437
Ġcriticism	5438
ipping	5439
First	5440
ocking	5441
ĠMedic	5442
ĠFe	5443
ĠPlease	5444
tion	5445
rog	5446
onom	5447
IG	5448
Ġsale	5449
olved	5450
Ġcultural	5451
that	5452
Ġweren	5453
Ġsignificantly	5454
Ġbrow	5455
etic	5456
Ġoriginally	5457
Ste	5458
ĠDuring	5459
Ġstret	5460
Ġaffected	5461
Ġappearance	5462
Ġcas	5463
ĠSant	5464
Ġtourn	5465
Ġfacing	5466
Ġgreatest	5467
Ġfinish	5468
ĠLee	5469
Ġyouth	5470
yr	5471
Ġtele	5472
ĠWho	5473
ĠCur	5474
Ġpercentage	5475
ĠPhoto	5476
col	5477
Ġdetermined	5478
Ġsigns	5479
Ġinvolve	5480
95	5481
cel	5482
Ð¸	5483
64	5484
Ġthank	5485
Ġbought	5486
Ġ500	5487
lyn	5488
ĠSing	5489
standing	5490
Ġchemical	5491
ashion	5492
Ġshape	5493
Ġvir	5494
Ġregime	5495
Ġgrew	5496
pired	5497
Ġremaining	5498
ĠSteve	5499
lymp	5500
Ġminimum	5501
ĠSaud	5502
reens	5503
Ġindeed	5504
Ġdream	5505
rier	5506
aling	5507
Since	5508
Ġmarg	5509
Sp	5510
ĠRo	5511
ĠBoth	5512
>>	5513
Ġmode	5514
Ġherself	5515
Ġvoting	5516
ĠColor	5517
Ġobviously	5518
ĠForce	5519
Ġreduced	5520
ĠNov	5521
ordin	5522
ĠRem	5523
Ġwood	5524
Ġrecorded	5525
Ġargued	5526
Ġ1990	5527
Ġrevenue	5528
Ġtact	5529
Ġwearing	5530
ighters	5531
Ġleads	5532
edia	5533
Ġhun	5534
Ġplus	5535
Ġpoliticians	5536
Ġswitch	5537
Ġcontrast	5538
Ġhandle	5539
Ġpurchase	5540
Ġthr	5541
Ġsubs	5542
Ġconcent	5543
Ġproced	5544
gment	5545
ÑĤ	5546
Ġagent	5547
arp	5548
ĠWilliams	5549
Ġappreci	5550
eds	5551
Ġexperienced	5552
Ġhurt	5553
Ġexcited	5554
Ġvideos	5555
Ġhttps	5556
cohol	5557
Ġsupporting	5558
DP	5559
ĠHaw	5560
mm	5561
ĠFree	5562
Ġsurprising	5563
ller	5564
Ġminute	5565
odd	5566
Ġexplos	5567
ĠPac	5568
Ġbelong	5569
Ġconsumers	5570
Ġidentify	5571
Ġconsidering	5572
ownt	5573
ĠConserv	5574
apter	5575
Ġaircraft	5576
Ġaid	5577
Ġpulled	5578
Ġrent	5579
CL	5580
Ġbasically	5581
Ġdifferences	5582
ogue	5583
ĠBook	5584
Ġglass	5585
http	5586
Ġafternoon	5587
ĠRad	5588
Ġshift	5589
Ġdiss	5590
Ġends	5591
essions	5592
Ġturning	5593
Ġbound	5594
Ġfilms	5595
Ġspring	5596
Ġdepart	5597
Ġprospect	5598
ruption	5599
ket	5600
ĠCharl	5601
hab	5602
05	5603
life	5604
Ġtreated	5605
Ġaccident	5606
,[	5607
01	5608
Ġmotiv	5609
Ġlisten	5610
Ġseat	5611
ĠPower	5612
uts	5613
Ġcombined	5614
Ġconstruct	5615
Ind	5616
Ġseriously	5617
Ġprivacy	5618
apping	5619
Ġevening	5620
hered	5621
Ġopportunities	5622
asp	5623
hy	5624
Ġstruggle	5625
Ġ195	5626
Ġpanel	5627
Ġenemy	5628
Ġlots	5629
Ġcompleted	5630
ĠDaily	5631
Ġvisual	5632
His	5633
pet	5634
Phone	5635
Pe	5636
Ġtalked	5637
pted	5638
Ġhopes	5639
oral	5640
Ġpassing	5641
Ġid	5642
Ġapps	5643
osite	5644
ĠStep	5645
PD	5646
Ġcalcul	5647
Ġmort	5648
Another	5649
Ġwidely	5650
ensions	5651
Ġemergency	5652
ĠHol	5653
ĠShow	5654
Ġelement	5655
Ġsuit	5656
amm	5657
Ġast	5658
anged	5659
SS	5660
ucks	5661
aled	5662
Ġpowers	5663
ĠRel	5664
ĠBBC	5665
Ġflat	5666
ĠOlymp	5667
Ġburn	5668
TV	5669
Ġdiscl	5670
Ġplants	5671
obe	5672
ĠSpace	5673
ato	5674
Ġliberal	5675
raud	5676
Ġopposed	5677
Well	5678
Ġproceed	5679
ompl	5680
Ġcopyright	5681
oking	5682
ĠProject	5683
Ġadvance	5684
Ġfactor	5685
Ġdistance	5686
Ġ2003	5687
ivered	5688
Ġdismiss	5689
plom	5690
Ġattempts	5691
Ġtun	5692
ĠBet	5693
ĠRoad	5694
abilities	5695
Am	5696
ĠIN	5697
Ġtrouble	5698
ributed	5699
Ġhol	5700
unction	5701
Ġcollabor	5702
Ġdefault	5703
idel	5704
Ġzone	5705
Ġencoun	5706
ĠJackson	5707
Ġupgr	5708
rawn	5709
ita	5710
Ġreaction	5711
Ġstorm	5712
Ġreporters	5713
ĠMem	5714
Ġfrust	5715
PR	5716
nell	5717
mosp	5718
adow	5719
Ġwrites	5720
mond	5721
aints	5722
Ġtypically	5723
lines	5724
ĠToday	5725
respond	5726
UT	5727
Ġpages	5728
Ġinstruct	5729
ternal	5730
Ġreference	5731
Ġpackage	5732
Ġbodies	5733
zer	5734
Ġmatters	5735
sts	5736
42	5737
free	5738
Ġdenied	5739
care	5740
edd	5741
App	5742
Ġquant	5743
Ġdisappoint	5744
Ġsem	5745
Ġexplo	5746
ette	5747
ĠNAS	5748
Ġoptim	5749
ache	5750
Ġquiet	5751
Ġentertain	5752
Ġmal	5753
Ġresponded	5754
Ġapproved	5755
ĠTurkey	5756
Ġsatisf	5757
aped	5758
Rep	5759
Ġbroadcast	5760
esters	5761
De	5762
Ġinstitutions	5763
Ġadvert	5764
Ġstands	5765
ĠDirector	5766
Ġsets	5767
estival	5768
Ġelimin	5769
isters	5770
razy	5771
Ã¤	5772
ĠPenn	5773
Ġvalid	5774
host	5775
Ġrenew	5776
ĠOhio	5777
Cont	5778
0000	5779
Ġsplit	5780
Ġsevere	5781
ĠWilliam	5782
Ġsac	5783
abin	5784
Ġcapable	5785
ĠMatt	5786
Ġ//	5787
Ġ2001	5788
Ġpitch	5789
aniel	5790
Ġcaption	5791
Ġcloud	5792
Ġloved	5793
Ġtechnical	5794
Ġgiant	5795
pass	5796
Ġcann	5797
Ġtradition	5798
water	5799
Ġbull	5800
Ġconfident	5801
elly	5802
uous	5803
Ġconfidence	5804
Ġnumerous	5805
Ġreportedly	5806
Ġfaces	5807
],	5808
writ	5809
Ġweather	5810
Ġfly	5811
ĠMa	5812
Ġtransition	5813
rid	5814
Ġ36	5815
ĠSystem	5816
unte	5817
ĠAfghanistan	5818
Ġgra	5819
ĠSqu	5820
Ġwaste	5821
Ġcreation	5822
Ġperspective	5823
Ġunable	5824
Ġforget	5825
ĠLabour	5826
43	5827
ĠYet	5828
astern	5829
employ	5830
."<|	5831
oken	5832
ĠMedia	5833
angers	5834
II	5835
Ġcraft	5836
Ġsubstant	5837
Ġcooper	5838
Ġviolent	5839
Ġsuffered	5840
ilit	5841
Ġmand	5842
ampion	5843
Ġcoast	5844
Ġpictures	5845
Ġexperiences	5846
Ġapprox	5847
Ġroute	5848
abled	5849
rant	5850
88	5851
Ġflag	5852
Ġadvice	5853
ĠAndrew	5854
usiness	5855
Ġdeclared	5856
ĠWal	5857
Ġordered	5858
ĠHuman	5859
razil	5860
Ġcrimes	5861
Ġcoff	5862
Ġproud	5863
ishes	5864
Ġreporting	5865
Ġmessages	5866
sex	5867
Ġcircumst	5868
Ġfindings	5869
ĠLin	5870
Ġeval	5871
ulations	5872
Res	5873
Ġexcell	5874
Over	5875
Ġdeclined	5876
Ġexplains	5877
can	5878
Ġdelay	5879
Ġ\	5880
ĠFollow	5881
Ġnewspaper	5882
ounded	5883
Ġconnected	5884
ilty	5885
Ġshouldn	5886
evin	5887
oves	5888
Ġongoing	5889
Ġvan	5890
dule	5891
Ġmovies	5892
Ġpicked	5893
resents	5894
77	5895
Ġadmitted	5896
Ġdelivered	5897
During	5898
Ġguns	5899
ĠML	5900
ionally	5901
ĠScot	5902
Ġwalking	5903
Ġprin	5904
Ġagents	5905
called	5906
Ġeditor	5907
Ġthoughts	5908
Ġmarried	5909
ĠTra	5910
Ġauth	5911
Ġemails	5912
Ġappropriate	5913
Ġemphas	5914
uations	5915
Ġedge	5916
Ġarchitect	5917
ĠGrand	5918
Ġleaves	5919
Ġupdates	5920
Ġaccompl	5921
OD	5922
Ġgather	5923
ĠMuslims	5924
Ġforg	5925
ansas	5926
ĠWood	5927
Ġquarterback	5928
Ġsession	5929
ooth	5930
41	5931
arn	5932
ĠTechn	5933
Ġpool	5934
ĠScience	5935
cos	5936
Ġinjured	5937
Ġpublicly	5938
ellow	5939
ĠSov	5940
Ġstatements	5941
Ġperman	5942
Ġlegit	5943
arl	5944
nergy	5945
MA	5946
Ġconfirm	5947
ĠLake	5948
Ġourselves	5949
Other	5950
Ġrealize	5951
Ġdrivers	5952
Ġrot	5953
ĠAv	5954
Te	5955
ĠDou	5956
TA	5957
mates	5958
,âĢĻ	5959
Ġarmed	5960
essor	5961
Ġdial	5962
cons	5963
Ġlawyer	5964
ourney	5965
Ġrail	5966
Ġreaders	5967
reland	5968
Ġsad	5969
Ġcontains	5970
Ġargue	5971
ĠRev	5972
Ġtalent	5973
Ġfilled	5974
ĠSum	5975
Ġallegations	5976
Ġactivists	5977
ĠChristmas	5978
Ġdynam	5979
Ġ1980	5980
ĠMichigan	5981
date	5982
ĠBack	5983
ĠRon	5984
long	5985
Ġcrack	5986
Ġtransform	5987
Tube	5988
ĠRead	5989
Ġbuildings	5990
Ġwear	5991
Many	5992
ĠIll	5993
Ġterrorist	5994
Ġsam	5995
Ġtree	5996
Ġexercise	5997
enda	5998
Ġlabel	5999
Ġeffectively	6000
Oh	6001
Ġpractices	6002
Ġsubsequ	6003
ala	6004
ĠJul	6005
ĠSher	6006
TS	6007
uls	6008
Ġflo	6009
Ġfish	6010
ĠHy	6011
enture	6012
Ġshop	6013
Ġexamples	6014
ĠSee	6015
Ġpatient	6016
ĠGen	6017
ĠSeattle	6018
Ġobjects	6019
Ġtech	6020
Ġsecretary	6021
asure	6022
Ġrain	6023
gia	6024
Ġmissed	6025
Ġcauses	6026
illy	6027
rum	6028
Ġdebut	6029
ĠRod	6030
Ġessentially	6031
66	6032
Ġmoral	6033
orders	6034
amin	6035
ador	6036
word	6037
def	6038
acter	6039
ĠWork	6040
arters	6041
ĠUkraine	6042
ĠStan	6043
Ġcentre	6044
Follow	6045
ĠVict	6046
bur	6047
ĠID	6048
icing	6049
Ġinjuries	6050
ĠPhot	6051
Ġmotor	6052
ĠiPhone	6053
Ġartist	6054
Ġclient	6055
Ġbond	6056
Ġthinks	6057
iat	6058
orse	6059
ouston	6060
Ġpure	6061
Ġhell	6062
Although	6063
ĠSaudi	6064
Ġfacts	6065
Ĥ¬	6066
Ġdesire	6067
agers	6068
aza	6069
Ġske	6070
orry	6071
Ġlinked	6072
ÃŃ	6073
Ġgovernor	6074
ĠBat	6075
Ġmaterials	6076
Ġperformed	6077
Spe	6078
Ġfranch	6079
esome	6080
Ġsuc	6081
Ġphilosoph	6082
Ġinitially	6083
iest	6084
ĠSign	6085
Ġnecessarily	6086
ĠFer	6087
Ġexpansion	6088
Ġscheduled	6089
ERS	6090
Ġwarned	6091
Ġdiplom	6092
Ġadvanced	6093
Ġing	6094
Ġexplan	6095
Ġvari	6096
Ġeverybody	6097
Ġjoint	6098
Ġdecre	6099
Ġresolution	6100
Ġincreases	6101
enger	6102
Yes	6103
Ġaccepted	6104
Ġincor	6105
Ġmyster	6106
Ġfaced	6107
Ġbare	6108
illance	6109
Ġannouncement	6110
Ġfollows	6111
gent	6112
ĠMount	6113
Ġnations	6114
Ġplayoff	6115
ĠLife	6116
Ġabandon	6117
ĠSecond	6118
Ġradical	6119
Ġathlet	6120
Ġneither	6121
Ġyesterday	6122
Ġdatab	6123
Ġnearby	6124
Ġdistribution	6125
otic	6126
Ġapplied	6127
irty	6128
Ġmagazine	6129
Most	6130
athan	6131
rich	6132
Ġconsequences	6133
Ġmir	6134
Ġdoctor	6135
Ġlisted	6136
ĠColumb	6137
Ġatmosp	6138
American	6139
Ġsurprised	6140
Ġfort	6141
Ġoffense	6142
uy	6143
Qu	6144
itors	6145
ĠCNN	6146
ĠRE	6147
Ġspons	6148
Ġbegins	6149
ĠWeek	6150
Ġthreats	6151
Ġaf	6152
sembly	6153
Ġrepresents	6154
edy	6155
ĠJews	6156
ĠGM	6157
ĠAff	6158
Ġenh	6159
Ġmoves	6160
Ġremark	6161
ĠTO	6162
Ġpra	6163
Ġsongs	6164
kay	6165
Ġbehavi	6166
omin	6167
Ġride	6168
Ġadds	6169
Can	6170
Ġwithd	6171
ÃĤ	6172
Ġimproved	6173
rip	6174
Ġphen	6175
ĠBlue	6176
Ġbot	6177
Ġwarm	6178
Ġalcohol	6179
Ġoutput	6180
law	6181
ĠAT	6182
Ġflood	6183
ĠDevelop	6184
ĠHen	6185
whel	6186
Ġshots	6187
Ġfill	6188
ĠVol	6189
Ġstood	6190
Ġbrings	6191
Ġalt	6192
Ġpushed	6193
Ġguilty	6194
ĠRomney	6195
ĠKim	6196
Ġsubscrib	6197
85	6198
Ġentry	6199
ocratic	6200
ĠDev	6201
ĠBrazil	6202
Ġdemocracy	6203
Ġboys	6204
rac	6205
Ġ33	6206
Ġrow	6207
ĠSwed	6208
Ġconfig	6209
ĠNBA	6210
Ġlawsuit	6211
ĠIreland	6212
Ġmanufacture	6213
Ġreceiving	6214
Ġrein	6215
ĠBarack	6216
Then	6217
Ġtrib	6218
Ġtotally	6219
ĠOnly	6220
Ġdiscussed	6221
Ġrestaurant	6222
Ġsought	6223
Ġrising	6224
Ġentered	6225
ĠISIS	6226
ĠBoard	6227
Ġconsistent	6228
Ġhistorical	6229
twitter	6230
Ġstorage	6231
ideo	6232
Ġcorrespond	6233
Ġplane	6234
Ġcombination	6235
Ġinput	6236
Ġscored	6237
Ġ300	6238
Ġsymbol	6239
Ġbright	6240
Ġbutton	6241
irds	6242
Ġsucceed	6243
stood	6244
Ġcreative	6245
Ġinvestors	6246
Ġsquare	6247
Ġarticles	6248
Ġ2002	6249
Ġisland	6250
pty	6251
mes	6252
Ġdeaths	6253
Ġfunctions	6254
Ġnetworks	6255
Ġclasses	6256
Ġunlikely	6257
alty	6258
Ġheads	6259
ician	6260
Ġboss	6261
Ġnative	6262
icious	6263
Ġlie	6264
Ġsav	6265
ĠLib	6266
Ġroughly	6267
Ġconsumer	6268
ĠWhe	6269
ĠWalk	6270
ĠPrem	6271
fortunately	6272
ĠMs	6273
Ġstring	6274
ĠMaybe	6275
Ġheavily	6276
ĠAnother	6277
Ġfairly	6278
Ġtemperature	6279
arden	6280
ican	6281
Ġkit	6282
Ġexistence	6283
ĠIts	6284
ĠAsia	6285
Ġcontest	6286
Add	6287
Ġplot	6288
issions	6289
dis	6290
ĠCub	6291
Ġresident	6292
Man	6293
usal	6294
Ġtargets	6295
ĠBob	6296
Ġresc	6297
ĠKorean	6298
duc	6299
Ġlock	6300
Ġyounger	6301
ĠStr	6302
',	6303
Ġcolleagues	6304
PU	6305
Ġlibrary	6306
Ã¶	6307
Ġrally	6308
Ġparliament	6309
Ġprotests	6310
Ġanywhere	6311
oked	6312
ĠSports	6313
ĠSky	6314
Ġbike	6315
zona	6316
Ġbreaking	6317
ii	6318
acle	6319
Ġgrab	6320
Ġstores	6321
Ġexpression	6322
Ġsym	6323
Ġchain	6324
Ġblow	6325
Ġwarning	6326
Ġimportance	6327
Ġdefined	6328
Ġchart	6329
Ġbuying	6330
greg	6331
Ġmanage	6332
Ġprohib	6333
Ġclassic	6334
Ġcere	6335
Ġsnow	6336
Ġadults	6337
ĠEach	6338
Ġillust	6339
See	6340
Ġmarketing	6341
Ob	6342
Ġlinks	6343
Ã³	6344
iques	6345
Ġshif	6346
born	6347
andal	6348
ĠClub	6349
Ġtow	6350
ĠHist	6351
Ġfraud	6352
OC	6353
pret	6354
Ġfacility	6355
ollywood	6356
cho	6357
Ġhardware	6358
Ġschol	6359
Ġallegedly	6360
Ġ37	6361
Ġregulations	6362
Ġbon	6363
Ġdoctors	6364
ĠColorado	6365
agan	6366
Ġcurrency	6367
Ġhousehold	6368
Ġreplaced	6369
Ġessential	6370
En	6371
opy	6372
onna	6373
ĠRam	6374
Ġsomewhat	6375
ĠDiv	6376
press	6377
86	6378
Ġnav	6379
power	6380
Ġfavour	6381
Ġpromise	6382
ĠDC	6383
ĠBoy	6384
Ġlaugh	6385
Pol	6386
ĠRights	6387
Ġholds	6388
Ġopposite	6389
ocket	6390
ena	6391
Ñģ	6392
Ġmoments	6393
west	6394
Ġhat	6395
tering	6396
Ġopponent	6397
Ġbug	6398
ĠFar	6399
Ġcampus	6400
Ġacts	6401
Ġrum	6402
etroit	6403
Ġversions	6404
Ġmetal	6405
Ġmotion	6406
Ġevolution	6407
hips	6408
ometimes	6409
Ġvice	6410
anish	6411
Ġsees	6412
ĠImage	6413
Ġbag	6414
Ġrelevant	6415
Ġindustrial	6416
Ġzero	6417
Ġsick	6418
IR	6419
oma	6420
Ġclosely	6421
ĠAnn	6422
hetic	6423
Ġemotional	6424
chen	6425
game	6426
IF	6427
ĠYear	6428
ĠYouTube	6429
va	6430
Ġfewer	6431
Ġdivision	6432
olve	6433
Ġadm	6434
Ġdownt	6435
Ġharder	6436
Ġrefere	6437
Ġcustomer	6438
Ġhoping	6439
ologist	6440
Ġtom	6441
ĠBrook	6442
Donald	6443
ĠValley	6444
Ġhur	6445
ĠGra	6446
Ġmechanism	6447
ittle	6448
po	6449
ml	6450
ĠHouston	6451
ĠElect	6452
inem	6453
Ġreturns	6454
NC	6455
atell	6456
Ġvolunte	6457
Ġparticipants	6458
Ġextent	6459
Ġintention	6460
gas	6461
alian	6462
pan	6463
Ġexcellent	6464
ĠSoviet	6465
Ġsyn	6466
Ġacknowled	6467
llect	6468
ulous	6469
ĠMot	6470
oming	6471
ĠGames	6472
Ġsquad	6473
Ġcircumstances	6474
Ġfashion	6475
Ġisol	6476
Ã¼	6477
otal	6478
Ġimmediate	6479
ĠEric	6480
Ġsuffering	6481
esc	6482
ĠWatch	6483
Ġlies	6484
Ġtiny	6485
Ġauthors	6486
Ġbatt	6487
Ġ38	6488
Ġgrown	6489
ĠGar	6490
iger	6491
Ġimmigrants	6492
Ãĥ	6493
print	6494
ora	6495
Ġkinds	6496
utch	6497
Ġ49	6498
ĠDie	6499
Ġcheap	6500
Ġmine	6501
Ġdetailed	6502
ordan	6503
ĠHel	6504
name	6505
Ġfeatured	6506
ĠWik	6507
ayers	6508
Ġmeat	6509
ĠEr	6510
Ġunus	6511
ĠAut	6512
Ġcompetitive	6513
Ġdescribe	6514
Ġformed	6515
ĠHome	6516
ĠIP	6517
nic	6518
certain	6519
Ġcarrying	6520
Ġtournament	6521
Ġtermin	6522
Ġtrick	6523
Ġrelationships	6524
friend	6525
Ġfundamental	6526
kel	6527
Ġwave	6528
Ġcycle	6529
obb	6530
Ġcrazy	6531
Ġsigning	6532
ĠWay	6533
ĠCy	6534
rome	6535
Ġguide	6536
efully	6537
Ġwins	6538
ĠCatholic	6539
Ġearned	6540
08	6541
Ġdecline	6542
Ġregional	6543
nam	6544
ensus	6545
style	6546
Ġembr	6547
Ġstrange	6548
ĠPalestinian	6549
ĠJesus	6550
ĠLong	6551
Ġancient	6552
Ġfrequently	6553
06	6554
Ġacting	6555
ĠPutin	6556
ĠSar	6557
Ġmanner	6558
Ġefficient	6559
Ġpushing	6560
ĠCIA	6561
Ġcomfortable	6562
ĠCard	6563
Ġpip	6564
ORE	6565
Per	6566
Ġsharing	6567
Ġwire	6568
Ġskill	6569
ĠEconom	6570
ockey	6571
chers	6572
Ġinstru	6573
Ġowned	6574
ĠEll	6575
bar	6576
Ġcommitment	6577
Ġalongside	6578
ĠOF	6579
uated	6580
ĠLord	6581
anes	6582
09	6583
ĠDavis	6584
Ġcart	6585
rison	6586
Ġcontroversial	6587
Ġartists	6588
Ġreferred	6589
weight	6590
Ġegg	6591
Ġmouth	6592
Ġrepeatedly	6593
Ġ48	6594
ĠTop	6595
ï¿	6596
Ġ34	6597
FP	6598
awa	6599
Ġattempted	6600
Se	6601
Ġfemin	6602
umber	6603
Ġupdated	6604
foot	6605
Ġcert	6606
vin	6607
Ġpregn	6608
ĠOld	6609
ua	6610
Ġschedule	6611
xy	6612
ĠPS	6613
amily	6614
adel	6615
Ġdedicated	6616
Ð½	6617
Ġposts	6618
ĠAL	6619
Ġsentence	6620
Ġupcoming	6621
ĠDown	6622
ĠNY	6623
Ġcolumn	6624
ĠDi	6625
hus	6626
Ġdepth	6627
Ġpled	6628
Ġvirtual	6629
uable	6630
Ġjourney	6631
Ġstruck	6632
ÑĢ	6633
Ġdesk	6634
Ġstudio	6635
Ġrealized	6636
ĠEnergy	6637
Despite	6638
%)	6639
ceived	6640
ographic	6641
DS	6642
ko	6643
ugh	6644
Ġmedic	6645
Ġserving	6646
iami	6647
Ġwalked	6648
rive	6649
iveness	6650
Ġking	6651
Ġring	6652
Ġreput	6653
phy	6654
you	6655
Ġurban	6656
07	6657
ĠCle	6658
ĠCharles	6659
ĠWild	6660
Ġchannel	6661
Ġtargeted	6662
gor	6663
Ġassets	6664
luding	6665
Ġinspired	6666
Ġhotel	6667
ĠArizona	6668
Ġnewslet	6669
Like	6670
Two	6671
ĠSupp	6672
Ġuniverse	6673
Ġagenda	6674
Ġcausing	6675
Ġwatched	6676
Ġsuicide	6677
Ġtort	6678
Ġstream	6679
Ġoverwhel	6680
ĠPy	6681
Ġusual	6682
Ġsurveillance	6683
ĠMen	6684
Ġintent	6685
sole	6686
People	6687
Ġliqu	6688
Ġsister	6689
Ġopponents	6690
Ġchairman	6691
Ġdu	6692
ĠWars	6693
bel	6694
ĠCruz	6695
Ġmainstream	6696
Ġlatter	6697
Ġhall	6698
Ġsurrounding	6699
Ġfolks	6700
Ġknowing	6701
Ġorders	6702
ĠInf	6703
Ġremote	6704
Ġ75	6705
Ġsand	6706
Ġliterally	6707
ĠJava	6708
Ġobserved	6709
ĠAgain	6710
ĠRight	6711
Ġsubsid	6712
ĠDefense	6713
Ġinfl	6714
Ġapproval	6715
rence	6716
iments	6717
Ġbasket	6718
ĠVan	6719
burg	6720
rations	6721
avor	6722
Ġteachers	6723
azi	6724
izz	6725
Fr	6726
aze	6727
ta	6728
Ġwinter	6729
iciency	6730
alle	6731
Ġexciting	6732
acc	6733
iro	6734
aylor	6735
ĠTal	6736
Ġformat	6737
boy	6738
Ġcongress	6739
Ġprotected	6740
ati	6741
Ġnoticed	6742
Ġsimpl	6743
Ġdealing	6744
ĠYoung	6745
ĠPan	6746
ĠChild	6747
Ġprecise	6748
67	6749
xual	6750
Ġdeeply	6751
ipl	6752
Ġcommunication	6753
Ġgang	6754
Ġsending	6755
Ġforth	6756
ĠJr	6757
Ġfasc	6758
Ġbattery	6759
Ġwal	6760
mun	6761
Ġsky	6762
Ġnarr	6763
Ġfixed	6764
post	6765
Ġaside	6766
abis	6767
Ġrequirements	6768
Ġproperties	6769
rors	6770
str	6771
Ġalive	6772
Ġnarrow	6773
Ġwake	6774
allas	6775
Ġpassion	6776
ĠArch	6777
onymous	6778
Ġeating	6779
ensity	6780
Ġmistake	6781
wart	6782
woman	6783
Ġexplore	6784
Ġcoffee	6785
Ġ1970	6786
Ġrape	6787
Ġvolume	6788
Ġpromised	6789
Ġdiet	6790
acking	6791
Ġrisks	6792
Ġexhib	6793
ĠPolit	6794
Ġsweet	6795
May	6796
ĠEnter	6797
ĠWat	6798
Ġneut	6799
Ġinvolving	6800
Ġwage	6801
Ġselection	6802
ĠMax	6803
Ġtested	6804
ether	6805
Ġflu	6806
ulture	6807
Ġdefeat	6808
Ġnorthern	6809
Ġreward	6810
Ġwelcome	6811
Ġextended	6812
Ġputs	6813
Ġterritory	6814
Ġphenomen	6815
Ġunemploy	6816
Ġrefugees	6817
Ġsample	6818
Ġheight	6819
Ġapproximately	6820
ĠKevin	6821
59	6822
Ġblame	6823
ĠBrad	6824
Ġanyway	6825
ums	6826
ĠDetroit	6827
Ġdestroyed	6828
obile	6829
Ġimpressive	6830
ĠStephen	6831
asks	6832
Ġgod	6833
Ġgap	6834
Ġproof	6835
Ġdry	6836
ï¿½	6837
Ġcrash	6838
ingu	6839
Ġunknown	6840
Ġlocations	6841
04	6842
Ġselected	6843
apse	6844
Ġwest	6845
anges	6846
gery	6847
ĠFil	6848
stone	6849
Ġattacked	6850
ĠTit	6851
lv	6852
ĠMiller	6853
Ġmaximum	6854
ĠWilson	6855
Ġpromote	6856
âĢĻ.	6857
Ġshel	6858
Ġmerely	6859
Ġfranchise	6860
arry	6861
Ġrequests	6862
Ġsho	6863
Ġretire	6864
Ġsuddenly	6865
aser	6866
Ġslowly	6867
Ġprotesters	6868
Ġdisag	6869
dro	6870
Ġteacher	6871
Ġtypical	6872
ogan	6873
ĠIns	6874
ixt	6875
ĠWomen	6876
Ġconver	6877
list	6878
Ġchose	6879
ĠCamer	6880
ĠClass	6881
ĠLu	6882
Ġmatches	6883
Ġlicense	6884
Ġproperly	6885
Ġassume	6886
oration	6887
Ġdiscover	6888
03	6889
Ġwid	6890
ĠPR	6891
ĠMic	6892
Rel	6893
Ġworried	6894
Ġmoder	6895
Or	6896
Ġabortion	6897
fire	6898
owered	6899
Ġallies	6900
Ġoblig	6901
Ġterrorism	6902
02	6903
Ġsupports	6904
ao	6905
ĠÎ	6906
uilding	6907
ÃĥÃĤ	6908
inson	6909
verty	6910
Ġarguments	6911
Ġtheme	6912
Ġadapt	6913
Ġconfront	6914
Ġfacilities	6915
Ġsustain	6916
igg	6917
gender	6918
Ġpal	6919
Ġeast	6920
Ġrecognize	6921
igure	6922
Ġfuck	6923
ÃĥÃĤÃĥÃĤ	6924
lies	6925
Ġequival	6926
Ġobtained	6927
Ġpoverty	6928
Ġrub	6929
ĠItaly	6930
mo	6931
Ġnomine	6932
Ġdeals	6933
Ġfees	6934
itarian	6935
osis	6936
alo	6937
ĠHollywood	6938
Ġunderstood	6939
Ġcontrolled	6940
VER	6941
ĠBest	6942
ĠDam	6943
Ġtopic	6944
Ġcritics	6945
ĠSociety	6946
ĠAgency	6947
axy	6948
ĠFord	6949
Ġsole	6950
ĠJersey	6951
arity	6952
Ġvillage	6953
Ġdiagn	6954
ĠAdminist	6955
raid	6956
68	6957
Ġlikes	6958
celer	6959
sters	6960
ĠFour	6961
Ġevil	6962
Ġpunish	6963
Ġdress	6964
cript	6965
Ġped	6966
ĠGeorgia	6967
asts	6968
Ġbunch	6969
ĠCompany	6970
Ġjournalists	6971
John	6972
Ġexposed	6973
Ġregions	6974
redit	6975
ocation	6976
Ġcommunications	6977
Ġscheme	6978
lls	6979
Ġtransp	6980
Ġstim	6981
Ġlimits	6982
Ġsomehow	6983
Ġstrongly	6984
Ġhonor	6985
Ġdrag	6986
Ġresistance	6987
Ġchampion	6988
ĠLabor	6989
Ġphase	6990
ĠNASA	6991
pool	6992
ĠCarl	6993
Ġtruck	6994
Ġprofit	6995
Ġconstant	6996
Ġcondem	6997
Ġescape	6998
Ġpersonally	6999
ĠDun	7000
rimination	7001
ĠNight	7002
ĠLand	7003
aug	7004
ĠFort	7005
Ġbid	7006
ĠNHL	7007
ĠStand	7008
Ġvacc	7009
Ġdeck	7010
CA	7011
nesota	7012
iform	7013
Ġfalling	7014
ads	7015
GBT	7016
ĠNetwork	7017
Ġsomewhere	7018
cers	7019
Ġemployee	7020
Ġharass	7021
Ġbear	7022
ĠCD	7023
iner	7024
Ġcomparison	7025
orted	7026
ciples	7027
Ġpolls	7028
owa	7029
Ġinqu	7030
ĠLove	7031
pected	7032
Ġsouthern	7033
oric	7034
Ġdecent	7035
cow	7036
ĠSpanish	7037
Ġencourage	7038
Ġemissions	7039
Ġ39	7040
ĠKn	7041
ĠView	7042
enders	7043
Ġempty	7044
ĠMiami	7045
Ġhits	7046
oster	7047
ĠCam	7048
Ġdefinition	7049
57	7050
Ġdirected	7051
Ġpic	7052
ĠBell	7053
pes	7054
Ġflex	7055
wan	7056
zens	7057
ĠOk	7058
Ġmeetings	7059
ĠEnd	7060
Ð¾Ð	7061
Ġcomprom	7062
Ġwinner	7063
intend	7064
icken	7065
Ġgotten	7066
ĠDaniel	7067
ĠTurk	7068
Ġelectricity	7069
Ġchosen	7070
Ġofficially	7071
Ġbench	7072
Ġstretch	7073
Ġdatabase	7074
ĠDespite	7075
Ġintellect	7076
Ġspin	7077
igation	7078
Ġstronger	7079
Com	7080
Ġdeleg	7081
Ġpurposes	7082
ĠDNA	7083
teen	7084
Ġcutting	7085
ĠTurn	7086
Ġfold	7087
aun	7088
rary	7089
Ġextensive	7090
Ġamounts	7091
Ġdesper	7092
Ġanx	7093
Ġtrees	7094
Ġideal	7095
ĠAsian	7096
Ġthread	7097
Ġfifth	7098
ĪĴ	7099
rett	7100
CS	7101
UR	7102
Ġgoods	7103
Ġcolon	7104
Ġdeveloper	7105
Ġclaiming	7106
unning	7107
Any	7108
Ġretain	7109
Ġsoul	7110
Ġcaptured	7111
ĠThough	7112
Ġfinds	7113
Ġdriven	7114
aire	7115
Ġpayments	7116
ĠJordan	7117
ras	7118
Ġties	7119
Ġreasonable	7120
Ġdogs	7121
âĸ	7122
Ġsomebody	7123
Ġending	7124
ĠNations	7125
Ġchoices	7126
Ġble	7127
Ġseats	7128
ĠServices	7129
asters	7130
ĠThank	7131
Ġpod	7132
Ġdrawn	7133
Ġengage	7134
Ġsight	7135
CE	7136
Ġparam	7137
Ġthreatened	7138
Ġruled	7139
ĠDar	7140
ĠAttorney	7141
ĠIrish	7142
eping	7143
ura	7144
ĠSea	7145
Ġtrading	7146
owed	7147
Ġprimarily	7148
Ġaspects	7149
Ġfighters	7150
ML	7151
Ġanswers	7152
Ġperfectly	7153
irms	7154
ĠAcadem	7155
Ġincl	7156
Ġrival	7157
Ġparking	7158
Ġrejected	7159
ĠGall	7160
ĠCat	7161
Ġconstantly	7162
ĠHun	7163
Ġpayment	7164
fast	7165
Ġdistinct	7166
Ġflying	7167
Ġrig	7168
ĠReal	7169
Ġtechnologies	7170
</	7171
Ġcomponents	7172
Police	7173
Ġadmit	7174
ĠScotland	7175
Ġelsewhere	7176
ĠDark	7177
Ġconstit	7178
Ġtur	7179
Ġanymore	7180
lder	7181
ĠCast	7182
Ġicon	7183
Ġfields	7184
Ġestimates	7185
EW	7186
sea	7187
Ġsolutions	7188
Ġresulting	7189
78	7190
ĠBru	7191
Ġawesome	7192
Ġprovince	7193
mod	7194
Ġactor	7195
Ġworldwide	7196
Ġregularly	7197
ĠMoore	7198
Ġcourts	7199
Ġnarrative	7200
Once	7201
Ġboot	7202
ĠUt	7203
Ġenemies	7204
Ġmixed	7205
regon	7206
ĠOS	7207
ĠDisney	7208
sm	7209
icer	7210
Ġhouses	7211
Ġnobody	7212
ĠSk	7213
inations	7214
Ġcontrols	7215
ĠWater	7216
Ġletters	7217
agram	7218
iana	7219
imp	7220
Ġ42	7221
Ġmurd	7222
Ġmayor	7223
Ġoutcome	7224
ĠMS	7225
Ġcontem	7226
sell	7227
ĠTem	7228
vy	7229
Sec	7230
ship	7231
apes	7232
ĠLight	7233
isan	7234
onic	7235
Ġapartment	7236
ĠBrian	7237
ĠSteven	7238
Ġcoalition	7239
Ġcontributed	7240
ĠBas	7241
Ġtank	7242
Ġconcluded	7243
ĠAdam	7244
Ġexists	7245
Ġfounder	7246
ĠLew	7247
Ġatmosphere	7248
Ġprofile	7249
Ġbrew	7250
ĠId	7251
ĠTw	7252
Ġsituations	7253
ls	7254
ĠChampionship	7255
Ġloan	7256
ĠAuthor	7257
rates	7258
Ġincredible	7259
ĠConstitution	7260
Ġsignal	7261
otes	7262
ĠRog	7263
Ġaccurate	7264
300	7265
ĠVictor	7266
otten	7267
ĠWhere	7268
Ġunp	7269
ker	7270
ĠSouthern	7271
."[	7272
Ġemployment	7273
earing	7274
Ġclients	7275
Ġkeeps	7276
Ġinformed	7277
Ġcontinuing	7278
inity	7279
Ġtaste	7280
Ġbaseball	7281
Ġgenerate	7282
Ġticket	7283
Ġconven	7284
Also	7285
ĠConf	7286
oft	7287
Ġweird	7288
lock	7289
Ġtied	7290
adelph	7291
Ġcategory	7292
zy	7293
ilarly	7294
acked	7295
ĠOrgan	7296
Ġangry	7297
Ġroutine	7298
aron	7299
Ġkil	7300
Ġraising	7301
ifer	7302
Ġmachines	7303
Ġregistered	7304
Ġproved	7305
there	7306
Ġdemands	7307
Ġgaming	7308
ĠItalian	7309
Ġincredibly	7310
Ġcrucial	7311
MP	7312
Ġstuck	7313
ĠCivil	7314
ĠDallas	7315
Ġterrible	7316
56	7317
Ġfeedback	7318
Ġupper	7319
Ġplastic	7320
Ġimper	7321
Ġnewly	7322
ĠJoseph	7323
Ġconsumption	7324
rage	7325
Ġdozen	7326
Ġenthus	7327
ali	7328
Ġestate	7329
Ġinnoc	7330
Ġmanip	7331
Ġconscious	7332
Ġbills	7333
ĠCross	7334
ept	7335
ĠSpain	7336
ifications	7337
Today	7338
Ġwriters	7339
Ġexcess	7340
inding	7341
Ġaggressive	7342
Ġreporter	7343
Ġcompens	7344
Ġreturning	7345
Ġstead	7346
Ġprogramming	7347
ĠThanks	7348
Ġrepresented	7349
Ġconclusion	7350
98	7351
Ġrus	7352
ĠBowl	7353
MS	7354
ĠAR	7355
Ġorigin	7356
Ġassistant	7357
adelphia	7358
Ġroster	7359
ĠMinnesota	7360
Ġorganized	7361
ria	7362
Ġpenalty	7363
lers	7364
Ġdrinking	7365
Ġpaint	7366
Ġsatell	7367
Ġgro	7368
ĠProgram	7369
Ġcapture	7370
Ġconspir	7371
Ġinterpret	7372
Ġexplanation	7373
iscal	7374
ni	7375
58	7376
Ġcounty	7377
iscons	7378
essed	7379
ima	7380
Ġ%	7381
Dr	7382
mont	7383
anny	7384
gorith	7385
isconsin	7386
Ġassistance	7387
Ġcomplaint	7388
ĠRoman	7389
star	7390
Ġru	7391
Ġnut	7392
LA	7393
Ġmagic	7394
Ġtall	7395
ĠOper	7396
Ġgranted	7397
Ed	7398
Because	7399
ĠContin	7400
Off	7401
ĠParliament	7402
Ġcomplicated	7403
emen	7404
Ġchances	7405
Ġaudio	7406
Ġextract	7407
ĠGi	7408
Ġ1999	7409
ĠEduc	7410
era	7411
Ġshares	7412
Ġhel	7413
Ġsuccessfully	7414
rete	7415
esy	7416
ĠWin	7417
........	7418
ĠHot	7419
Ġpilot	7420
ĠIT	7421
ĠEp	7422
Ġmyth	7423
Ġrecovery	7424
ĠTest	7425
Ġtechniques	7426
Ġiron	7427
ĠCare	7428
ĠZeal	7429
ĠSC	7430
Ġscenes	7431
ĠFre	7432
Ġveteran	7433
Ġ($	7434
Ġdegrees	7435
actions	7436
ked	7437
thew	7438
Ġsympt	7439
Ġlawmakers	7440
Ġwestern	7441
Ġoperate	7442
Ġads	7443
rating	7444
Ġhabit	7445
rep	7446
Ġaimed	7447
Inst	7448
anchester	7449
Ġphr	7450
idency	7451
Ġengaged	7452
Ġprivile	7453
Ġ55	7454
========	7455
uan	7456
Ġrating	7457
Ġteaching	7458
ĠOs	7459
Ġacademic	7460
!<|	7461
itar	7462
Ġtherap	7463
Ġpasses	7464
Ġdollar	7465
Ġautomatically	7466
hent	7467
ĠPacific	7468
Ġmonit	7469
Ġblocks	7470
abama	7471
Ġattended	7472
Ġpermanent	7473
Ġsurvive	7474
Ġanticip	7475
Ġenable	7476
ĠLook	7477
Ġextrem	7478
ĠForeign	7479
chain	7480
Ġchat	7481
Ġmarked	7482
itals	7483
Ġhidden	7484
Ġaccomp	7485
Ġtitles	7486
ĠSenator	7487
ĠNBC	7488
cr	7489
Ġtaught	7490
aed	7491
ĠLinux	7492
Ġbom	7493
Ġindex	7494
everal	7495
Ġelite	7496
ibilities	7497
Ġlawyers	7498
Ġdepending	7499
from	7500
Ġvaluable	7501
Ġinstalled	7502
Ġchampionship	7503
Ġroot	7504
Ġcompre	7505
mal	7506
ĠBull	7507
Ġdowntown	7508
Ġequivalent	7509
Ġsolve	7510
rific	7511
Ġduty	7512
ĠSpecial	7513
ĠBusiness	7514
Ġ64	7515
Ġpace	7516
HS	7517
Ġreputation	7518
Ġuncertain	7519
Ġphones	7520
Ġoverse	7521
uine	7522
bal	7523
ĠTaylor	7524
Ġpersonnel	7525
Ġpin	7526
reams	7527
aturally	7528
Ġsufficient	7529
Ġvisited	7530
Ġwarming	7531
Ġprinciples	7532
Ġvulnerable	7533
Ġenjoyed	7534
Ġfake	7535
ĠNick	7536
Ġadvis	7537
Ġnegotiations	7538
inder	7539
Ġgenerated	7540
Ġexposure	7541
ye	7542
Me	7543
Ġrecording	7544
Ġcollected	7545
Ġregardless	7546
Ġdict	7547
%.	7548
EA	7549
Ġbitcoin	7550
Ġelev	7551
ãĢ	7552
active	7553
ĠKelly	7554
ĠAnth	7555
Ġcup	7556
Ġpatterns	7557
Getty	7558
ĠTake	7559
))	7560
ĠAvenue	7561
ĠJosh	7562
bro	7563
Ġcable	7564
Ġdisaster	7565
Ġ65	7566
Ġworker	7567
Ġmainly	7568
lla	7569
Ġracial	7570
quarters	7571
ĠViet	7572
ĠCoast	7573
month	7574
Ġpounds	7575
Ġ150	7576
ĠCall	7577
Ġportion	7578
ĠAh	7579
Ġafraid	7580
Ġinspir	7581
Ġbes	7582
Ġdefence	7583
ĠEastern	7584
ĠTony	7585
Ġtracks	7586
da	7587
Ġbusy	7588
Ġshit	7589
Ġintense	7590
ĠLGBT	7591
ĠSeries	7592
orne	7593
ĠStill	7594
athy	7595
Ġfunny	7596
mann	7597
Ġapolog	7598
Ġsurgery	7599
ĠMoscow	7600
ĠColl	7601
Ġpossession	7602
Ġprominent	7603
ĠMars	7604
Ġcomic	7605
ĠGer	7606
ashes	7607
97	7608
ules	7609
ĠRay	7610
Ġthin	7611
Ġengineering	7612
Ġtroub	7613
ĠKurd	7614
this	7615
Ġprocesses	7616
ĠNation	7617
ĠKent	7618
ĠCome	7619
fall	7620
Ġentit	7621
ĠâĢĻ	7622
Ġunusual	7623
raph	7624
etary	7625
Ġdescribes	7626
Col	7627
world	7628
96	7629
Ġresulted	7630
Ġemerged	7631
Ġtaxp	7632
Ġgall	7633
iler	7634
Ġdim	7635
Ġpropag	7636
ĠIowa	7637
ĠOregon	7638
Ġcoordin	7639
Ġcorruption	7640
Ġstations	7641
ĠInvest	7642
Ġfought	7643
ĠAD	7644
Ġbrut	7645
Ġextension	7646
prise	7647
Ġblind	7648
Ġadopted	7649
Ġcompete	7650
Ġrecru	7651
tes	7652
Ġgrant	7653
ĠZealand	7654
Ġhadn	7655
Pr	7656
Ġ400	7657
Ġmail	7658
ref	7659
Ġeverywhere	7660
ĠBalt	7661
ĠHom	7662
ba	7663
Rec	7664
Mean	7665
icate	7666
Ġcrypt	7667
herent	7668
Ġcontracts	7669
ĠAli	7670
Ġneuro	7671
ĠInt	7672
front	7673
ĠDead	7674
ĠRick	7675
Ġfeelings	7676
Ġfirms	7677
idelines	7678
âĢĻ,	7679
Ġminority	7680
HA	7681
cles	7682
Ġadvertising	7683
Ġspr	7684
Ġrarely	7685
Ġdiscipl	7686
gun	7687
making	7688
ĠNorthern	7689
Ġsanctions	7690
scape	7691
ĠPhiladelphia	7692
upid	7693
Ġcameras	7694
log	7695
Ġexplicit	7696
Ġstrict	7697
viously	7698
Ġenorm	7699
Ġfinance	7700
Ġcited	7701
ifies	7702
ĠBefore	7703
Ġshortly	7704
ĠPolicy	7705
UL	7706
Ġexpectations	7707
Ġimplementation	7708
ogen	7709
Ġrecip	7710
cling	7711
ĠGreek	7712
olt	7713
Ġthick	7714
Ġthousand	7715
antic	7716
ĠMu	7717
Ġloud	7718
istent	7719
Ġaffili	7720
orough	7721
urrent	7722
ĠNavy	7723
Ġinev	7724
cus	7725
Ġphotograph	7726
Ġmedium	7727
azz	7728
ĠWisconsin	7729
Ġscenario	7730
ĠFood	7731
ĠLive	7732
Ġsup	7733
ilton	7734
test	7735
Ġplug	7736
Ġveget	7737
Co	7738
Ġho	7739
Ġvisible	7740
Ġlights	7741
LC	7742
Ġcreates	7743
Ġpriority	7744
Ġven	7745
Ġbridge	7746
inking	7747
Ġobst	7748
Ġagric	7749
ATE	7750
Ġpermission	7751
Mar	7752
ĠFoot	7753
Ġalgorith	7754
izon	7755
Ġparticipate	7756
aska	7757
Ġwing	7758
who	7759
asion	7760
Ġtor	7761
ĠProte	7762
Ġbrowser	7763
ĠGlobal	7764
Ġtag	7765
car	7766
ĠHas	7767
Ġmel	7768
ĠAsh	7769
Ġacceler	7770
elect	7771
Ġdozens	7772
ĠKingdom	7773
ez	7774
Ġcomputers	7775
Ġhistoric	7776
Ġlaid	7777
Ġbasketball	7778
Ġlosses	7779
ĠSaf	7780
76	7781
Ġunw	7782
ogether	7783
::	7784
ĠAmendment	7785
Ġstrikes	7786
Ġprinciple	7787
ĠDevelopment	7788
Ġformal	7789
EP	7790
54	7791
Ġscoring	7792
lan	7793
athered	7794
obs	7795
Ġ44	7796
Ġcounsel	7797
++	7798
Ġshock	7799
Ġwonderful	7800
ĠSP	7801
Ġbehalf	7802
abs	7803
Ġuncom	7804
profit	7805
igen	7806
52	7807
enth	7808
ems	7809
Ġinterface	7810
Ġestablishment	7811
Ġtoler	7812
ĠHenry	7813
lete	7814
bell	7815
ĠGreg	7816
amber	7817
ĠMajor	7818
ĠThus	7819
Us	7820
Ġgained	7821
Ġfee	7822
jo	7823
Ġfounded	7824
Ġfoundation	7825
etime	7826
51	7827
ĠESP	7828
ilipp	7829
Ġclubs	7830
Ġcannabis	7831
Ġju	7832
Ġairport	7833
ystem	7834
ĠKey	7835
Ġborrow	7836
olis	7837
iel	7838
weet	7839
BO	7840
Ġmanufacturing	7841
Ġrely	7842
ĠHit	7843
ĠPay	7844
ĠAlabama	7845
ĠRoyal	7846
Ġgenuine	7847
rators	7848
Before	7849
Ġcomponent	7850
Ġridic	7851
osexual	7852
Ġwheel	7853
rative	7854
ĠOak	7855
Ġjournalist	7856
Ġrelief	7857
ĠSn	7858
Ġsaved	7859
Ġhole	7860
Ġyield	7861
Ġheaded	7862
Ġcyber	7863
she	7864
ĠMoh	7865
uer	7866
ependent	7867
ĠOl	7868
Ġgift	7869
aus	7870
Ġwithdraw	7871
Ġfault	7872
Ġindicate	7873
Ġdrawing	7874
Ġuniform	7875
umer	7876
ĠRand	7877
arlier	7878
ĠVis	7879
Ġstable	7880
Ġships	7881
Ġ->	7882
Ġbanned	7883
Ġmagn	7884
ĠMid	7885
Ġfootage	7886
Meanwhile	7887
rous	7888
Ġdoors	7889
Ġrecognized	7890
Ġ1960	7891
Ġcontaining	7892
pread	7893
ĠFC	7894
Ġriver	7895
Ġstruggling	7896
Sub	7897
Ġspark	7898
ĠAcademy	7899
Ġwalls	7900
Ġachieved	7901
opher	7902
ounced	7903
Ġneighb	7904
aning	7905
Ġplate	7906
Ġedition	7907
ĠHT	7908
portion	7909
mate	7910
Ġmovements	7911
Ġdeliber	7912
uce	7913
Post	7914
Ġsharp	7915
ĠAS	7916
ĠSnow	7917
ulating	7918
ĠThree	7919
Ġepisodes	7920
Ġneutral	7921
ĠPremier	7922
ĠRet	7923
ĠFund	7924
Ġexception	7925
etts	7926
Ġproducer	7927
________________	7928
ĠFred	7929
Ġdestruction	7930
Ġ1998	7931
ami	7932
oured	7933
osa	7934
:<|	7935
Ġbeliefs	7936
Ġ47	7937
ĠReview	7938
Ġpump	7939
Ġlegend	7940
ĠMcG	7941
Ġbacked	7942
umin	7943
Ġhired	7944
Ġliked	7945
idespread	7946
cription	7947
ca	7948
Ġroles	7949
Ġlanguages	7950
Ġprofession	7951
Ġentering	7952
ĠVR	7953
oen	7954
Ġinterviews	7955
Ġhang	7956
isp	7957
ĠKir	7958
Ġtox	7959
Ġphilosophy	7960
ĠAdministration	7961
Ġarrange	7962
interest	7963
Ġflaw	7964
ĠNob	7965
Those	7966
sylv	7967
imore	7968
Ġstadium	7969
ĠAtlanta	7970
ĠJac	7971
Ġreduction	7972
Ġdinner	7973
Ġbath	7974
ja	7975
uper	7976
ĠTurkish	7977
eman	7978
ĠReport	7979
400	7980
Ġaver	7981
Ġfinger	7982
ĠNote	7983
ĠConference	7984
Ġtackle	7985
burgh	7986
Ġcha	7987
Ġgonna	7988
ĠDiego	7989
ĠCentre	7990
Ġcrop	7991
Ġfarmers	7992
ĠManchester	7993
Ġnominee	7994
Ġ41	7995
53	7996
aching	7997
ĠJason	7998
Ġbarely	7999
ATO	8000
Ġstructures	8001
Ġcontained	8002
Ġsynt	8003
Ġdelivery	8004
Ġconvin	8005
ĠOtt	8006
%,	8007
Ġprocessing	8008
Ġdiscrimination	8009
Ġincent	8010
riers	8011
ĠFair	8012
erved	8013
RS	8014
ĠData	8015
ĠLo	8016
then	8017
ĠArm	8018
abinet	8019
Ġintellectual	8020
amsung	8021
Ġ46	8022
ĠRadio	8023
ĠBry	8024
ĠField	8025
ĠOK	8026
ĠDid	8027
Ġupset	8028
ĠPerhaps	8029
ĠMir	8030
ĠEducation	8031
sylvania	8032
away	8033
President	8034
Ġchallenging	8035
Ġproven	8036
Ġrestrictions	8037
rik	8038
gener	8039
Ġforever	8040
https	8041
olen	8042
Ġelectronic	8043
Ġhitting	8044
ĠHay	8045
Ġeuro	8046
Ġunex	8047
ho	8048
Ġreviews	8049
ĠFed	8050
ĠChristians	8051
Ġ43	8052
ĠHor	8053
Star	8054
Ġconvicted	8055
Ġillness	8056
Ġsmooth	8057
Dav	8058
page	8059
Ġretired	8060
Ġindicated	8061
usive	8062
Ġproducing	8063
ĠHarry	8064
ĠAbout	8065
Ġrapidly	8066
Ġrose	8067
Ġhide	8068
Ġcorporations	8069
Ġocean	8070
ĠNC	8071
ĠRus	8072
ĠPoint	8073
aying	8074
owing	8075
ĠSat	8076
Ġlistening	8077
ĠReuters	8078
ĠUFC	8079
Ġtechnique	8080
Ġmo	8081
yard	8082
sels	8083
Ġloyal	8084
ĠNic	8085
lessly	8086
iy	8087
Ġrobot	8088
Ġclimb	8089
Ġnotion	8090
Ġbegun	8091
87	8092
Ġren	8093
Ġutil	8094
Ġrecognition	8095
ouver	8096
engers	8097
inf	8098
Ġperpet	8099
Ġassociation	8100
Ġmilk	8101
Ġasks	8102
Ġwebsites	8103
Ġdescription	8104
ĠPack	8105
Ġtickets	8106
ĠPen	8107
achus	8108
Ġflash	8109
Ġbra	8110
Ġsuggesting	8111
enny	8112
ĠJudge	8113
Ġexclusive	8114
Ġreaching	8115
Ġprepare	8116
iti	8117
ĠKansas	8118
found	8119
ione	8120
Who	8121
Ġbail	8122
Ġfrag	8123
Ġprogressive	8124
Ġburd	8125
Ġexceed	8126
Ġequally	8127
ĠHard	8128
Ġhardly	8129
Ġwidespread	8130
ĠABC	8131
Ġcampaigns	8132
ĠMayor	8133
Ġcontribute	8134
udes	8135
elf	8136
ologists	8137
Ġbranch	8138
Look	8139
ĠRose	8140
Ġgrass	8141
Ġinitiative	8142
ĠMarket	8143
Ġethnic	8144
Ġexternal	8145
ikes	8146
ĠCirc	8147
uma	8148
rient	8149
Ġsensitive	8150
Ġpractical	8151
usted	8152
Ġunclear	8153
Ġnormally	8154
Ref	8155
Ġrepresentative	8156
pat	8157
89	8158
Ġwelf	8159
ĠFull	8160
thon	8161
Ġreducing	8162
appy	8163
Ġfriendly	8164
bec	8165
Ġcarefully	8166
ĠArabia	8167
ĠRef	8168
lad	8169
ĠLy	8170
PM	8171
ĠLuc	8172
Ġracist	8173
Ġinvent	8174
rical	8175
PG	8176
ouch	8177
ĠCO	8178
Ġrespectively	8179
senal	8180
Ġexem	8181
rator	8182
Ġtail	8183
imm	8184
ĠMcCain	8185
ĠBernie	8186
ancouver	8187
Ġoverwhelming	8188
Ġviewers	8189
ĠBeach	8190
Ġwelfare	8191
arrass	8192
stract	8193
ĠFurther	8194
Ġconvinced	8195
UN	8196
Ġsmoke	8197
umes	8198
Ġcollapse	8199
Ġinvolvement	8200
ĠLind	8201
ester	8202
Ġthrown	8203
pload	8204
Ġconnections	8205
heast	8206
Ġterrorists	8207
ĠBattle	8208
Ġstrategic	8209
Ġhook	8210
Ġ00	8211
ĠLatin	8212
Ġrecover	8213
omething	8214
ĠOnt	8215
Ġwine	8216
ĠNext	8217
Mc	8218
inois	8219
ĠMusic	8220
rolled	8221
Ġminds	8222
igrant	8223
Ġvital	8224
Ġsettlement	8225
Ġstatistics	8226
Ġlists	8227
Ġvary	8228
ĠSir	8229
Ġfeaturing	8230
ĠESPN	8231
ecut	8232
ĠDig	8233
achusetts	8234
Ġbehaviour	8235
Ġindependence	8236
worth	8237
Ġfantasy	8238
Ġdevast	8239
nedy	8240
core	8241
uties	8242
Ġinvited	8243
Ġcomplaints	8244
Ġjoining	8245
dem	8246
Ġscores	8247
Ġfiscal	8248
Ġdeeper	8249
abil	8250
ĠPennsylvania	8251
ifest	8252
Ġsteal	8253
Ġanger	8254
Ġdeputy	8255
Ġelig	8256
Ġwars	8257
ĠSquare	8258
ĠTenn	8259
Ġinvestigate	8260
ĠTown	8261
Ġsugar	8262
Ġconstitutional	8263
ĠPit	8264
ĠIII	8265
Ġscholars	8266
Ġanybody	8267
ĠiOS	8268
Ġsubjects	8269
ĠAND	8270
Ġarray	8271
Ġalien	8272
FA	8273
ĠGov	8274
Ġlobby	8275
Ġownership	8276
Ġframework	8277
ĠUlt	8278
Ġunemployment	8279
ĠDivision	8280
Ġtransgender	8281
bn	8282
Ġimprovements	8283
ĠSS	8284
Ġmenu	8285
Ġpeak	8286
Back	8287
Ġscreens	8288
ihad	8289
Ġinject	8290
Ġluck	8291
iversary	8292
Ġdefine	8293
Ġtasks	8294
ĠXbox	8295
Ġdemocratic	8296
Ġscandal	8297
icking	8298
Ġjury	8299
ĠAnton	8300
Che	8301
ĠMinistry	8302
ĠKat	8303
Ġcos	8304
Ġcomprehens	8305
osit	8306
ĠEs	8307
unior	8308
Ġremem	8309
Ġdiscovery	8310
Ġregister	8311
Ġcasual	8312
Ġcitizen	8313
RI	8314
Ġfab	8315
Under	8316
Ġroads	8317
Ġdisagree	8318
Ġfailing	8319
ĠNever	8320
ĠLittle	8321
ĠJay	8322
Ġdynamic	8323
Ġserves	8324
ĠCameron	8325
ĠBrother	8326
ĠMah	8327
Ġtestim	8328
Ġgathered	8329
ĠInformation	8330
ĠStone	8331
Sm	8332
asty	8333
Ġsoph	8334
oding	8335
Ġimplemented	8336
Ġcontroversy	8337
Ġcollective	8338
Ġtrained	8339
anna	8340
ĠNSA	8341
Ġneighbour	8342
Ġfears	8343
Ġguarante	8344
leveland	8345
Ġsamples	8346
Ġfiction	8347
Ġprosec	8348
Ġestimate	8349
ĠCommunity	8350
69	8351
ĠIce	8352
ĠMedical	8353
agg	8354
ĠSept	8355
Ġ1997	8356
ĠPhilipp	8357
Ġreferring	8358
Ġtip	8359
Ġcaptain	8360
Will	8361
Ġ1996	8362
Ġspaces	8363
cific	8364
ĠWalker	8365
Ġversus	8366
Ġlegs	8367
ĠSanta	8368
Ġtemporary	8369
Ġnoise	8370
Ġsin	8371
ĠHD	8372
PC	8373
Ġincorpor	8374
Ġtone	8375
eland	8376
acon	8377
Ġovert	8378
Ġvisitors	8379
Ġreven	8380
Ġcivilians	8381
Ġwages	8382
Ġhypot	8383
Ġremarks	8384
Ġawareness	8385
ĠON	8386
ĠSpring	8387
Ġrecommended	8388
Ġstupid	8389
ĠAllen	8390
Ġheading	8391
Ġhandful	8392
Ġregulation	8393
icket	8394
ĠAction	8395
ĠCore	8396
Ġplatforms	8397
Ġaccus	8398
ĠAnthony	8399
Ġaffairs	8400
Ġtouchdown	8401
Ġrural	8402
Ġattacking	8403
Ġextend	8404
Ġultimate	8405
Ġattached	8406
ĠVegas	8407
Ġdiscussions	8408
Ġhorse	8409
mad	8410
ĠBrew	8411
Ġreprodu	8412
Ġattempting	8413
Ġgenetic	8414
Ġexpanded	8415
phones	8416
ĠMatthew	8417
Ġraces	8418
including	8419
ĠQueen	8420
iry	8421
Ġraw	8422
Ġignore	8423
ĠColumbia	8424
serv	8425
ĠPent	8426
ĠGuardian	8427
hour	8428
ĠCook	8429
itionally	8430
Ġgear	8431
ĠiP	8432
Ġsymptoms	8433
ĠPatrick	8434
Ġsuffer	8435
Ġsettings	8436
ĠMake	8437
âĢĶâĢĶâĢĶâĢĶ	8438
alling	8439
Ġsalary	8440
han	8441
case	8442
Ġlicens	8443
Ġroof	8444
mary	8445
GO	8446
Ġtweeted	8447
angel	8448
'.	8449
Ġpublication	8450
Ġbrill	8451
Ġfactory	8452
Ġsuspected	8453
Ġpurchased	8454
Ġintervention	8455
aret	8456
Ġeastern	8457
Ġholiday	8458
type	8459
2014	8460
Ġprompt	8461
esh	8462
Ġtheat	8463
About	8464
Ġdispl	8465
Ġranked	8466
ĠBudd	8467
Ġneck	8468
ĠAustin	8469
ĠConservative	8470
ĠMuseum	8471
ĠRoy	8472
")	8473
Ġcro	8474
Ġenormous	8475
Sen	8476
####	8477
intendo	8478
Ġcogn	8479
Ġlogic	8480
ultural	8481
ictions	8482
ĠAPI	8483
Ġimprovement	8484
Ġviewed	8485
Ġingred	8486
Ġentertainment	8487
Ass	8488
Ġlegitimate	8489
ĠProfessor	8490
ommod	8491
Ġpresum	8492
ĠAlbert	8493
ĠMassachusetts	8494
ĠBall	8495
Ġ2019	8496
Ġwww	8497
News	8498
Ġactors	8499
Ġsubstantial	8500
Ġhumanity	8501
Ġinvolves	8502
Ġresource	8503
arms	8504
Ġbrothers	8505
Ġliquid	8506
Ġrational	8507
Ġseemingly	8508
Ġsorry	8509
Ġlayer	8510
Ġloans	8511
Ġrook	8512
Ġinvestigating	8513
Ġabsence	8514
Ġproviders	8515
Ġtomorrow	8516
Ġbureau	8517
Ġfallen	8518
rec	8519
Ġgrounds	8520
Ġcoaches	8521
Ġstake	8522
Ġresign	8523
Ġouts	8524
Ġadvocates	8525
ĠâĤ¬	8526
RC	8527
Ġinvestigators	8528
Ġconspiracy	8529
Ġdramatic	8530
Ġmedicine	8531
Where	8532
Ġfulf	8533
Ġmonitor	8534
ĠChair	8535
repre	8536
EST	8537
Ġchapter	8538
ĠSeason	8539
Ġcoc	8540
oval	8541
Ġovers	8542
GE	8543
lah	8544
plete	8545
.-	8546
Ġactivist	8547
ped	8548
Ġboat	8549
ĠCheck	8550
aka	8551
ĠControl	8552
Ġjur	8553
Ġsuspended	8554
Ġpapers	8555
Script	8556
ĠGreece	8557
Ġopinions	8558
ĠSuch	8559
ĠRoss	8560
Ġmissile	8561
ĠGolden	8562
Ġceleb	8563
ĠRevolution	8564
2016	8565
Ġstayed	8566
Ġcovers	8567
ĠHead	8568
Ġdiversity	8569
iverpool	8570
otype	8571
Ġbars	8572
Ġgam	8573
Russ	8574
rets	8575
Ġje	8576
xit	8577
Ġembarrass	8578
Ġoffices	8579
ĠAcc	8580
ourse	8581
ĠPot	8582
claim	8583
Part	8584
hot	8585
ĠIranian	8586
ammed	8587
Ġdisrupt	8588
cover	8589
ĠWW	8590
Ġpreced	8591
mat	8592
Ġpoly	8593
Ġforest	8594
wered	8595
Ġcareful	8596
ĠAp	8597
reprene	8598
vard	8599
Ġamid	8600
ĠHistory	8601
79	8602
ĠHo	8603
ĠHospital	8604
isting	8605
ĠAle	8606
Ġauthent	8607
quest	8608
ĠIllinois	8609
ĠCBS	8610
ĠSony	8611
uction	8612
Ġham	8613
geon	8614
Related	8615
dit	8616
72	8617
74	8618
rine	8619
Ġtransportation	8620
ĠVancouver	8621
ĠGaza	8622
Ġhanded	8623
Ġprotocol	8624
Ġconsistently	8625
Ġmountain	8626
Ġ52	8627
Ġreads	8628
ĠStat	8629
Ġpref	8630
Ġclothes	8631
Ġattitude	8632
iability	8633
ection	8634
ĠPo	8635
ĠShare	8636
ĠKennedy	8637
Ġporn	8638
Ġprincip	8639
ĠFreedom	8640
bi	8641
Ġdepends	8642
Ġmining	8643
Ġpetition	8644
Ġnoting	8645
Ġconce	8646
des	8647
Ġcolors	8648
Ġlowest	8649
ĠAnderson	8650
Ġwarrant	8651
Ġaddressed	8652
ĠTri	8653
ĠFamily	8654
unes	8655
Ġentr	8656
ĠRa	8657
ptions	8658
xx	8659
ĠStadium	8660
Ġthrowing	8661
Ġvirtually	8662
Ġfruit	8663
!)	8664
Ġstone	8665
Ġfoss	8666
ĠMean	8667
Ġguarantee	8668
Ġreferend	8669
Both	8670
Ġspeaks	8671
ĠBaltimore	8672
inch	8673
??	8674
Ġsteel	8675
Ġclosing	8676
Ġreader	8677
FF	8678
dri	8679
Ġbuff	8680
Ġpersonality	8681
ĠCre	8682
Ġappreciate	8683
Ġsurf	8684
ĠIraqi	8685
pton	8686
ĠEnvironment	8687
Ġnerv	8688
iences	8689
maker	8690
keep	8691
Ġkm	8692
Ġhandling	8693
Ġprofits	8694
Ġgrav	8695
ordon	8696
low	8697
Ġmarks	8698
Ġtries	8699
ĠBroad	8700
ĠExt	8701
Ġcontributions	8702
ĠEngine	8703
ropri	8704
zed	8705
Ġspiritual	8706
Ġconversations	8707
ĠTro	8708
Ġfantastic	8709
Ġlands	8710
Ġconsole	8711
ila	8712
Ġhorror	8713
ppers	8714
".[	8715
icity	8716
Ġgains	8717
Her	8718
Ġcovering	8719
Ġtea	8720
ivals	8721
ĠHarris	8722
Ġastron	8723
Ġhint	8724
aval	8725
Ġshoulder	8726
scale	8727
Ġwrest	8728
Ġguest	8729
ĠBad	8730
Ġaccommod	8731
uted	8732
uits	8733
Ġdepression	8734
Ġ_	8735
ĠCA	8736
ĠLewis	8737
Ġlucky	8738
ĠBang	8739
Ġencouraged	8740
flix	8741
amac	8742
Ġjudges	8743
Ġincidents	8744
ĠCleveland	8745
Ġdrew	8746
Ġsubsequent	8747
ira	8748
Ġspoken	8749
ĠRen	8750
ĠHoward	8751
Ġbrown	8752
Ġbacter	8753
Please	8754
ixed	8755
annels	8756
Ġranks	8757
Ġrhet	8758
ĠGetty	8759
Ġphotograp	8760
Ġinflation	8761
Ġinner	8762
ĠIntelligence	8763
eding	8764
itting	8765
ĠBa	8766
Ġmaps	8767
abeth	8768
ĠPatri	8769
ported	8770
ijing	8771
plate	8772
Ġdivided	8773
Ġ1995	8774
ĠNATO	8775
********	8776
Ġparalle	8777
Ġdrama	8778
ĠMexican	8779
Ġdistributed	8780
Ġgal	8781
Ġinnovation	8782
Ġswing	8783
Ġcust	8784
unicip	8785
ĠUnfortunately	8786
Ġpremium	8787
Ġpermit	8788
Ġvoter	8789
Ġrevel	8790
ĠKong	8791
Ġtrem	8792
Ġdance	8793
Ġclim	8794
pled	8795
ĠLas	8796
Ġefficiency	8797
ĠIndeed	8798
Ġpromises	8799
Note	8800
ĠCH	8801
ĠWhich	8802
Ġballot	8803
Ġ51	8804
Ġtemperatures	8805
ĠSamsung	8806
Ġportray	8807
Ġspokesperson	8808
Ġlocked	8809
Ġlying	8810
Ġimproving	8811
Ġthrew	8812
Ġjoy	8813
Ġdump	8814
Ġmusical	8815
PP	8816
Ġmistakes	8817
dated	8818
Ġshout	8819
conf	8820
Ġhomeless	8821
Ġreplacement	8822
eries	8823
ĠStart	8824
Ġcomedy	8825
Ġchecks	8826
ĠMoon	8827
ĠWithout	8828
Ġinstrument	8829
ounce	8830
ĠConnect	8831
Ġacknowledged	8832
Ġbarrel	8833
Ġresponses	8834
Ġprotecting	8835
backs	8836
ĠDet	8837
ÂĴ	8838
Ġsilver	8839
Ġcopies	8840
heim	8841
Ġles	8842
ĠAC	8843
Ġdad	8844
Ġbreaks	8845
ĠPlus	8846
ĠBuff	8847
Ke	8848
Ġcommonly	8849
Ġlets	8850
Ġlegacy	8851
itage	8852
Ġprotein	8853
Ġmathem	8854
Ġjoke	8855
amacare	8856
erted	8857
hop	8858
Ġpassengers	8859
2015	8860
Ġyellow	8861
ĠMarvel	8862
Ġnaturally	8863
Your	8864
ĠScient	8865
Ġnomination	8866
Source	8867
Ġmeasured	8868
aping	8869
oded	8870
alia	8871
ĠUse	8872
Ġabandoned	8873
Ġmad	8874
ĠPrince	8875
Ġstudied	8876
800	8877
ĠFootball	8878
Art	8879
helsea	8880
asted	8881
Ġdiverse	8882
Ġrom	8883
argo	8884
Ġacquired	8885
ĠLyn	8886
ieties	8887
Cons	8888
ĠMarsh	8889
Ġsoil	8890
Ġdemonstrated	8891
Ġrear	8892
Ġfunded	8893
Ġheadquarters	8894
hesis	8895
esty	8896
Ġstolen	8897
yo	8898
Ġscan	8899
yer	8900
Ġcounts	8901
Ġtape	8902
Ġpartnership	8903
Ġmidfield	8904
ĠNOT	8905
Ġ(âĢľ	8906
Ġupgrade	8907
ĠCost	8908
ĠAtlantic	8909
Ġmarch	8910
Ġordinary	8911
ĠAud	8912
ĠNev	8913
aware	8914
Ġliterature	8915
Ġplain	8916
Ġstages	8917
ĠâĢ¢	8918
Ġassert	8919
Ġ1994	8920
high	8921
ĠAI	8922
Ġhelpful	8923
Ġarrive	8924
Ġexit	8925
Ġscope	8926
Ġfalls	8927
63	8928
dog	8929
Ġignored	8930
BM	8931
Ġtwenty	8932
eters	8933
ĠMaster	8934
Ġclock	8935
Ġcompe	8936
inction	8937
Ġvirus	8938
ĠTrib	8939
Ġreferendum	8940
Ġinequ	8941
Ġunions	8942
ĠDoes	8943
assador	8944
Ġconservatives	8945
ĠGun	8946
Ġrif	8947
Ġgrid	8948
Ġsymp	8949
Ġfestival	8950
Ġfro	8951
Ġshopping	8952
Ġwaters	8953
ĠPop	8954
Ġcapabilities	8955
ĠBron	8956
Ġax	8957
lahoma	8958
ĠHind	8959
Ġusage	8960
iate	8961
zing	8962
ĠEmpire	8963
aeda	8964
ĠAbb	8965
ington	8966
ĠIndiana	8967
iley	8968
Ġtransactions	8969
Ġhoped	8970
erg	8971
Ġdistract	8972
Ġguitar	8973
VE	8974
ĠEag	8975
ctic	8976
Ġsty	8977
Ġramp	8978
Ġassessment	8979
Ġuniversities	8980
ĠDave	8981
Ġmoon	8982
ormal	8983
Ġmonitoring	8984
acket	8985
bridge	8986
Ġrepresenting	8987
Facebook	8988
ĠDeath	8989
Ġratio	8990
encing	8991
62	8992
ught	8993
ĠProv	8994
ĠAst	8995
orge	8996
ji	8997
Ġconventional	8998
comes	8999
UST	9000
ĠSet	9001
Ġtrave	9002
Ġtracking	9003
door	9004
ntil	9005
pie	9006
ĠSometimes	9007
61	9008
only	9009
shire	9010
Ġhung	9011
ĠSus	9012
Ġreliable	9013
Ġtie	9014
Ġproposals	9015
Ġskept	9016
Ġreplied	9017
uh	9018
ĠRos	9019
Ġcriticized	9020
Ġappearances	9021
rimin	9022
ecutive	9023
Ġracism	9024
Ġinsisted	9025
organ	9026
Ġ2020	9027
Ġintroduction	9028
Ġappointed	9029
dney	9030
ĠBureau	9031
olph	9032
agic	9033
ĠPass	9034
cut	9035
ĠLine	9036
Ġbeauty	9037
Ġconcrete	9038
Ġreceiver	9039
fund	9040
Ġsupplies	9041
Ġperforming	9042
made	9043
Ġbub	9044
Ġexch	9045
rite	9046
ĠHa	9047
ĠHell	9048
Ġvisiting	9049
ĠTechnology	9050
ĠDenver	9051
ocument	9052
EE	9053
theless	9054
omes	9055
ĠCapt	9056
RL	9057
Ġletting	9058
AND	9059
Ġdeficit	9060
Ġclassified	9061
ĠGalaxy	9062
Ġrender	9063
HT	9064
Ġabsor	9065
ĠOrig	9066
Ġswim	9067
Ġaccomplish	9068
Ġauto	9069
Ġprogramme	9070
Ġpresidency	9071
crib	9072
Ġblocked	9073
ĠSweden	9074
ĠJam	9075
Ġec	9076
archy	9077
Ġdust	9078
ĠUtah	9079
Ġdrove	9080
Ġlandscape	9081
Ġcance	9082
ĠPortland	9083
plus	9084
Ġdismissed	9085
ĠLA	9086
Ġhyper	9087
Ġabroad	9088
Ġbonus	9089
ĠTour	9090
Ġsequence	9091
Ġpredicted	9092
Ġsenator	9093
Â°	9094
ela	9095
ĠAge	9096
Ġwarn	9097
Ġdomain	9098
ĠCode	9099
ĠBon	9100
Ġmuseum	9101
ĠAssociated	9102
Ġpersons	9103
NS	9104
Ġdub	9105
aga	9106
Ġrequested	9107
Ġtrigger	9108
ĠOntario	9109
iano	9110
ĠCorpor	9111
Ġhockey	9112
Ġartific	9113
Ġdates	9114
Ġtestimony	9115
Ġcenters	9116
Ð»	9117
Ġrocket	9118
irts	9119
Ġves	9120
Ġtransit	9121
Ġcongressional	9122
Ġentitled	9123
ultane	9124
acco	9125
Ġspokeswoman	9126
ĠFront	9127
ĠNintendo	9128
ĠAlexander	9129
Ġrescue	9130
ĠCooper	9131
mony	9132
Ġassign	9133
Ġequality	9134
Ġpatch	9135
Ġurged	9136
afe	9137
Ġbread	9138
ĠOlympic	9139
Ġdocumentary	9140
Ġveterans	9141
Ġclar	9142
fol	9143
93	9144
king	9145
ĠâĢĿ	9146
Ġrecall	9147
Ġpopulations	9148
94	9149
ais	9150
Ġbreath	9151
ĠLow	9152
Still	9153
92	9154
ounding	9155
rooms	9156
Are	9157
Ġwhenever	9158
Ġviolation	9159
Ġtactics	9160
Ġwider	9161
71	9162
Ġtargeting	9163
Yet	9164
through	9165
Ġpursue	9166
">	9167
Ġsalt	9168
Ġfiring	9169
izabeth	9170
don	9171
ĠMill	9172
Comp	9173
Ġacid	9174
har	9175
Ġmole	9176
inating	9177
Ġrestaurants	9178
Ġcompare	9179
73	9180
fare	9181
orous	9182
Ġwedd	9183
ennis	9184
ective	9185
Ġemployed	9186
ĠRoberts	9187
Ġcontrad	9188
ĠBible	9189
Ġpolitically	9190
Ġphrase	9191
Ġsatellite	9192
ĠCro	9193
Ġsurvival	9194
Ġretirement	9195
Ġbanking	9196
ĠForm	9197
isons	9198
ĠGirl	9199
Ġbrilliant	9200
Ġchannels	9201
Ġservers	9202
ĠBeijing	9203
Ġsoccer	9204
trans	9205
ĠMach	9206
they	9207
Ġintroduce	9208
ĠJustin	9209
atar	9210
Ġexperiments	9211
aver	9212
enez	9213
Ġprisoners	9214
rapped	9215
Ġcig	9216
ĠWH	9217
jud	9218
Ġfighter	9219
600	9220
Ġscientist	9221
OK	9222
ĠYOU	9223
usalem	9224
ĠList	9225
Ġsubmit	9226
Ġapproached	9227
ĠAward	9228
Ġmonthly	9229
ĠLiverpool	9230
rell	9231
Ġdesigns	9232
Ġrepresentatives	9233
Ġcul	9234
Ġtitled	9235
ordinary	9236
Ġquote	9237
Ġpopularity	9238
olves	9239
Ġabilities	9240
oenix	9241
ĠPD	9242
Ġmembership	9243
Ġinvestigations	9244
Ġfocusing	9245
pa	9246
mans	9247
Ġbab	9248
Ġhosp	9249
ĠBridge	9250
Though	9251
ĠMaryland	9252
ĠAdv	9253
Ġsaving	9254
Ġrush	9255
ĠGovernor	9256
Ġmit	9257
Ġshadow	9258
bow	9259
ouri	9260
ĠHur	9261
ĠBase	9262
Ġobjective	9263
berry	9264
ĠTed	9265
Ġencry	9266
erts	9267
ederation	9268
Ġprepar	9269
Ġtips	9270
ĠWas	9271
Ġpipeline	9272
David	9273
Ġchildhood	9274
ika	9275
Ġratings	9276
Ġthorough	9277
Ġentreprene	9278
ĠKar	9279
enter	9280
ĠVill	9281
tel	9282
ĠDutch	9283
was	9284
break	9285
emed	9286
Ġactively	9287
ĠHarvard	9288
ĠSom	9289
Ġpig	9290
Ġdemanding	9291
Ġloose	9292
ĠBra	9293
Ġunexpected	9294
CO	9295
Ġsmoking	9296
Ġsmell	9297
Ġdeny	9298
Ġuniversal	9299
Ġforecast	9300
Ġargues	9301
Ġphenomenon	9302
Ġoverseas	9303
mers	9304
olds	9305
Ġsettled	9306
walk	9307
ĠBeck	9308
Ġgenerations	9309
Ġchicken	9310
Ġweekly	9311
Ġpreparing	9312
Ġ95	9313
Ġsmartphone	9314
Ġproducers	9315
Ġbutt	9316
ĠPA	9317
Ġlegislative	9318
ĠCry	9319
Ġanxiety	9320
ĠHave	9321
Ġdisturb	9322
Ġinnocent	9323
ĠClick	9324
minute	9325
Ġmortg	9326
Ġcelebrate	9327
Dem	9328
iki	9329
Ġprovision	9330
ĠDO	9331
Ġkeys	9332
ĠUr	9333
ded	9334
Ġshame	9335
Ġarguing	9336
ĠDesign	9337
held	9338
Ġquestioned	9339
Ġforcing	9340
ĠCow	9341
ĠHop	9342
agh	9343
ompson	9344
âĶ	9345
Ġbroader	9346
Ġencounter	9347
Ġflags	9348
SL	9349
Ġfool	9350
Ġmac	9351
Ġ53	9352
Ġdeadly	9353
Ġfur	9354
84	9355
Ġreverse	9356
Ġweigh	9357
ĠEdward	9358
ĠAmong	9359
Ġtens	9360
Ġ~	9361
Ġmos	9362
Ġwealthy	9363
ĠObamacare	9364
Ġunpre	9365
Ġmaintained	9366
Ġsurely	9367
Ġshield	9368
ĠProp	9369
ocolate	9370
oret	9371
Ġsecondary	9372
isa	9373
aved	9374
Sim	9375
Ġsavings	9376
irlf	9377
Ġstability	9378
Ġcivilian	9379
Ġtab	9380
Äĥ	9381
ĠCarter	9382
Ġreveals	9383
mind	9384
Ġmini	9385
elson	9386
Ġalarm	9387
Ġanniversary	9388
Ġsorts	9389
ĠAk	9390
vernment	9391
El	9392
Ġtonight	9393
Ġreleases	9394
isk	9395
ĠHon	9396
Ġrooms	9397
irlfriend	9398
ĠGulf	9399
Ġoutrage	9400
Ġprosecutors	9401
ĠLeft	9402
ois	9403
ele	9404
Ġdisorder	9405
inals	9406
Ġexha	9407
orious	9408
Ġshr	9409
Ġrelax	9410
Ġwindows	9411
Ġthreatening	9412
Ġdifferently	9413
Ġharassment	9414
Ġquoted	9415
Ġhealthcare	9416
Ġsubmitted	9417
Ġarbit	9418
Ġlunch	9419
step	9420
itter	9421
ĠRun	9422
Ġreforms	9423
Ġtorture	9424
rection	9425
Ġfate	9426
Ġstored	9427
Ġokay	9428
ĠBelg	9429
Ġpropaganda	9430
Ġspots	9431
Ġinstructions	9432
ĠVietnam	9433
Ġsevent	9434
Ġrounds	9435
Ġodds	9436
Ġ1992	9437
Ġaer	9438
html	9439
tenance	9440
aa	9441
Ġerrors	9442
ĠOklahoma	9443
Ġhydro	9444
icism	9445
GA	9446
Ġdelic	9447
ailed	9448
ĠLiberal	9449
Ġsilence	9450
ĠGraham	9451
acts	9452
ĠWarren	9453
Ġgraduate	9454
ĠSab	9455
Ġcircle	9456
Ġaffordable	9457
sect	9458
ĠBloom	9459
oz	9460
Ġcooperation	9461
Ġpicks	9462
Ġsear	9463
itary	9464
ĠSarah	9465
ĠFall	9466
orship	9467
ĠExpl	9468
Ġstriking	9469
Ġpuzz	9470
van	9471
Ġpersu	9472
Ġstreaming	9473
Ġcomprehensive	9474
Ġimportantly	9475
Ġcow	9476
Ġpossess	9477
Watch	9478
Ġfing	9479
Ġexecution	9480
ĠRuby	9481
lined	9482
rows	9483
Ġintim	9484
Ġstruggled	9485
ĠPerson	9486
ĠSilver	9487
Ġassass	9488
ĠLeader	9489
uten	9490
ahu	9491
Ġgent	9492
Ty	9493
ĠPrice	9494
Reuters	9495
ishop	9496
Ġdeserve	9497
ĠJerusalem	9498
Ġlanding	9499
Ġcalm	9500
Ġalter	9501
Ġhal	9502
Ġceremony	9503
Ġassumed	9504
Ġdemonstrate	9505
Ġdifficulty	9506
fr	9507
83	9508
Ġages	9509
Ġpron	9510
Ġdying	9511
Ġdistingu	9512
asury	9513
ethe	9514
Ġstepped	9515
Ġborders	9516
asting	9517
Ġchest	9518
ĠWolf	9519
ĠLt	9520
Ġadventure	9521
Ġpointing	9522
Ġwaves	9523
ova	9524
ĠDeb	9525
Ġkilomet	9526
essee	9527
ierce	9528
ĠNetflix	9529
atern	9530
Ġautonom	9531
Ġprecisely	9532
Ġarchitecture	9533
Ġgreatly	9534
bury	9535
Ġpromising	9536
Ġconsent	9537
eals	9538
Ġconsideration	9539
Ġdrives	9540
Ġdialogue	9541
ĠMain	9542
Ġtremend	9543
ĠTen	9544
ĠBud	9545
Ġnewsletter	9546
Ġrookie	9547
asant	9548
Ġawarded	9549
ĠMeanwhile	9550
after	9551
Ġrepeat	9552
ĠStory	9553
Ġcontribution	9554
ĠTele	9555
Ġburning	9556
party	9557
Ġsimultane	9558
ĠScottish	9559
ĠVice	9560
akh	9561
Ġdonations	9562
ĠIndust	9563
Ġinterf	9564
itol	9565
ĠMagic	9566
Ġvoices	9567
Ġanalyst	9568
ĠBruce	9569
ĠTech	9570
ceptions	9571
Ġgif	9572
Ġfrequency	9573
ĠCommon	9574
Ġprocedure	9575
Ġwanting	9576
ĠPres	9577
Ġexecutives	9578
Ġplayoffs	9579
oice	9580
Ġstaying	9581
lee	9582
apolis	9583
Ġbirds	9584
Ġbias	9585
iev	9586
VD	9587
ĠHong	9588
ĠAz	9589
izer	9590
Ġinches	9591
Ġtrillion	9592
omy	9593
holders	9594
Ġhighlights	9595
Ġsemi	9596
Ġremarkable	9597
Ġwhereas	9598
EX	9599
ributes	9600
ĠPalestinians	9601
Ġknee	9602
open	9603
Ġans	9604
ĠJonathan	9605
raig	9606
scribe	9607
Ġimplications	9608
Ġformation	9609
Ġsuperior	9610
Ġstrategies	9611
itual	9612
ĠBerlin	9613
ĠLink	9614
div	9615
ĠSydney	9616
stal	9617
ĠMORE	9618
ĠArk	9619
Ġcategories	9620
Ġfet	9621
Ġfollowers	9622
Ġcream	9623
Story	9624
FO	9625
portation	9626
Ġcontacted	9627
Ms	9628
Ġjudgment	9629
annon	9630
yes	9631
Ġsmile	9632
Ġinfo	9633
Ġemerging	9634
igious	9635
rif	9636
js	9637
onder	9638
omed	9639
bered	9640
vision	9641
ĠEff	9642
vertisements	9643
iffs	9644
Ġaccessible	9645
hatt	9646
Ġcrimin	9647
TP	9648
Ġassigned	9649
Ġphysically	9650
Ġ54	9651
Ġguidelines	9652
Ġdefeated	9653
Ġwounded	9654
Ġstem	9655
Ġtrials	9656
Ġmanaging	9657
Ġspell	9658
Ġministry	9659
Ġgrade	9660
Ġcoinc	9661
Ġriding	9662
Ġcenturies	9663
Ġindicates	9664
Christ	9665
cest	9666
ĠAffairs	9667
Ġopens	9668
aki	9669
Ġpharm	9670
->	9671
Ġmeaningful	9672
Ġtiss	9673
ĠMrs	9674
Ġease	9675
child	9676
Ġmargin	9677
ĠStore	9678
Ġclothing	9679
ĠSix	9680
ĠâĪĴ	9681
ĠTes	9682
ĠCapital	9683
Ġparticipation	9684
cedented	9685
Mus	9686
Ġrevers	9687
aria	9688
Int	9689
Ġpoison	9690
ĠBrexit	9691
Ġ120	9692
ĠYemen	9693
Ġlapt	9694
Ġcompeting	9695
Ġmemories	9696
ĠCS	9697
Ġtheories	9698
Ġrecipe	9699
Ġgross	9700
author	9701
umble	9702
hard	9703
91	9704
Ġpassage	9705
sl	9706
Ġaged	9707
ĠCredit	9708
Ġbin	9709
Ġdrone	9710
Ġblank	9711
Ġdispute	9712
Ġdamaged	9713
Ġ1993	9714
ĠHamilton	9715
base	9716
Ġhosted	9717
Ġsubstance	9718
TER	9719
Google	9720
ĠChelsea	9721
Ġpromoting	9722
Ġfacilit	9723
Ġopenly	9724
ĠInstagram	9725
ĠLam	9726
Ġ1950	9727
ĠVik	9728
View	9729
ĠChildren	9730
ĠCrime	9731
Ġclinical	9732
Out	9733
Ġnic	9734
even	9735
eremy	9736
ĠHold	9737
bits	9738
erent	9739
Ġinvestments	9740
Ġconsensus	9741
ĠFal	9742
igate	9743
ĠLeon	9744
ses	9745
Ġeducational	9746
const	9747
Ġdish	9748
ito	9749
Ġmanifest	9750
Ġcustody	9751
82	9752
week	9753
Ġeligible	9754
ĠHawai	9755
Ġlegally	9756
Ġendorse	9757
Ġmissions	9758
Ġgate	9759
Ġmemo	9760
eria	9761
ĠGT	9762
Ġtables	9763
ĠPict	9764
Ġnin	9765
Ġstudying	9766
Hz	9767
adi	9768
Ġcharity	9769
aration	9770
Ġaddresses	9771
Ġ?	9772
Ġinspect	9773
Ġdiscount	9774
rix	9775
left	9776
Ġbattles	9777
ALL	9778
ĠDer	9779
Ġ250	9780
ĠAssembly	9781
Ġathletes	9782
ĠTrade	9783
Ġfossil	9784
Ġenthusi	9785
ĠManagement	9786
Pre	9787
Ġsuspects	9788
Ġtired	9789
iac	9790
Ġhelic	9791
Act	9792
Ġcounterpart	9793
Ġna	9794
Ġdating	9795
ĠEth	9796
Ġspectrum	9797
ĠMetro	9798
ateral	9799
ĠStation	9800
ĠBal	9801
Ġlux	9802
Ġpresentation	9803
gered	9804
Ġbottle	9805
Ġtap	9806
riors	9807
Ġvig	9808
Ġfundra	9809
Ġenhance	9810
ĠSean	9811
assy	9812
Ġtherapy	9813
ĠWales	9814
ĠExper	9815
Ġperceived	9816
market	9817
ĠTok	9818
Def	9819
math	9820
Ġbacking	9821
ĠFestival	9822
Ġunderlying	9823
Ġdefending	9824
ĠThrough	9825
Ġdiscussing	9826
Ġracing	9827
Ġburden	9828
Ġexpanding	9829
Ġmuscle	9830
Ġstops	9831
Ġdominant	9832
uz	9833
Ġbeings	9834
ĠMarx	9835
ĠEqu	9836
Ġtransaction	9837
achel	9838
ĠUber	9839
Ġ99	9840
Cal	9841
Ġrecruit	9842
itudes	9843
ĠGary	9844
Ġmood	9845
Ġpicking	9846
81	9847
lando	9848
ylum	9849
player	9850
acher	9851
Ġmanagers	9852
orable	9853
Ġgathering	9854
Ġhopefully	9855
angle	9856
ĠSon	9857
ĠMit	9858
alysis	9859
section	9860
ĠVideo	9861
Ġcrus	9862
ĠLibya	9863
Ġimpression	9864
olar	9865
Ġhip	9866
Ã¢	9867
Ġscrut	9868
Ġroy	9869
ĠTai	9870
Ġinstitution	9871
igenous	9872
ĠBatman	9873
}}	9874
Ġstere	9875
ĠBoe	9876
Ġprocedures	9877
ĠAndre	9878
Ã±	9879
Ġpocket	9880
Ġcreatures	9881
sa	9882
Ġcompat	9883
Ġarrival	9884
watch	9885
Ġeager	9886
Ġpollution	9887
iture	9888
Ġfoods	9889
Ġkitchen	9890
ocial	9891
Ġrecre	9892
Ġsurviv	9893
ĠMorgan	9894
roph	9895
Ġorganic	9896
ĠPentagon	9897
Ġshipping	9898
aders	9899
Ġcapitalism	9900
Ġtiming	9901
odox	9902
Ġinsult	9903
Ġrequirement	9904
ĠBi	9905
sub	9906
Ġunfair	9907
ĠOp	9908
Ġ56	9909
Ġmice	9910
ĠAssad	9911
Rem	9912
ĠRepresent	9913
ĠMess	9914
ĠMLS	9915
bing	9916
atively	9917
ĠElizabeth	9918
Ġdiseases	9919
Mod	9920
Ġindustries	9921
ĠOakland	9922
dy	9923
Ġbowl	9924
oln	9925
ĠMurray	9926
ĠCreat	9927
Ġsed	9928
Ġhelicop	9929
Ġdivor	9930
agger	9931
Ġbeach	9932
Ġpunishment	9933
abet	9934
Ġshell	9935
Ġfled	9936
***	9937
Ġhospitals	9938
missions	9939
Ġtons	9940
AF	9941
ĠKick	9942
Ġseed	9943
ogy	9944
ĠComey	9945
Ġterr	9946
opyright	9947
Ġstatist	9948
Ġengineers	9949
Ġhire	9950
Ġobsc	9951
SC	9952
Ġmodule	9953
AY	9954
amous	9955
Ġcoaching	9956
oca	9957
Ġanswered	9958
TR	9959
Ġgraphics	9960
Ġintr	9961
Ġregulatory	9962
Ġsovere	9963
Ġstance	9964
Ġbow	9965
ĠKeep	9966
alties	9967
Click	9968
Ġexplaining	9969
Ġrhetoric	9970
Ġbeating	9971
Ġtut	9972
ĠFriend	9973
ĠEmail	9974
rior	9975
ĠYeah	9976
Ge	9977
Ġacknowledge	9978
ĠMichel	9979
Ġprincipal	9980
Ġpulling	9981
erves	9982
Ġsignature	9983
brid	9984
olving	9985
Ġconvince	9986
een	9987
ĠRoll	9988
Ġvariable	9989
cosystem	9990
Ġpill	9991
Ġsearching	9992
ĠOx	9993
Ġdies	9994
Ġovercome	9995
Ġpreferred	9996
duction	9997
Ġsixth	9998
Ġadviser	9999
