<|endoftext|>	0
!	1
"	2
#	3
$	4
%	5
&	6
'	7
(	8
)	9
*	10
+	11
,	12
-	13
.	14
/	15
0	16
1	17
2	18
3	19
4	20
5	21
6	22
7	23
8	24
9	25
:	26
;	27
<	28
=	29
>	30
?	31
@	32
A	33
B	34
C	35
D	36
E	37
F	38
G	39
H	40
I	41
J	42
K	43
L	44
M	45
N	46
O	47
P	48
Q	49
R	50
S	51
T	52
U	53
V	54
W	55
X	56
Y	57
Z	58
[	59
\	60
]	61
^	62
_	63
`	64
a	65
b	66
c	67
d	68
e	69
f	70
g	71
h	72
i	73
j	74
k	75
l	76
m	77
n	78
o	79
p	80
q	81
r	82
s	83
t	84
u	85
v	86
w	87
x	88
y	89
z	90
{	91
|	92
}	93
~	94
¡	95
¢	96
£	97
¤	98
¥	99
¦	100
§	101
¨	102
©	103
ª	104
«	105
¬	106
®	107
¯	108
°	109
±	110
²	111
³	112
´	113
µ	114
¶	115
·	116
¸	117
¹	118
º	119
»	120
¼	121
½	122
¾	123
¿	124
Â	125
Ã	126
Ä	127
Å	128
Æ	129
Ç	130
È	131
É	132
Ê	133
Ë	134
Ì	135
Í	136
Î	137
Ï	138
Ð	139
Ñ	140
Ò	141
Ó	142
Ô	143
Õ	144
Ö	145
×	146
Ø	147
Ù	148
Ú	149
Û	150
Ü	151
Ý	152
Þ	153
ß	154
à	155
á	156
â	157
ã	158
ä	159
å	160
æ	161
ç	162
è	163
é	164
ê	165
ë	166
ì	167
í	168
î	169
ï	170
ð	171
ñ	172
ò	173
ó	174
ô	175
Ċ	176
Ġ	177
ġ	178
Ģ	179
ģ	180
Ĥ	181
ĥ	182
Ħ	183
ħ	184
Ĩ	185
ĩ	186
Ī	187
ī	188
Ĭ	189
ĭ	190
Į	191
į	192
İ	193
ı	194
Ĳ	195
ĳ	196
Ĵ	197
ĵ	198
Ķ	199
ķ	200
ĸ	201
Ĺ	202
ĺ	203
Ļ	204
ļ	205
Ľ	206
ľ	207
Ŀ	208
ŀ	209
Ł	210
ł	211
Ń	212
Ġt	213
Ġa	214
he	215
in	216
re	217
Ġthe	218
on	219
er	220
Ġs	221
Ġw	222
at	223
Ġo	224
en	225
Ġc	226
it	227
is	228
an	229
or	230
Ġb	231
es	232
ed	233
Ġf	234
ing	235
Ġp	236
ou	237
Ġan	238
al	239
Ġto	240
ar	241
Ġm	242
Ġin	243
Ġof	244
Ġh	245
Ġd	246
âĢ	247
as	248
ic	249
Ġand	250
Ġth	251
le	252
om	253
ion	254
ll	255
ent	256
Ġn	257
Ġl	258
Ġre	259
st	260
ve	261
Ġe	262
ly	263
ro	264
Ġbe	265
Ġg	266
id	267
ut	268
ac	269
ot	270
ĠT	271
ĠI	272
Ġthat	273
Ġon	274
ay	275
ĠS	276
Ġis	277
et	278
im	279
am	280
ad	281
ow	282
se	283
ig	284
Ġfor	285
âĢĻ	286
ĠA	287
ver	288
ur	289
ct	290
ld	291
ĠC	292
Ġu	293
Ġst	294
Ġy	295
Ġit	296
Ġhe	297
ir	298
ation	299
ith	300
Ġwh	301
ĠM	302
ce	303
ter	304
ol	305
Ġwe	306
il	307
Ġwith	308
Ġas	309
ĠB	310
ch	311
ill	312
nd	313
ĠP	314
Ġwas	315
ers	316
Ġyou	317
ke	318
ĠâĢ	319
Ġcon	320
Ġde	321
Ġr	322
her	323
if	324
ate	325
ag	326
Ġat	327
Ġha	328
ĠW	329
Ġse	330
ĠH	331
ore	332
Ġpro	333
ul	334
pp	335
ment	336
ri	337
Ġare	338
ĠD	339
Ġ1	340
us	341
est	342
ist	343
Ġcom	344
and	345
ĠR	346
op	347
ain	348
ĠThe	349
Ġ2	350
igh	351
rom	352
end	353
Ġ(	354
te	355
th	356
od	357
Ġne	358
ĠF	359
um	360
un	361
Ġex	362
res	363
ab	364
âĢĿ	365
Ġnot	366
ĠN	367
Ġv	368
ess	369
Ġhave	370
ity	371
ould	372
Ġor	373
Ġby	374
ort	375
os	376
ĠG	377
ive	378
Ġfrom	379
ant	380
Ġal	381
's	382
oc	383
Ġsu	384
art	385
el	386
ĠL	387
Ġsh	388
Ġthis	389
em	390
qu	391
nt	392
ight	393
pe	394
ust	395
Ġle	396
ies	397
ĠE	398
Ġch	399
Ġsa	400
Ġab	401
The	402
out	403
all	404
ie	405
ack	406
red	407
00	408
ĠâĢľ	409
Ġhas	410
ally	411
ĠJ	412
Ġpl	413
Ġgo	414
ard	415
iv	416
Ġhis	417
ome	418
ap	419
ost	420
gh	421
ear	422
ĠO	423
Ġtr	424
our	425
Ġj	426
ak	427
ud	428
Ġwor	429
ast	430
Ġdo	431
Ġthey	432
Ġbut	433
rou	434
Ġcan	435
ge	436
Ġwill	437
Ġsaid	438
Ġwhe	439
ĠU	440
Ġk	441
ich	442
Ġall	443
ok	444
Ġ"	445
ide	446
Ġwho	447
ame	448
ans	449
ther	450
ial	451
Ġout	452
ff	453
Ġtheir	454
ong	455
pl	456
ice	457
ure	458
one	459
Ġmore	460
age	461
ions	462
act	463
Ġup	464
ike	465
Ġme	466
ous	467
ine	468
Ġad	469
ep	470
Ġabout	471
ated	472
ra	473
ber	474
pt	475
Ġone	476
Ġwere	477
Ġso	478
Ġus	479
ect	480
og	481
ime	482
ĠK	483
ia	484
Ġhad	485
are	486
ub	487
cc	488
Ġwould	489
Ġcl	490
Ġ20	491
Ġim	492
Ġwhich	493
ind	494
xt	495
ue	496
ake	497
iz	498
very	499
Ġag	500
Ġte	501
Ġoff	502
Ġcomp	503
Ġun	504
Ġbeen	505
Ġint	506
so	507
Ġen	508
per	509
ign	510
au	511
Ġcont	512
ĠTh	513
ary	514
Ġyear	515
ip	516
ace	517
ew	518
Ġlike	519
ven	520
ook	521
Ġinc	522
ays	523
Ġman	524
Ġpe	525
ĠIn	526
ry	527
ose	528
Ġres	529
able	530
ite	531
Ġper	532
ass	533
ord	534
Ġsp	535
ire	536
Ġother	537
mer	538
Ġsome	539
ile	540
ib	541
ence	542
ĠSt	543
ople	544
Ġ201	545
ks	546
ations	547
Ġover	548
ical	549
Ġthere	550
ress	551
Ġdis	552
ult	553
Ġnew	554
own	555
Ġalso	556
Ġthan	557
Ġar	558
Ġbec	559
ru	560
Ġthem	561
ance	562
ough	563
Ġapp	564
port	565
ount	566
ail	567
ree	568
int	569
Ġpart	570
Ġyour	571
Ġwhen	572
Ġwhat	573
orm	574
ond	575
Ġpeople	576
fter	577
Ġsc	578
ĠCh	579
av	580
ase	581
Ġqu	582
Ġany	583
Ġjust	584
Ġits	585
ĠY	586
ach	587
ction	588
Ġtime	589
of	590
Ġkn	591
ĠIt	592
Ġher	593
Ġ3	594
ens	595
lic	596
Ġrec	597
reat	598
Ġmy	599
Ġget	600
Ġif	601
ĠV	602
ian	603
.âĢĿ	604
Ġinto	605
ound	606
Ġwork	607
Ġtw	608
irst	609
vel	610
Ġno	611
du	612
ings	613
ere	614
ory	615
ick	616
ors	617
Ġour	618
ition	619
ident	620
ob	621
Ġ-	622
Ġpre	623
ove	624
Ġplay	625
ang	626
ink	627
ause	628
wn	629
text	630
amp	631
ade	632
ates	633
hing	634
ark	635
Ġro	636
Ġpol	637
Ġshe	638
vers	639
Ġco	640
,âĢĿ	641
Ġafter	642
ne	643
Ġfirst	644
Ġcould	645
Ġhow	646
ĠHe	647
Ġ19	648
ious	649
nder	650
ild	651
Ġacc	652
Ġhim	653
aw	654
't	655
ons	656
Ġpo	657
|>	658
<|	659
endof	660
endoftext	661
Ġonly	662
Ġfe	663
ict	664
hed	665
Ġpr	666
rit	667
ov	668
Ġtwo	669
ish	670
Ġcomm	671
âĢľ	672
Ġspe	673
form	674
Ġact	675
erv	676
Ġbl	677
we	678
Ġbet	679
Ġdec	680
."	681
ning	682
Ġback	683
Ġmost	684
ces	685
ft	686
ood	687
ck	688
ĠâĢĵ	689
Ġam	690
oy	691
Ġdid	692
rough	693
iff	694
ater	695
round	696
Ġagain	697
Ġ4	698
ual	699
day	700
ise	701
Ġunder	702
Ġdes	703
Ġwant	704
ull	705
sel	706
Ġcons	707
ĠâĢĶ	708
..	709
Ġbecause	710
Ġnow	711
lud	712
ents	713
man	714
Ġyears	715
tern	716
ublic	717
Ġneed	718
ec	719
Ġeven	720
Ġ$	721
iss	722
Ġinv	723
Ġatt	724
Ġknow	725
ĠWe	726
Ġsee	727
ments	728
ced	729
Ġadd	730
,"	731
old	732
Ġind	733
ting	734
Ġsec	735
fore	736
uch	737
Ġevery	738
urn	739
Ġ5	740
Ġsupp	741
Ġmake	742
pect	743
ĠUn	744
Ġem	745
Ġthese	746
ock	747
In	748
oll	749
Ġwhere	750
ject	751
ational	752
vern	753
Ġbu	754
Ġlook	755
Th	756
ĠAnd	757
oss	758
Ġdon	759
Ġev	760
ump	761
ating	762
Ġway	763
Ġbeing	764
Ġrem	765
ily	766
Ġmay	767
ng	768
row	769
lect	770
iew	771
Ġthen	772
Ġright	773
Ġmany	774
Ġ[	775
Ġdiff	776
Ġdef	777
ason	778
Ġrel	779
Ġcall	780
ĠBut	781
ĠTr	782
les	783
ied	784
ased	785
Ġinclud	786
Ġthink	787
aking	788
Ġreg	789
).	790
ont	791
meric	792
Ġimp	793
Ġthrough	794
ath	795
ited	796
rib	797
Ġsy	798
Ġshould	799
Ġpres	800
Ġsay	801
Ġfl	802
uring	803
Ġlast	804
ty	805
Ġthose	806
ower	807
Ġvery	808
other	809
Ġmuch	810
ities	811
ific	812
Ġstate	813
ĠThis	814
ative	815
Ġshow	816
tle	817
hen	818
Ġbr	819
ss	820
arg	821
Ġwell	822
oth	823
Ġph	824
ĠWh	825
als	826
und	827
Ġcount	828
Ġ200	829
Ġdoes	830
Ġdown	831
Ġown	832
arly	833
Ġend	834
Ġass	835
Ġbel	836
Ġuse	837
ics	838
ange	839
ts	840
--	841
Ġlong	842
ĠAmeric	843
ters	844
ince	845
Ġbefore	846
omet	847
gr	848
Ġmon	849
ward	850
Ġgovern	851
Ġstart	852
Ġreport	853
ible	854
Ġke	855
up	856
ues	857
ĠNew	858
oun	859
Ġfin	860
Ġteam	861
ble	862
Ġmade	863
ife	864
olog	865
ren	866
ener	867
),	868
Ġsuch	869
com	870
erson	871
ix	872
ek	873
Ġsm	874
rest	875
âĢĶ	876
lp	877
ility	878
Ġgoing	879
ism	880
ful	881
Ġworld	882
ually	883
Ġstud	884
ists	885
Ġgood	886
Ġac	887
tain	888
Ġsub	889
Ġeff	890
Ġsur	891
Ġagainst	892
It	893
its	894
Ġgame	895
Ġset	896
ork	897
Ġ6	898
Ġgu	899
Ġpoint	900
Ġent	901
ys	902
000	903
gan	904
ars	905
li	906
stem	907
Ġprov	908
Ġstill	909
roup	910
Ġwhile	911
illion	912
Ġhelp	913
Ġlead	914
ell	915
Ġmin	916
ms	917
ween	918
.<|	919
ax	920
ank	921
alk	922
imes	923
Ġsays	924
Ġob	925
cy	926
Ġprodu	927
ef	928
Ġinte	929
Ġgr	930
Ġinter	931
Ġinst	932
Ġstr	933
cess	934
Ġsim	935
self	936
Ġconf	937
Ġcol	938
Ġtake	939
io	940
ures	941
arch	942
Ġsame	943
Ġthough	944
Ġbetween	945
ollow	946
Ġoffic	947
ever	948
Ġcr	949
land	950
Ġdiffere	951
ool	952
uss	953
ution	954
Ġdisc	955
air	956
Ġop	957
ah	958
Ġed	959
Ġhigh	960
read	961
Ġnum	962
Ġlaw	963
Ġsign	964
way	965
Ġgovernment	966
gg	967
led	968
ĠRe	969
ner	970
hip	971
atch	972
hes	973
ames	974
any	975
Ġter	976
Ġsomet	977
cent	978
ten	979
velop	980
ted	981
We	982
Ġref	983
Ġtrans	984
Ġins	985
Ġrun	986
Ġser	987
Ġfound	988
Ġthree	989
ives	990
ave	991
Ġmem	992
Ġaround	993
Ġhere	994
ather	995
Ġmed	996
Ġreal	997
Ġused	998
ouse	999
Ġ10	1000
ved	1001
Ġexp	1002
az	1003
ĠAr	1004
cept	1005
oot	1006
Ġsystem	1007
ĠYou	1008
ci	1009
Ġreally	1010
Ġmod	1011
ving	1012
con	1013
cer	1014
Ġgroup	1015
Ġsupport	1016
Ġ7	1017
Ġcour	1018
ets	1019
ale	1020
ins	1021
Ġcar	1022
Ġret	1023
Ġhand	1024
Ġpublic	1025
Ġspec	1026
pr	1027
ph	1028
ĠLe	1029
ying	1030
Ġgreat	1031
ense	1032
Ġext	1033
ton	1034
.[	1035
irect	1036
Ġcur	1037
Ġfam	1038
ĠCom	1039
alth	1040
Ġhapp	1041
Ġfact	1042
Ġexper	1043
ĠThey	1044
ĠTrump	1045
Ġfr	1046
Ġwom	1047
ĠIs	1048
Ġcap	1049
Ġboth	1050
Ġday	1051
Ġfind	1052
ĠAl	1053
ular	1054
Ġread	1055
ines	1056
oh	1057
ices	1058
Ġdet	1059
Ġlit	1060
Ġsl	1061
Ġrep	1062
uth	1063
Ġduring	1064
ĠSh	1065
ĠAs	1066
Ġ0	1067
Ġserv	1068
the	1069
min	1070
Ġmonth	1071
ision	1072
Ġdevelop	1073
Ġbig	1074
Ġ8	1075
Ġperson	1076
akes	1077
Ġfollow	1078
Ġcre	1079
ĠCl	1080
Ġiss	1081
Ġtold	1082
Ġsince	1083
ared	1084
med	1085
ically	1086
Ġweek	1087
ages	1088
ivers	1089
Ġwar	1090
Ġfew	1091
ording	1092
Ġcent	1093
Ġleg	1094
aj	1095
ex	1096
get	1097
Ġpolit	1098
ves	1099
ash	1100
Ġexpl	1101
ered	1102
Ġlot	1103
ric	1104
Ġbelie	1105
Ġgener	1106
Ġtoo	1107
Ġ9	1108
der	1109
ata	1110
rent	1111
Ġopp	1112
Wh	1113
Ġrequ	1114
Ġcontin	1115
iet	1116
bers	1117
anc	1118
Ġfil	1119
Ġcor	1120
ention	1121
ness	1122
Ġcle	1123
Ġresp	1124
Ġput	1125
ized	1126
ĠIf	1127
Ġanother	1128
20	1129
chool	1130
Ġinf	1131
Ġsomething	1132
Ġdifferent	1133
Ġloc	1134
ĠDe	1135
ute	1136
Ġinvest	1137
Ġsoc	1138
Ġpower	1139
Ġche	1140
uc	1141
Ġ'	1142
Ġpass	1143
Ġcommun	1144
Ġlife	1145
ĠFr	1146
Ġplan	1147
ody	1148
Ġrele	1149
ience	1150
Ġhead	1151
Ġthings	1152
ned	1153
thing	1154
Ġfar	1155
ox	1156
Ġart	1157
Ġposs	1158
Ġmet	1159
Ġcamp	1160
ross	1161
arge	1162
Ġvot	1163
ier	1164
This	1165
view	1166
Ġchild	1167
ants	1168
Ġask	1169
Ġmight	1170
Ġeach	1171
ize	1172
Ġdep	1173
iness	1174
Ġ.	1175
Ġnever	1176
Ġnext	1177
ĠFor	1178
ik	1179
ĠAn	1180
ield	1181
Ġsecond	1182
Ġmark	1183
Ġquest	1184
Ġbus	1185
Ġadv	1186
Ġdem	1187
Ġcome	1188
Ġgot	1189
ĠâĢĺ	1190
ret	1191
Ġopen	1192
Ġbest	1193
ient	1194
ital	1195
Ġallow	1196
ĠThat	1197
rat	1198
Ġseem	1199
Ġpost	1200
ple	1201
tem	1202
nce	1203
Ġfeel	1204
ĠPro	1205
ĠUS	1206
ug	1207
Ġpri	1208
gram	1209
Ġpercent	1210
cl	1211
Ġhome	1212
Ġdist	1213
Ġdirect	1214
ired	1215
Ġincre	1216
Ġcontro	1217
ĠRep	1218
son	1219
less	1220
orn	1221
osed	1222
Ġresult	1223
Ġhard	1224
Ġcare	1225
ately	1226
Ġmillion	1227
chn	1228
Ġcomple	1229
Ġplace	1230
Ġwithout	1231
Ġinform	1232
Ġincluding	1233
Ġimport	1234
Ġav	1235
conom	1236
Ġhum	1237
Ġide	1238
Ġproble	1239
Ġbuild	1240
Ġtop	1241
ama	1242
Ġnumber	1243
Ġcountry	1244
gy	1245
oney	1246
aim	1247
ĠBl	1248
ral	1249
tt	1250
ably	1251
uro	1252
Ġstand	1253
Ġgl	1254
Ġel	1255
riend	1256
Ġfour	1257
ished	1258
ways	1259
Ġpartic	1260
Ġbetter	1261
Ġtri	1262
But	1263
Ġrecent	1264
co	1265
Ġinterest	1266
Ġmov	1267
Ġlet	1268
ration	1269
Ġseason	1270
Ġless	1271
Ġturn	1272
Ġlittle	1273
Ġbeh	1274
Ġmil	1275
ead	1276
Ġappro	1277
ract	1278
line	1279
Ġbro	1280
ling	1281
ised	1282
Ġcalled	1283
app	1284
10	1285
Ġcase	1286
Ġdr	1287
ĠInd	1288
Ġrest	1289
Ġleft	1290
Ġpop	1291
Ġann	1292
ĠZ	1293
ency	1294
Ġmove	1295
ode	1296
ina	1297
Ġattack	1298
ĠThere	1299
Ġkeep	1300
Ġfull	1301
ering	1302
Ġdidn	1303
be	1304
Ġfun	1305
Ġmain	1306
ajor	1307
__	1308
Ġeffect	1309
inal	1310
me	1311
leg	1312
Ġprev	1313
Ġprogram	1314
Ġusing	1315
to	1316
Ġtest	1317
Ġpay	1318
ature	1319
Ġear	1320
Ġval	1321
Ġpolice	1322
Ġwrit	1323
Ġform	1324
Ġeconom	1325
Ġdata	1326
Ġnews	1327
Ġpos	1328
Ġwin	1329
Ġchar	1330
ĠAmerican	1331
Ġlevel	1332
Ġsit	1333
ains	1334
iving	1335
uck	1336
Ġsmall	1337
ined	1338
ready	1339
He	1340
Ġschool	1341
Ġlist	1342
ology	1343
rap	1344
mit	1345
ided	1346
ploy	1347
're	1348
ger	1349
Ġeas	1350
Ġprocess	1351
ird	1352
Ġchange	1353
orth	1354
Ġwomen	1355
Ġcurrent	1356
Ġrece	1357
Ġprom	1358
Ġhist	1359
Ġdri	1360
Ġ=	1361
ians	1362
reen	1363
Ġpresident	1364
Ġcompany	1365
used	1366
Ġmat	1367
ruct	1368
Ġalready	1369
ohn	1370
ĠUnited	1371
wit	1372
Ġty	1373
Ġwhy	1374
Ġbre	1375
Ġunt	1376
Ġmoney	1377
Ġsol	1378
Ġalways	1379
Ġlater	1380
Ġexpect	1381
Ġtechn	1382
Ġbusiness	1383
ĠHow	1384
Ġofficial	1385
ron	1386
ĠQ	1387
ĠOb	1388
stand	1389
iversity	1390
Ġbook	1391
Ġbo	1392
ĠPh	1393
aign	1394
Ġthing	1395
Ġclass	1396
Ġproject	1397
ases	1398
Ġclaim	1399
Ġjob	1400
Ġinformation	1401
Ġorgan	1402
aff	1403
ĠShe	1404
Ġtalk	1405
ards	1406
ĠBe	1407
Ġdesign	1408
Ġstory	1409
Ġchang	1410
Ġmajor	1411
Ġable	1412
Ġprof	1413
Ġ--	1414
lection	1415
iven	1416
ertain	1417
Ġrese	1418
Ġhealth	1419
Ġvis	1420
urs	1421
Ġfree	1422
outh	1423
here	1424
ĠAd	1425
Ġoper	1426
ĠSo	1427
Ġaway	1428
ior	1429
ĠCan	1430
Ġmust	1431
Ġcity	1432
ample	1433
...	1434
rist	1435
sc	1436
ural	1437
Ġhappen	1438
uthor	1439
Ġ18	1440
acy	1441
urity	1442
Ġimportant	1443
Ġkill	1444
Ġsk	1445
ption	1446
Ġest	1447
ured	1448
Ġold	1449
Ġpast	1450
Ġpat	1451
ĠSe	1452
ury	1453
ending	1454
Ġdoesn	1455
ission	1456
Ġleast	1457
Ġgrow	1458
Ġedit	1459
Ġvar	1460
ained	1461
Ġcost	1462
ney	1463
ider	1464
ĠGo	1465
ides	1466
Ġdays	1467
Ġtell	1468
Ġhop	1469
Ġcampaign	1470
side	1471
Ġstre	1472
Ġ12	1473
Ġmen	1474
Ġcame	1475
Ġaff	1476
ĠMar	1477
Ġconst	1478
resident	1479
Ġenough	1480
Ġview	1481
ccess	1482
Ġkind	1483
ĠSp	1484
oad	1485
ern	1486
Ġmaking	1487
els	1488
Ġlarge	1489
Ġrecord	1490
50	1491
ush	1492
Ġmar	1493
Ġfriend	1494
Ġfamily	1495
âĢ¦	1496
ley	1497
Ġelect	1498
eral	1499
Ġpolic	1500
Ġtax	1501
ising	1502
by	1503
pped	1504
ality	1505
ator	1506
ified	1507
As	1508
ived	1509
ror	1510
Ġuntil	1511
arent	1512
ional	1513
Ġpolitical	1514
Ġvide	1515
Ġdeal	1516
ries	1517
alf	1518
augh	1519
Ġve	1520
Ġworking	1521
ued	1522
ĠRepublic	1523
Ġtook	1524
Ġdeb	1525
bs	1526
If	1527
ister	1528
Ġline	1529
ĠJohn	1530
aining	1531
Ġair	1532
----	1533
Ġes	1534
ane	1535
Ġintern	1536
Ġfore	1537
iol	1538
ocrat	1539
Ġbecome	1540
Ġactually	1541
aps	1542
ony	1543
Ġmean	1544
work	1545
ĠSc	1546
Ġfund	1547
ware	1548
19	1549
ĠPl	1550
St	1551
Ġformer	1552
Ġoften	1553
ĠEuro	1554
ann	1555
ott	1556
Ġwon	1557
Ġgive	1558
Ġaccording	1559
Ġever	1560
most	1561
eng	1562
year	1563
Ġprote	1564
wh	1565
aring	1566
Ġgames	1567
ison	1568
Ġhuman	1569
Ġbas	1570
Ġword	1571
ization	1572
Ġreturn	1573
Ġtimes	1574
Ġorder	1575
ĠRuss	1576
Ġbit	1577
ĠDem	1578
Ġname	1579
oint	1580
11	1581
gin	1582
Ġsever	1583
ĠCon	1584
ĠAll	1585
Ġpar	1586
Ġdev	1587
icle	1588
for	1589
uture	1590
ither	1591
iqu	1592
Ġ199	1593
ĠMc	1594
ĠAt	1595
Ġwr	1596
raft	1597
Ġsing	1598
Ġperform	1599
ĠSy	1600
idd	1601
Ġmarket	1602
Ġfac	1603
Ġcharac	1604
There	1605
ĠOr	1606
ĠMay	1607
Ġra	1608
Ġdoing	1609
Ġappear	1610
ER	1611
ched	1612
Ġplayers	1613
Ġla	1614
Ġnight	1615
Ġlear	1616
aken	1617
rop	1618
ats	1619
mber	1620
Ġtoday	1621
Ġearly	1622
Ġ15	1623
Ġseen	1624
//	1625
Ġhaving	1626
Ġ,	1627
Ġpot	1628
Ġchildren	1629
Ġevent	1630
Ġmedia	1631
Ġsocial	1632
Ġcrit	1633
ĠPresident	1634
Ġwhether	1635
Ġseveral	1636
Ġcontrol	1637
idence	1638
ene	1639
Ġmeet	1640
sh	1641
Ġmilit	1642
Ġpress	1643
Ġwent	1644
artment	1645
Ġfive	1646
Ġyoung	1647
ories	1648
Ġprop	1649
iously	1650
Ġsure	1651
Ġequ	1652
Ġquestion	1653
Ġocc	1654
une	1655
Ġlikely	1656
vert	1657
Ġmembers	1658
br	1659
Ġcertain	1660
ium	1661
ands	1662
Ġeng	1663
Ġwater	1664
ĠYork	1665
Ġexample	1666
ots	1667
ĠCol	1668
Ġside	1669
Ġarg	1670
Ġdone	1671
enn	1672
Ġvers	1673
Ġant	1674
Ġinvol	1675
ĠMr	1676
ĠStates	1677
ĠEurope	1678
ended	1679
let	1680
Ġalong	1681
Ġshort	1682
Ġsuccess	1683
ee	1684
ential	1685
Ġmonths	1686
ball	1687
Ġhour	1688
Ġ11	1689
ĠSte	1690
iver	1691
ially	1692
And	1693
Ġsex	1694
lf	1695
Ġwithin	1696
Ġdesc	1697
imate	1698
Ġcourse	1699
Ġfight	1700
urch	1701
ubl	1702
Ġamong	1703
Ġactiv	1704
uff	1705
âĢĵ	1706
ague	1707
Ġonce	1708
ster	1709
Ġfuture	1710
Ġinvestig	1711
ulation	1712
rew	1713
Ġpossible	1714
ĠObama	1715
Ġcho	1716
nect	1717
ĠCar	1718
Ġunderstand	1719
iting	1720
Ġconcer	1721
ĠOn	1722
Ġ]	1723
ones	1724
ortun	1725
Ġproblem	1726
ĠBr	1727
Ġpriv	1728
Ġmeans	1729
Ġviol	1730
Ġauthor	1731
itive	1732
ggest	1733
ĠNo	1734
Ġavail	1735
oci	1736
ourn	1737
my	1738
Ġknown	1739
Ġproduct	1740
Ġnon	1741
ivid	1742
Ġthought	1743
Ġyet	1744
gress	1745
Ġacross	1746
Ġlocal	1747
ald	1748
ler	1749
Ġhold	1750
ĠTe	1751
Ġfail	1752
ĠWhen	1753
ĠState	1754
inc	1755
Ġcommunity	1756
Ġreason	1757
Ġorig	1758
Ġsuggest	1759
Ġ&	1760
12	1761
Ġmakes	1762
verage	1763
por	1764
not	1765
back	1766
Ġ2016	1767
Ġi	1768
book	1769
Ġasked	1770
ederal	1771
orld	1772
Ġreported	1773
You	1774
aged	1775
ensive	1776
Ġgiven	1777
Ġstrong	1778
Ġprob	1779
Ġmus	1780
Ġothers	1781
Ġbelieve	1782
Ġvideo	1783
iber	1784
Ġben	1785
Ġgetting	1786
ĠHouse	1787
ances	1788
Ġannoun	1789
Ġlight	1790
ored	1791
ober	1792
ĠUniversity	1793
Ġ30	1794
itions	1795
Ġident	1796
iron	1797
Ġsent	1798
Ġcut	1799
Ġlim	1800
Ġca	1801
ĠChrist	1802
ĠCo	1803
iety	1804
30	1805
urther	1806
Ġsour	1807
Ġcreat	1808
Ġcond	1809
ĠX	1810
ams	1811
've	1812
Ġnet	1813
ashing	1814
Ġbat	1815
ament	1816
Ġnational	1817
.,	1818
Ġclose	1819
Ġstarted	1820
Ġsaf	1821
Ġdeath	1822
aster	1823
Ġavailable	1824
arm	1825
For	1826
Ġhig	1827
Ġbased	1828
Ġissue	1829
Ġindust	1830
ĠMin	1831
ĠDemocrat	1832
Ġlow	1833
Ġfollowing	1834
resent	1835
Ġaccount	1836
Ġland	1837
use	1838
ĠCent	1839
Ġemploy	1840
Ġlove	1841
Ġ2015	1842
Ġ#	1843
Ġhistory	1844
Ġago	1845
orts	1846
selves	1847
Ġmom	1848
Ġparty	1849
ability	1850
Ġseries	1851
Ġcomes	1852
Ġtrying	1853
uly	1854
utes	1855
Ġalmost	1856
ĠAm	1857
gether	1858
ument	1859
Ġtogether	1860
ination	1861
AT	1862
ĠAmerica	1863
Ġidea	1864
pro	1865
ief	1866
Ġaccess	1867
Ġfoc	1868
eb	1869
hers	1870
ilar	1871
ĠFl	1872
reed	1873
ails	1874
Ġcommit	1875
itional	1876
Ġisn	1877
ĠSen	1878
Ġclear	1879
Ġ16	1880
ĠOne	1881
Ġtrad	1882
though	1883
ring	1884
ĠWhat	1885
Ġpract	1886
Ġadded	1887
Ġimpro	1888
Ġexperience	1889
erence	1890
Ġfilm	1891
15	1892
Ġhalf	1893
ustom	1894
ged	1895
Ġhit	1896
af	1897
ĠBro	1898
witter	1899
rict	1900
Ġanal	1901
Ġprot	1902
inton	1903
ograp	1904
unch	1905
Ġ2014	1906
Ġrul	1907
ividual	1908
Ġlooking	1909
Ġsix	1910
Ġlive	1911
Ġanything	1912
Ġarea	1913
Ġcomplete	1914
erman	1915
minist	1916
Ġmiss	1917
rael	1918
ĠComm	1919
Ġfav	1920
ĠEx	1921
tempt	1922
Ġris	1923
ai	1924
nes	1925
Ġpresent	1926
ote	1927
rug	1928
Ġsaying	1929
raw	1930
aid	1931
ĠCanad	1932
Ġvict	1933
IN	1934
cially	1935
Ġbad	1936
ows	1937
uge	1938
Ġtaken	1939
Ġentire	1940
ert	1941
oto	1942
ĠPr	1943
ators	1944
Ġmor	1945
Ġbill	1946
Ġcompet	1947
ĠEng	1948
Ġbehind	1949
ien	1950
Ġaut	1951
'm	1952
ĠTo	1953
Ġcourt	1954
play	1955
Ġtry	1956
Ġtre	1957
wards	1958
Ġmilitary	1959
Ġz	1960
Ġnear	1961
osp	1962
What	1963
Ġface	1964
Ġmult	1965
Ġ14	1966
Ġsecurity	1967
Ġer	1968
ĠPol	1969
ps	1970
ev	1971
Ġproper	1972
Ġdiscuss	1973
Ġthreat	1974
Ġstudy	1975
Ġsingle	1976
Ġrather	1977
Ġindividual	1978
ĠAf	1979
ĠWar	1980
ĠBrit	1981
Ġsw	1982
ĠÂ	1983
Ġquick	1984
Ġtot	1985
ĠDon	1986
An	1987
Ġmind	1988
ĠSec	1989
lement	1990
ales	1991
amed	1992
atic	1993
ĠNorth	1994
aper	1995
Ġpubl	1996
par	1997
Ġpolicy	1998
Ġmess	1999
ris	2000
Ġblack	2001
Ġwanted	2002
Ġfall	2003
irc	2004
**	2005
off	2006
Ġfood	2007
Ġsum	2008
Ġsomeone	2009
lling	2010
ids	2011
On	2012
ĠDep	2013
ĠMan	2014
Ġ/	2015
Ġcult	2016
Ġspecial	2017
Ġcomb	2018
Ġkey	2019
Ġplayer	2020
Ġredu	2021
Ġ|	2022
ĠGr	2023
Ġbring	2024
Ġ13	2025
Ġcompan	2026
Ġ17	2027
ply	2028
rote	2029
Ġattempt	2030
ĠBar	2031
ĠNational	2032
Ġtaking	2033
When	2034
yn	2035
ON	2036
ify	2037
olution	2038
Ġ:	2039
viron	2040
Ġfoot	2041
ĠCal	2042
://	2043
Ġelse	2044
Ġpret	2045
Ġbody	2046
Ġspace	2047
over	2048
dd	2049
Ġcoun	2050
elt	2051
Ġprobably	2052
16	2053
icult	2054
.)	2055
Ġfront	2056
Ġcou	2057
Ġnothing	2058
ashington	2059
ĠIm	2060
Ġconnect	2061
ches	2062
ĠWorld	2063
Ġresearch	2064
14	2065
ming	2066
ĠClinton	2067
ĠCity	2068
Ġcoming	2069
Ġpoints	2070
ĠIsrael	2071
RE	2072
Ġhowever	2073
Ġdescrib	2074
go	2075
Ġjo	2076
Ġsignific	2077
Ġsimilar	2078
lier	2079
reme	2080
cing	2081
Ġbenef	2082
ĠAust	2083
Ġdecision	2084
Ġeither	2085
aces	2086
ĠHar	2087
ault	2088
Ġmass	2089
mb	2090
Ġsus	2091
Ġtarg	2092
ully	2093
sy	2094
ana	2095
Ġfeat	2096
That	2097
Ġimm	2098
Ġconv	2099
Ġexist	2100
irl	2101
Ġenc	2102
Ġ2013	2103
Ġrights	2104
Ġservice	2105
ĠSu	2106
asing	2107
ung	2108
IS	2109
oon	2110
Ġfire	2111
Ġdoc	2112
Ġwrote	2113
Ġfurther	2114
Ġhouse	2115
rodu	2116
Ġban	2117
ww	2118
Ġfig	2119
Ġchall	2120
Ġthird	2121
Ġprotect	2122
Ġwa	2123
Ġcreate	2124
sw	2125
Ġstop	2126
Ġfield	2127
now	2128
Ġpick	2129
AN	2130
ape	2131
ively	2132
Ġmeas	2133
Ġrepl	2134
Ġcompl	2135
ĠWith	2136
Ġissues	2137
pping	2138
Ġbegin	2139
Ġsuper	2140
amer	2141
Ġstep	2142
ried	2143
ently	2144
Ġwhole	2145
Ġrelations	2146
Ġseems	2147
Ġ)	2148
Ġtem	2149
Ġcompanies	2150
pecially	2151
Ġdue	2152
Ġexec	2153
Ġcand	2154
Ġeverything	2155
Ġfederal	2156
Ġstates	2157
ĠGu	2158
Ġey	2159
Ġroom	2160
aul	2161
Ġtra	2162
Ġwatch	2163
ĠGe	2164
Ġcustom	2165
Ġleaders	2166
ran	2167
13	2168
uation	2169
ĠHowever	2170
pite	2171
ĠJan	2172
ĠWashington	2173
Ch	2174
lam	2175
Ġself	2176
Ġrole	2177
ilt	2178
Ġsound	2179
Ġlab	2180
head	2181
Ġdam	2182
ivil	2183
Ġofficials	2184
Ġstri	2185
So	2186
lu	2187
Ġ2012	2188
iday	2189
ibility	2190
Ġreleased	2191
ĠInst	2192
Ġbegan	2193
ĠDav	2194
ĠApp	2195
ĠSouth	2196
Ġopt	2197
obal	2198
Ġstudents	2199
Ġtreat	2200
eal	2201
Ġfinal	2202
Ġcharacter	2203
Ġposition	2204
Ġmatter	2205
Ã©	2206
ender	2207
Ġener	2208
lim	2209
Ġdou	2210
Ġoutside	2211
ery	2212
sec	2213
ades	2214
vironment	2215
Ġdevelopment	2216
Ġstatement	2217
Ġhimself	2218
Ġ2017	2219
Ġstat	2220
Ġabove	2221
like	2222
Ġinit	2223
Ġbreak	2224
Ġ100	2225
Ġamount	2226
Ġprovide	2227
att	2228
Ġhours	2229
Ġitself	2230
Ġthemselves	2231
Ġoffice	2232
Ġrepresent	2233
Ġaction	2234
Ġdi	2235
Ġbecame	2236
Ġ198	2237
Ġgeneral	2238
Ġcontinue	2239
ĠPart	2240
Ġcountries	2241
ĠIntern	2242
Ġneg	2243
iod	2244
Ġaddress	2245
tee	2246
Ġ25	2247
Ġgun	2248
aced	2249
ask	2250
Ġtrue	2251
Ġspecific	2252
ograph	2253
umb	2254
arter	2255
reg	2256
Ġlarg	2257
Ġsignificant	2258
lish	2259
Ġsimply	2260
ĠAss	2261
ĠRes	2262
Ġwasn	2263
'll	2264
Ġinterview	2265
acebook	2266
ili	2267
Ġground	2268
Ġrad	2269
oid	2270
ogn	2271
Ġdifficult	2272
Ġrunning	2273
ĠJust	2274
Ġevidence	2275
Ġadminist	2276
BC	2277
Ġcop	2278
17	2279
ream	2280
Ġdrug	2281
Ġversion	2282
Ġbar	2283
ogle	2284
ĠEd	2285
Ġagree	2286
iddle	2287
eks	2288
Ġbuilding	2289
ĠChina	2290
Ġneeds	2291
Ġprofess	2292
angu	2293
Ġgroups	2294
Ġtyp	2295
Ġrespons	2296
Ġcommon	2297
Ġshows	2298
Ġeveryone	2299
Ġdom	2300
Ġdest	2301
Ġneeded	2302
Ġball	2303
Ġwoman	2304
ĠGerman	2305
Ġlat	2306
Ġbelow	2307
right	2308
ĠSep	2309
light	2310
ournal	2311
Ġmusic	2312
Ġexc	2313
Ġrelease	2314
ift	2315
Ġinj	2316
Ġpretty	2317
ĠMed	2318
ĠAb	2319
AR	2320
ribut	2321
Ġinclude	2322
Ġsaw	2323
Ġdeep	2324
body	2325
Ġap	2326
18	2327
Ġplayed	2328
Ġquite	2329
Ġindustry	2330
Ġcharg	2331
Ġmag	2332
Ġenergy	2333
Ġplaying	2334
Ġmot	2335
Ġ50	2336
Ġcandid	2337
Ġsense	2338
Ġphys	2339
Ġlate	2340
Ġalleg	2341
Ġwhite	2342
ĠHis	2343
ival	2344
Ġfriends	2345
Ġgen	2346
Ġlegal	2347
atur	2348
Ġanim	2349
isc	2350
bo	2351
yle	2352
ĠAfter	2353
How	2354
AS	2355
where	2356
Ġabs	2357
lev	2358
Ġinstead	2359
Ġred	2360
Ġbillion	2361
Ġlost	2362
Ġespecially	2363
Ġvalue	2364
ĠMus	2365
ĠWest	2366
Ġhost	2367
Ġhom	2368
time	2369
osing	2370
oring	2371
ĠNews	2372
ager	2373
Ġple	2374
istic	2375
Ġweeks	2376
epend	2377
ĠNot	2378
ccording	2379
omm	2380
Ġforward	2381
ique	2382
Ġdeter	2383
Ġelection	2384
Ġrecently	2385
Ġjud	2386
Ġtrack	2387
Ġsuff	2388
Ġvote	2389
lt	2390
ĠTwitter	2391
Ġobject	2392
medi	2393
Ġperiod	2394
Ġchanges	2395
Ġopportun	2396
ĠWhite	2397
ĠOct	2398
Ġlonger	2399
irt	2400
arc	2401
oke	2402
Ġpain	2403
Ġsoon	2404
Ġsite	2405
Ġ{	2406
Ġep	2407
hod	2408
ript	2409
ached	2410
Ġaccept	2411
ĠCong	2412
____	2413
Ġshoot	2414
Ġeconomic	2415
Ġhope	2416
irm	2417
oe	2418
Ġmoment	2419
Ġdecl	2420
lege	2421
Ġconsum	2422
ĠWill	2423
Ġpie	2424
Ġtit	2425
Ġcheck	2426
oph	2427
Ġpotential	2428
Ġblock	2429
ĠMarch	2430
ij	2431
ole	2432
Ġwrong	2433
duct	2434
ners	2435
ĠDepartment	2436
Ġhigher	2437
onse	2438
Ġcred	2439
Ġonline	2440
Ġfocus	2441
Ġ24	2442
Ġconsider	2443
key	2444
Ġeduc	2445
ancial	2446
ĠMy	2447
ns	2448
iding	2449
Ġcirc	2450
Ġworks	2451
Ġrelig	2452
Ġshare	2453
Ġparent	2454
cial	2455
Ġheld	2456
25	2457
Ġpred	2458
ĠDr	2459
Ġwalk	2460
Ġwebs	2461
Ġled	2462
Ġlo	2463
ularly	2464
==	2465
Ġreve	2466
lear	2467
Ġstay	2468
ĠThese	2469
overed	2470
Ġstru	2471
Ġgoal	2472
ĠRepublican	2473
Ġrisk	2474
Ġwords	2475
ĠAug	2476
Ġrev	2477
Ġsold	2478
Ġreview	2479
icro	2480
Ġcontract	2481
Ġresults	2482
Ġservices	2483
Ġlaws	2484
They	2485
Ġcode	2486
cil	2487
ĠMich	2488
Ġwind	2489
Ġfunction	2490
Ġaud	2491
ĠSyri	2492
Ġce	2493
put	2494
Ġtotal	2495
aut	2496
fect	2497
Ġarticle	2498
Ġage	2499
Ġapplic	2500
Ġminutes	2501
urd	2502
ĠMe	2503
Ġpersonal	2504
ilities	2505
Ġanyone	2506
uary	2507
ients	2508
itution	2509
ĠJune	2510
asons	2511
Ad	2512
ateg	2513
Ġprim	2514
anger	2515
Ġtarget	2516
Ġden	2517
Ġearlier	2518
ule	2519
Ġfavor	2520
Ġexpress	2521
haps	2522
Ġdead	2523
fer	2524
Ġansw	2525
che	2526
Ġupd	2527
Ġpopular	2528
Ġcomput	2529
Ġvol	2530
pril	2531
Ġnecess	2532
ham	2533
Ġhy	2534
Ġrate	2535
ES	2536
aging	2537
Ġtechnology	2538
apan	2539
Ġrespect	2540
val	2541
ĠPe	2542
Ġenvironment	2543
Ġ2011	2544
Ph	2545
Ġreceived	2546
ĠNe	2547
Ġexpected	2548
ĠPar	2549
ember	2550
ude	2551
ends	2552
Ġbase	2553
Ġcreated	2554
Ġsurpr	2555
Ġanti	2556
ĠSm	2557
ĠJuly	2558
alt	2559
eter	2560
Ġproblems	2561
uel	2562
Ġways	2563
iple	2564
Ġport	2565
action	2566
Ġprivate	2567
ĠDo	2568
Ġscient	2569
Ġincrease	2570
ray	2571
reet	2572
Ġannounced	2573
Ġcomment	2574
isl	2575
Ġcannot	2576
Ġeasy	2577
Al	2578
Ġshot	2579
ĠCongress	2580
Ġquestions	2581
ĠEn	2582
bit	2583
Ġforce	2584
aterial	2585
hern	2586
Ġimpact	2587
Ġet	2588
ĠMond	2589
na	2590
ples	2591
Ġpack	2592
Ġ+	2593
ĠFacebook	2594
Ġpur	2595
Ġlangu	2596
atives	2597
ĠGod	2598
ctor	2599
Ġinvolved	2600
omb	2601
aving	2602
ills	2603
60	2604
lex	2605
hood	2606
onst	2607
ĠAustral	2608
Ġdiv	2609
uesday	2610
Ġexecut	2611
Ġmodel	2612
itiz	2613
Ġsen	2614
Ġspeak	2615
Ġstaff	2616
Ġexact	2617
Ġcivil	2618
ires	2619
Ġnearly	2620
Ġtype	2621
ourt	2622
okes	2623
Ġoriginal	2624
Ġcases	2625
Ġcontent	2626
Ġ197	2627
Ġrelationship	2628
Ġterror	2629
ĠGoogle	2630
To	2631
Ġleave	2632
ĠFriday	2633
Ġresponse	2634
Ġcapt	2635
Ġinside	2636
Ġ<	2637
rem	2638
Ġphot	2639
At	2640
lled	2641
Ġfans	2642
llig	2643
ĠApril	2644
ĠRed	2645
Ġinternational	2646
Ġcoll	2647
Ġheart	2648
Ġaverage	2649
Ġbroad	2650
Ġarrest	2651
Ġusers	2652
ĠCount	2653
cast	2654
Ġcal	2655
rel	2656
Ġcell	2657
Ġworth	2658
Ġsoft	2659
Ġur	2660
Ġliving	2661
ĠEm	2662
bor	2663
ips	2664
Ġnation	2665
ky	2666
Ġkilled	2667
Ġreports	2668
Ġ2010	2669
ãģ	2670
ging	2671
Ġbecom	2672
Ġsource	2673
ĠMonday	2674
ĠTuesday	2675
Ġsubject	2676
ech	2677
Ġworked	2678
atural	2679
ests	2680
Ġestab	2681
Ġimmedi	2682
EN	2683
Ġrespond	2684
Ġglobal	2685
Ġassoci	2686
joy	2687
tember	2688
Ġclub	2689
ops	2690
ĠAmericans	2691
ael	2692
Ġobs	2693
ites	2694
ĠPer	2695
ĠPal	2696
Ġchance	2697
Ġoil	2698
ĠAct	2699
Ġability	2700
Ġtakes	2701
rought	2702
Ġweap	2703
hel	2704
Ġprice	2705
ĠJapan	2706
ological	2707
Ġdirector	2708
izing	2709
Ġworkers	2710
Ġterms	2711
Ġtou	2712
Ġroad	2713
mon	2714
Ġpublished	2715
Ġdel	2716
ĠWhile	2717
Ġphone	2718
rain	2719
Ġcollect	2720
Ġfinancial	2721
Ġmid	2722
osition	2723
Ġdecided	2724
ises	2725
OR	2726
ĠRussia	2727
ĠSome	2728
ĠWed	2729
Ġmother	2730
Ġsqu	2731
Ġdefin	2732
Ġlack	2733
ovember	2734
Ġ40	2735
Ġgirl	2736
Ġstore	2737
Ġgave	2738
Ġbuy	2739
Ġinflu	2740
ĠCalif	2741
Ġlog	2742
Ġhappened	2743
ino	2744
Ġrequire	2745
ĠNow	2746
Ġemer	2747
Ġfem	2748
ĠSan	2749
Ġcapital	2750
clus	2751
Ġforeign	2752
Ġcurrently	2753
ĠOff	2754
based	2755
Ġgoes	2756
ĠBy	2757
oved	2758
ĠGeor	2759
vertise	2760
Ġsituation	2761
ĠCor	2762
Ġindic	2763
Ġoffer	2764
Ġwhose	2765
Ġ@	2766
Ġtal	2767
Ġmaterial	2768
Ġlives	2769
Ġaffect	2770
rown	2771
ought	2772
Ġplans	2773
nesday	2774
unt	2775
ese	2776
Ġarri	2777
Ġmember	2778
Ġpict	2779
ursday	2780
ĠFeb	2781
Ġparticip	2782
ruction	2783
Ġrecogn	2784
Ġturned	2785
Ġmethod	2786
Ġevents	2787
ĠJanuary	2788
ĠHill	2789
".	2790
Ġnetwork	2791
One	2792
ctions	2793
Ġteams	2794
ĠSund	2795
fully	2796
Ġbank	2797
Ġmeeting	2798
40	2799
Ġnorm	2800
Ġintrodu	2801
Ġsimple	2802
ĠIslam	2803
Ġill	2804
ĠAg	2805
Ġhuge	2806
ĠSeptember	2807
oud	2808
Ġregard	2809
Ġareas	2810
Ġcy	2811
order	2812
ĠTV	2813
Ġcouple	2814
Ġapproach	2815
Ġcareer	2816
aur	2817
ĠAfric	2818
ĠGl	2819
load	2820
ttp	2821
",	2822
Ġdeli	2823
Ġrace	2824
lin	2825
Ġperformance	2826
Ġpage	2827
ety	2828
apt	2829
ĠNovember	2830
Ġtool	2831
ĠDavid	2832
Ġfelt	2833
Ġquickly	2834
Ġmis	2835
Ġnumbers	2836
oor	2837
Ġemail	2838
Ġ21	2839
aily	2840
Ġord	2841
ĠEl	2842
istan	2843
ees	2844
Ġadministration	2845
Ġhon	2846
ĠWednesday	2847
Ġvictim	2848
ĠPaul	2849
Ġvia	2850
Ġimprove	2851
Ġengine	2852
Ġtext	2853
chie	2854
--------	2855
Ġfre	2856
Ġpull	2857
ĠAng	2858
Ġround	2859
bl	2860
Ġbuilt	2861
Ġ22	2862
Ġpers	2863
ĠEuropean	2864
Ġdig	2865
ĠThursday	2866
Ġfather	2867
ened	2868
ornia	2869
Ġloss	2870
avy	2871
Ġthous	2872
ÂŃ	2873
ructure	2874
Ġproduction	2875
Ġboy	2876
ume	2877
Ġheard	2878
eed	2879
down	2880
Sh	2881
Ġeconomy	2882
Ġenjoy	2883
ĠAugust	2884
Ġtrade	2885
ĠSch	2886
face	2887
Ġwebsite	2888
iment	2889
Ġsecret	2890
Ġcover	2891
Ġreveal	2892
Ġwide	2893
Ġboard	2894
Ġmatch	2895
AL	2896
Ġallowed	2897
ĠCourt	2898
Ġhands	2899
Ġspent	2900
Ġtravel	2901
Ġlower	2902
Ġbi	2903
Ġrepe	2904
atory	2905
Ġpoll	2906
Ġincluded	2907
Ġste	2908
cember	2909
ĠOctober	2910
Ġneigh	2911
Ġlegisl	2912
orters	2913
uses	2914
Ġbehav	2915
iction	2916
Ġknew	2917
Ġwants	2918
Ġtown	2919
?âĢĿ	2920
ights	2921
ĠBritish	2922
Ġsepar	2923
ences	2924
estern	2925
Ġvisit	2926
ĠCanada	2927
rect	2928
anks	2929
With	2930
Ġperfect	2931
Ġgets	2932
ession	2933
Ġmovement	2934
ze	2935
ishing	2936
ground	2937
agement	2938
Ġtried	2939
Ġcause	2940
âĢĿ.	2941
gest	2942
Ġ}	2943
Ġforces	2944
ĠSunday	2945
Ġens	2946
After	2947
force	2948
ceed	2949
Ġattention	2950
Ġparticular	2951
][	2952
ening	2953
Ġveh	2954
Ġbud	2955
Ġfear	2956
Ġpopulation	2957
Ġvarious	2958
ĠUK	2959
Ġreach	2960
ma	2961
Ġlooks	2962
Ġ23	2963
ĠCalifornia	2964
Ġbrought	2965
Ġvo	2966
ĠKore	2967
Ġlink	2968
ibly	2969
);	2970
urning	2971
arily	2972
ĠIS	2973
200	2974
Ġprevious	2975
ED	2976
Ġmention	2977
ĠRussian	2978
Ġmorning	2979
ĠQu	2980
cle	2981
idered	2982
ĠSw	2983
'd	2984
Ġfair	2985
Ġgrowth	2986
aker	2987
undred	2988
99	2989
sequ	2990
yond	2991
Ġprogress	2992
Ġfell	2993
raz	2994
alled	2995
Ġsong	2996
iam	2997
AC	2998
Ġtraining	2999
hold	3000
Ġsize	3001
uk	3002
Re	3003
ĠBlack	3004
cies	3005
ĠDecember	3006
idents	3007
field	3008
ledge	3009
ĠHer	3010
Ġcontact	3011
Ġdemand	3012
While	3013
Ġimage	3014
Ġhor	3015
Ġrac	3016
Ġhot	3017
ification	3018
OS	3019
Ġleader	3020
ecause	3021
Ġrules	3022
Ġliber	3023
Ġprep	3024
Ġsearch	3025
Ġess	3026
ĠPost	3027
set	3028
Ġcitiz	3029
Ġupon	3030
Ġstrugg	3031
ĠStreet	3032
Ġlatest	3033
come	3034
Ġindepend	3035
US	3036
uments	3037
inks	3038
arth	3039
Ġfeatures	3040
Ġcoach	3041
ondon	3042
ĠPark	3043
ges	3044
Tr	3045
Ġfast	3046
Ġtalking	3047
ĠCont	3048
ĠJew	3049
Ġaddition	3050
Ġstar	3051
Ġwond	3052
ĠSenate	3053
de	3054
oo	3055
IT	3056
ĠPat	3057
Ġspeed	3058
Ġexam	3059
iant	3060
Ġconsidered	3061
raq	3062
icles	3063
aries	3064
Ġreb	3065
omp	3066
bed	3067
Ġlevels	3068
eth	3069
ĠTimes	3070
ĠCounty	3071
lligence	3072
Ġslow	3073
Ġinvestigation	3074
ille	3075
Ġconduct	3076
aph	3077
ĠParty	3078
22	3079
ĠKing	3080
Ġmedical	3081
Ġmach	3082
imately	3083
vent	3084
Ġachie	3085
Ġlanguage	3086
aturday	3087
Ġcard	3088
Ġsn	3089
unk	3090
Ġcritic	3091
Ġsort	3092
ope	3093
ĠCenter	3094
ĠTex	3095
Ġpen	3096
Ġund	3097
wo	3098
ĠIndia	3099
Ġpaper	3100
ysis	3101
IC	3102
Ġ2008	3103
pir	3104
Ġconserv	3105
Ġparents	3106
imin	3107
Ġsexual	3108
Ġsystems	3109
Ġprior	3110
ha	3111
uit	3112
asc	3113
Ġdoll	3114
Ġwritten	3115
uf	3116
Ġsafe	3117
Ġbox	3118
Ġspokes	3119
igr	3120
Ġseek	3121
Ġsens	3122
Ġdocument	3123
het	3124
idge	3125
eared	3126
Ġincreasing	3127
Ġhear	3128
ani	3129
atform	3130
Ġdraw	3131
Ġseven	3132
Ġson	3133
ĠMuslim	3134
Ġeffort	3135
ruary	3136
Ġjobs	3137
sych	3138
ĠIran	3139
Ġextreme	3140
Ġprevent	3141
Ġlearn	3142
ining	3143
Ġserious	3144
Ġregul	3145
Ġinn	3146
Ġrange	3147
room	3148
rast	3149
Ġviolence	3150
ĠMark	3151
80	3152
ources	3153
ĠIraq	3154
itch	3155
OP	3156
Ġsurve	3157
Ġcompletely	3158
Ġconc	3159
Ġ...	3160
Ġ2009	3161
Ġmessage	3162
tr	3163
ico	3164
Ġâ	3165
She	3166
Ġobv	3167
Ġinteresting	3168
reedom	3169
Ġscreen	3170
abor	3171
Ġopportunity	3172
ĠKe	3173
ĠChar	3174
eff	3175
Ġclimate	3176
24	3177
Ġmajority	3178
anced	3179
Ġparticularly	3180
Ġdoub	3181
Ġjournal	3182
ĠRom	3183
Ġdespite	3184
Ġclaims	3185
Ġanswer	3186
Ġsociety	3187
mp	3188
ĠLondon	3189
Ġdefense	3190
Ġcarry	3191
entially	3192
aming	3193
Ġguy	3194
Ġextra	3195
ension	3196
ĠDonald	3197
isions	3198
Ġattacks	3199
Ġrequired	3200
erve	3201
rench	3202
illed	3203
Ġbiggest	3204
vertisement	3205
Ġexactly	3206
ĠEast	3207
Ġpaid	3208
ĠMore	3209
iers	3210
ibr	3211
Ġexperien	3212
Ġaren	3213
lying	3214
uclear	3215
inese	3216
Ġmodern	3217
Ġremain	3218
Ġquarter	3219
Ġofficers	3220
Ġhundred	3221
Ġcross	3222
Ġexcept	3223
ĠNet	3224
utions	3225
ari	3226
Ġtable	3227
Ġpractice	3228
Ġnatural	3229
inally	3230
Ġmiddle	3231
erc	3232
Ġ27	3233
Ġcertainly	3234
Ġdro	3235
oses	3236
ĠSaturday	3237
Ġstories	3238
Ġhistor	3239
Ġgas	3240
Ġproducts	3241
Ġsurv	3242
Ġlooked	3243
Ġsometimes	3244
nces	3245
Ġstuff	3246
Ġscience	3247
Ġfinally	3248
Ġuser	3249
AM	3250
Ġsummer	3251
Ġmovie	3252
Ġblood	3253
ospital	3254
aves	3255
Ġcommunic	3256
Ġaw	3257
ously	3258
Ġlay	3259
Ġchanged	3260
Ġones	3261
add	3262
Ġleading	3263
Ġdescribed	3264
ĠSand	3265
Ġimag	3266
Ġterm	3267
Ġeight	3268
ĠFebruary	3269
Ġprison	3270
Ġconvers	3271
fl	3272
ny	3273
Ġdetails	3274
icks	3275
Ġstarting	3276
ĠSpe	3277
Ġquality	3278
Ġoccur	3279
Ġpan	3280
hib	3281
Ġshowed	3282
Ġnamed	3283
Ġgiving	3284
Ġult	3285
Ġremains	3286
ĠMcC	3287
uing	3288
Ġregion	3289
pper	3290
Ġprovided	3291
Ġcosts	3292
akers	3293
ĠSoc	3294
arr	3295
Ġdamage	3296
ĠMor	3297
Ġmob	3298
Ġdanger	3299
Ġfit	3300
ĠTH	3301
ĠTur	3302
Ġchief	3303
aught	3304
Ġpoor	3305
Ġpath	3306
ida	3307
Ġeducation	3308
Ġmultiple	3309
Ġcontinued	3310
ett	3311
enge	3312
Ġgrowing	3313
No	3314
Ġdemonst	3315
Ġ*	3316
ĠChe	3317
Ġparts	3318
yl	3319
Ġ26	3320
Ġwriting	3321
Ġcomments	3322
Ġ28	3323
Ġment	3324
Ġmaintain	3325
Ġassist	3326
Ġthinking	3327
ĠDes	3328
inary	3329
ĠRepublicans	3330
ĠEven	3331
Ġpurp	3332
Ġrequest	3333
Ġwrite	3334
Ġfix	3335
Ġitem	3336
Ġpurch	3337
ĠCoun	3338
ables	3339
Ġdied	3340
ĠDemocratic	3341
FL	3342
coin	3343
ago	3344
Ġready	3345
Ġwouldn	3346
Ġimplement	3347
23	3348
Ġincreased	3349
Ġculture	3350
Ġefforts	3351
Ġvoters	3352
ux	3353
Ġcamer	3354
Ġmill	3355
aly	3356
....	3357
pre	3358
oper	3359
Ġreading	3360
mitted	3361
iminal	3362
Ġfile	3363
Ġusually	3364
Ġcalls	3365
Ġspot	3366
Ġeffects	3367
Im	3368
ĠGener	3369
zz	3370
ban	3371
Ġperhaps	3372
arian	3373
Ġalone	3374
fort	3375
iles	3376
ĠFirst	3377
ĠMon	3378
Ġalthough	3379
Ġtowards	3380
ĠLeague	3381
Ġconsist	3382
ĠBill	3383
ĠTexas	3384
Ġselect	3385
Ġguys	3386
Ġstandard	3387
ĠMichael	3388
Ġsubst	3389
Ġcele	3390
Ġbeyond	3391
Ġdirectly	3392
Ġplatform	3393
ĠChinese	3394
Ġ(@	3395
Ġhous	3396
using	3397
itute	3398
Ġspeech	3399
tered	3400
Ġreality	3401
icated	3402
Ġkids	3403
ĠJames	3404
Ġavoid	3405
Ġthroughout	3406
Ġfootball	3407
Ġstudent	3408
ara	3409
Ġcouldn	3410
rowd	3411
BI	3412
Ġunf	3413
ford	3414
Ġimmediately	3415
oul	3416
Ġrob	3417
Ġincludes	3418
Ġcat	3419
Ġconcept	3420
Ġcenter	3421
Ġchoice	3422
Ġscene	3423
Ġcomplex	3424
anch	3425
Ġadditional	3426
sp	3427
Ġchalleng	3428
ĠCons	3429
Ġwife	3430
Ġclos	3431
urt	3432
Ġtro	3433
Ġrecomm	3434
Ġresearc	3435
Ġepis	3436
hest	3437
itor	3438
Ġver	3439
ĠMinister	3440
Ġsle	3441
All	3442
Ġcorpor	3443
ĠâĢ¦	3444
Ġdesigned	3445
ĠSer	3446
urg	3447
agon	3448
Ġremember	3449
Ġsafety	3450
Ġsoftware	3451
ĠIndian	3452
wise	3453
Ġgone	3454
Ġil	3455
astic	3456
ports	3457
Ġsell	3458
Ġtoward	3459
Ġagency	3460
Ġten	3461
Ġofficer	3462
aches	3463
Ġfigure	3464
Ġpiece	3465
Ġbrain	3466
omen	3467
Ġbattle	3468
ĠJack	3469
men	3470
Ġcounter	3471
Ġdebate	3472
airs	3473
ression	3474
ston	3475
Ġthousands	3476
adem	3477
rupt	3478
Ġopin	3479
Ġahead	3480
icient	3481
Now	3482
imum	3483
Ġrelative	3484
irth	3485
Ġletter	3486
Ġreceive	3487
Ġpressure	3488
ĠÐ	3489
Ġblog	3490
oes	3491
ilies	3492
ampions	3493
Ġ>	3494
Ġsil	3495
Ġmoved	3496
Ġlaunch	3497
Ġappears	3498
Ġoption	3499
ĠPlay	3500
Ġpassed	3501
Ġut	3502
Ġclean	3503
Ġprec	3504
Ġstage	3505
roy	3506
Ġ60	3507
ĠBo	3508
ĠServ	3509
olute	3510
ĠII	3511
atever	3512
berg	3513
OT	3514
Ġproperty	3515
27	3516
Ġhelped	3517
amb	3518
Ġdrive	3519
ĠApple	3520
just	3521
Ġalleged	3522
ĠGreen	3523
Ġtwe	3524
new	3525
Ġdisapp	3526
Ġtour	3527
Ġmeaning	3528
Ġrock	3529
Ġdog	3530
Ġx	3531
Ġcris	3532
itation	3533
ĠAssoci	3534
Ġsuspect	3535
Ġdate	3536
ĠRich	3537
aughter	3538
Ġmoving	3539
Ġscore	3540
ĠDemocrats	3541
Ġorganization	3542
Ġsat	3543
Ġconditions	3544
Ġtouch	3545
Ġdark	3546
Ġcommand	3547
ĠThen	3548
?"	3549
Ġign	3550
Ġreasons	3551
Ġbudget	3552
Ġpark	3553
more	3554
Ġnuclear	3555
Ġmyself	3556
Ġnom	3557
Ġdeg	3558
Ġhappy	3559
Ġdevice	3560
Ġdifference	3561
rief	3562
ĠSim	3563
Ġmaybe	3564
chan	3565
Ġbeginning	3566
AD	3567
Ġcopy	3568
Ġnature	3569
Ġfailed	3570
Ġfan	3571
yan	3572
wood	3573
Ġcharacters	3574
Ġcast	3575
Ġcomputer	3576
Ġencour	3577
Ġaim	3578
Ġtitle	3579
Ġwall	3580
Ġcompared	3581
Ġleague	3582
ocked	3583
ĠSuper	3584
ivity	3585
Ġestim	3586
ĠVal	3587
ĠStar	3588
Ġcollege	3589
Ġeyes	3590
Ġshown	3591
ĠEnglish	3592
Ġcentury	3593
Ġpowerful	3594
ĠDay	3595
lease	3596
ource	3597
Ġbal	3598
aint	3599
Ġlimited	3600
Ġyes	3601
Ġband	3602
Ġcontribut	3603
Ġpositive	3604
Ġforced	3605
Ġsche	3606
Ġnecessary	3607
Ġrefer	3608
Ġcandidate	3609
Ġstra	3610
Ġdisp	3611
35	3612
cient	3613
Ġbooks	3614
Ġtrust	3615
AP	3616
ĠFrench	3617
Ġlargest	3618
26	3619
Ġarch	3620
enty	3621
Ġsal	3622
ĠHere	3623
Ġconference	3624
ĠRober	3625
aud	3626
Ġnote	3627
Ġanalysis	3628
ufact	3629
Ġspending	3630
Ġpresidential	3631
45	3632
ĠOf	3633
Ġcitizens	3634
orks	3635
Ġschools	3636
ĠMart	3637
igration	3638
ĠSyria	3639
Ġthrow	3640
Be	3641
venue	3642
ĠBen	3643
Ġaware	3644
Ġmeant	3645
Ġexecutive	3646
Ġeventually	3647
My	3648
Ġphysical	3649
Ġfollowed	3650
Ġfeature	3651
ĠTor	3652
Ġtreatment	3653
Ġcrowd	3654
ĠWind	3655
Ġfirm	3656
ĠAir	3657
Ġstreng	3658
Ġconfir	3659
Ġmix	3660
Ġbott	3661
ero	3662
orney	3663
Ġ29	3664
ares	3665
ĠDis	3666
Ġgrad	3667
Ġreligious	3668
Ġeasily	3669
board	3670
Ġautom	3671
Ġesc	3672
Ġpus	3673
band	3674
Is	3675
Ġcool	3676
etro	3677
Ġ196	3678
Ġfamilies	3679
Ġilleg	3680
ressed	3681
craft	3682
cul	3683
rated	3684
Ġactions	3685
Ġoverall	3686
ĠMex	3687
Ġallows	3688
Ġgives	3689
Ġfeed	3690
ĠÂ£	3691
ube	3692
):	3693
Ġsusp	3694
Ġyourself	3695
By	3696
Ġdraft	3697
bum	3698
ken	3699
Ġappeared	3700
Ġsmart	3701
Ġdetail	3702
Ġincome	3703
iring	3704
Ġanaly	3705
ĠBel	3706
Ġsigned	3707
New	3708
encies	3709
Ġcentral	3710
Ġideas	3711
Ġang	3712
ĠGovern	3713
Ġsenior	3714
Advertisement	3715
Ġfrequ	3716
Ġweapons	3717
Ġhar	3718
ID	3719
Ġdisplay	3720
Ġpromot	3721
Ġnice	3722
Ġcredit	3723
Ġdecades	3724
Ġpsych	3725
Ġpolitics	3726
Don	3727
Ġcrime	3728
OM	3729
EC	3730
Ġuses	3731
inn	3732
Ġdoor	3733
Ġdise	3734
uty	3735
ĠInternational	3736
Ġunique	3737
28	3738
Ġswe	3739
Ġaltern	3740
Ġlif	3741
According	3742
mar	3743
Ġdrop	3744
Ġsales	3745
Ar	3746
Ġdeveloped	3747
resh	3748
Ġcustomers	3749
ET	3750
Ġbenefits	3751
Ġconflic	3752
urance	3753
Ġrelated	3754
Ġcrisis	3755
ĠSchool	3756
Ġmist	3757
erry	3758
iable	3759
Ġpredict	3760
Ġnoted	3761
ĠCap	3762
29	3763
ĠAustralia	3764
ĠEU	3765
Ġtruth	3766
box	3767
Ġgoals	3768
iny	3769
Ġindividuals	3770
Ġcharge	3771
ĠEarth	3772
part	3773
Ġbeaut	3774
Ġcontinues	3775
onents	3776
ĠUnion	3777
ĠArab	3778
Ġobserv	3779
Ġrap	3780
Ġchallenge	3781
Ġsto	3782
nown	3783
Ġapparent	3784
ĠAngel	3785
itely	3786
ĠSmith	3787
Ġlic	3788
Ġprojects	3789
Ġpeace	3790
Ġmeasure	3791
ĠPolice	3792
Ġcorrect	3793
oti	3794
Ġintelligence	3795
ĠChristian	3796
Ġpreviously	3797
ĠGermany	3798
Ġfully	3799
Ġrule	3800
Ġmanager	3801
Ġbrother	3802
Ġrates	3803
Ġadvant	3804
Un	3805
change	3806
Ġexpand	3807
Ġclearly	3808
Ġreform	3809
Ġlines	3810
net	3811
Ġsuccessful	3812
riage	3813
Ġhighly	3814
Ġlarger	3815
ounds	3816
21	3817
Ġtraff	3818
Ġspread	3819
iance	3820
Ġseemed	3821
ĠCouncil	3822
ki	3823
Ġstraight	3824
Some	3825
ĠComp	3826
Ġcriminal	3827
Ġminor	3828
Ġemb	3829
ĠGeorge	3830
Ġprograms	3831
iced	3832
attle	3833
owers	3834
ĠFranc	3835
Ġincident	3836
Ġresources	3837
ĠTom	3838
Ġgreater	3839
Ġprimary	3840
IA	3841
inated	3842
antly	3843
Ġknowledge	3844
Ġstudies	3845
while	3846
dom	3847
Ġsave	3848
orter	3849
Ġweb	3850
ategy	3851
Ġkept	3852
Ġattract	3853
ĠFlor	3854
olic	3855
Ġspir	3856
que	3857
Ġemot	3858
Ġcolor	3859
Ġfeet	3860
ean	3861
ĠCr	3862
sey	3863
Ġrare	3864
Ġreached	3865
secut	3866
Ġarm	3867
ĠHigh	3868
levision	3869
ĠInternet	3870
ĠBrown	3871
oday	3872
iders	3873
osh	3874
rs	3875
Ġfavorite	3876
Ġplaces	3877
ĠRec	3878
Ġregular	3879
wide	3880
ota	3881
Ġmanufact	3882
Ġlaun	3883
ĠDef	3884
100	3885
Ġsend	3886
Ġprem	3887
ĠHam	3888
roll	3889
lick	3890
icit	3891
Ġknows	3892
Ġshooting	3893
Ġactivity	3894
Ġpun	3895
Ġsources	3896
Ġnormal	3897
icago	3898
bon	3899
term	3900
onent	3901
ingly	3902
ser	3903
ĠAnt	3904
ville	3905
Ġstatus	3906
Ġfighting	3907
Ġvoice	3908
Ġrise	3909
ocks	3910
Ġfine	3911
Ġowners	3912
Ġcaused	3913
Ġclaimed	3914
ĠMac	3915
Ġenem	3916
Ġliter	3917
ĠRob	3918
ĠGeneral	3919
aith	3920
EO	3921
Ġoptions	3922
Ġ2007	3923
Ġintegr	3924
ength	3925
ĠUp	3926
usion	3927
Ġspend	3928
ĠGold	3929
ado	3930
Ġcities	3931
miss	3932
Ġorganiz	3933
ING	3934
Ġended	3935
iled	3936
Ġresearchers	3937
Ġcalling	3938
Ġshut	3939
Ġreflect	3940
ĠLa	3941
mission	3942
Pro	3943
mark	3944
org	3945
âĢĿ,	3946
oles	3947
70	3948
roid	3949
Ġprices	3950
ĠEvery	3951
Ġalbum	3952
ĠFrom	3953
ifying	3954
Ġemployees	3955
Ġfemale	3956
ĠEngland	3957
ya	3958
www	3959
Ġvirt	3960
Ġhaven	3961
Ġele	3962
Ġraised	3963
mittee	3964
Ġjump	3965
uana	3966
33	3967
Ġsupposed	3968
itness	3969
Ġhappens	3970
Ġadding	3971
Ġpolicies	3972
Ġnames	3973
Ġcharges	3974
ĠBre	3975
Ġpros	3976
Ġtrou	3977
ribution	3978
ica	3979
uman	3980
Ġbasic	3981
iverse	3982
Not	3983
ĠMag	3984
Ġconcerns	3985
Ġtraditional	3986
Ġwait	3987
inger	3988
Ġabsolute	3989
Ġacqu	3990
Ġplant	3991
Ġhospital	3992
Ġfunding	3993
ram	3994
ĠBay	3995
Ġslight	3996
Ġcommer	3997
rol	3998
Ġprint	3999
Ġpatients	4000
Sc	4001
Ġauthorities	4002
Ġminister	4003
vere	4004
Ġcreating	4005
Ġhttp	4006
Ġfreedom	4007
ĠAP	4008
Ġmechan	4009
Ġscen	4010
Ġstyle	4011
ĠMo	4012
Ġseeing	4013
Ġgrand	4014
.âĢĻ	4015
Ġbeat	4016
Ġlik	4017
rian	4018
ona	4019
Ġstation	4020
ĠScott	4021
see	4022
Ġpush	4023
ijuana	4024
Ġbehavior	4025
Ġbeg	4026
Ġleaving	4027
Ġcry	4028
Ġimpl	4029
Ġbirth	4030
Ġir	4031
Ġactual	4032
EL	4033
Ġensure	4034
pen	4035
Ġoffered	4036
Ġagreement	4037
ĠFlorida	4038
Ġeth	4039
ĠBer	4040
soft	4041
ĠHillary	4042
Ġposted	4043
Ġgold	4044
ĠSun	4045
Ġweekend	4046
Ġgreen	4047
ĠMost	4048
ĠReg	4049
alse	4050
Ġweight	4051
OU	4052
Ġeye	4053
.'	4054
acing	4055
Ġdetermin	4056
Ġvac	4057
Here	4058
Ġrevealed	4059
ĠWell	4060
Ġapplication	4061
Ġmostly	4062
Ġvalues	4063
Ġpropos	4064
itude	4065
ĠAlex	4066
aby	4067
Ġwilling	4068
earch	4069
Ġrank	4070
Ġadop	4071
ĠAccording	4072
Ġadult	4073
ttps	4074
Ġestabl	4075
Ġrecords	4076
âĢ¢	4077
500	4078
Ġenforce	4079
Ġpicture	4080
Ġbelieved	4081
ĠLet	4082
Ġmer	4083
pri	4084
uild	4085
Ġbrief	4086
Ġlearned	4087
ĠLaw	4088
Ġinstall	4089
Ġstrategy	4090
Ġappl	4091
SA	4092
igned	4093
Ġchoose	4094
istry	4095
Ġdire	4096
Ġwonder	4097
Ġqual	4098
Ġmassive	4099
cher	4100
Ġdevices	4101
Ġbenefit	4102
Ġwild	4103
Ġparties	4104
ĠChicago	4105
Ġlawy	4106
Ġuns	4107
gen	4108
ĠPeople	4109
Ġcars	4110
ĠTrans	4111
ĠPhil	4112
Ġarrested	4113
ĠMat	4114
Ġmount	4115
Ġwhatever	4116
Ġwat	4117
ĠOh	4118
ĠFrance	4119
Ġstreet	4120
Ġ;	4121
Ġprovides	4122
Ġwhom	4123
Ġassault	4124
90	4125
ties	4126
liament	4127
Ġasking	4128
Ġinfluence	4129
Ġjudge	4130
Ġlose	4131
Ġfat	4132
Ġfeeling	4133
ste	4134
Ġoperations	4135
Ġproduced	4136
Ġtemper	4137
cont	4138
Ġcritical	4139
ĠSecret	4140
ĠLou	4141
Ġnegoti	4142
Ġmission	4143
Ġenter	4144
ĠBush	4145
Ex	4146
Ġimages	4147
Ð¾	4148
ĠStud	4149
Ġconfirmed	4150
point	4151
Ġshowing	4152
IL	4153
ĠPort	4154
Ġdistrict	4155
ription	4156
Ġruns	4157
Ġpattern	4158
Ġtend	4159
Ġborder	4160
Ġresidents	4161
ae	4162
orial	4163
rav	4164
Ġdebt	4165
However	4166
ĠÃ	4167
aked	4168
no	4169
Ġcru	4170
Ġteac	4171
mine	4172
ĠCommittee	4173
la	4174
udd	4175
Ġopposition	4176
Ġcelebr	4177
ĠWall	4178
ĠHealth	4179
Ġsection	4180
Ġdefend	4181
Ġetc	4182
estic	4183
Ġproduce	4184
Le	4185
icial	4186
ĠInte	4187
ĠCommission	4188
Ġdrink	4189
Ġindependent	4190
ĠMod	4191
ront	4192
cell	4193
ĠWhy	4194
Ġbrand	4195
ented	4196
ags	4197
ugg	4198
Ġcore	4199
ĠPress	4200
Ġtick	4201
Ġdigital	4202
ĠBit	4203
Ġhero	4204
Ġadvoc	4205
Ġdollars	4206
ocr	4207
rial	4208
Ġeffective	4209
Ġsolution	4210
ĠMal	4211
Ġvill	4212
Ġinterested	4213
ĠSam	4214
ĠKorea	4215
BA	4216
Ġhighest	4217
ords	4218
Ġmemory	4219
Ġopening	4220
Ġworse	4221
Ġlearning	4222
Ġresponsible	4223
Ġtrial	4224
Ġdaily	4225
Ġkick	4226
Ġtheory	4227
ĠOther	4228
Ġoffers	4229
ĠPalest	4230
Ġreplace	4231
Ġrestrict	4232
ĠGet	4233
Ġmur	4234
ĠOffice	4235
Ġagreed	4236
Ġtelevision	4237
ĠFrancis	4238
cience	4239
ĠMicro	4240
ĠBecause	4241
Ġoccas	4242
CC	4243
ST	4244
illing	4245
Ġvs	4246
Ġdetect	4247
Ġtrain	4248
aste	4249
Ġinvestment	4250
Ġtypes	4251
iation	4252
ĠWestern	4253
aks	4254
icians	4255
Ġchair	4256
Ġmiles	4257
Ġmillions	4258
Con	4259
uries	4260
Ġchem	4261
ĠJustice	4262
ĠDel	4263
Ġgenerally	4264
Ġbasis	4265
Ġproposed	4266
Ġ80	4267
ĠMike	4268
ĠMil	4269
ĠCup	4270
These	4271
ipe	4272
Ġheavy	4273
Ġexplained	4274
Ġmap	4275
ĠOur	4276
AA	4277
rad	4278
Ġder	4279
Ġbur	4280
oly	4281
win	4282
Ġpartners	4283
ĠAdd	4284
ander	4285
Ġopinion	4286
Ġdefe	4287
Ġonto	4288
Ġprotest	4289
________	4290
Get	4291
Ġassociated	4292
Ġload	4293
rig	4294
azing	4295
ĠNFL	4296
rate	4297
oom	4298
44	4299
ĠFound	4300
Ġmale	4301
Ġbecomes	4302
Ġreject	4303
vest	4304
outhern	4305
====	4306
ĠSecurity	4307
Ġcoal	4308
Ġobtain	4309
Ġdestroy	4310
Ġadvantage	4311
Ġassum	4312
ĠLiber	4313
Ġcondition	4314
Ġannounce	4315
Ġhundreds	4316
ading	4317
Ġachieve	4318
Ġopened	4319
Cl	4320
eline	4321
Ġunderstanding	4322
odes	4323
ĠJohnson	4324
coming	4325
icip	4326
Ġsurround	4327
well	4328
orthern	4329
bert	4330
upp	4331
Ġinitial	4332
ĠBig	4333
Ġsleep	4334
36	4335
Ġship	4336
rey	4337
Ġmarriage	4338
Ġmanagement	4339
ĠWindows	4340
Ġthus	4341
Ġlimit	4342
Ġborn	4343
32	4344
Ġbecoming	4345
known	4346
Ġphoto	4347
Ġeasier	4348
FC	4349
ĠGreat	4350
Ġrat	4351
Ġlegislation	4352
Ġcontrovers	4353
Ġunlike	4354
Ġelectric	4355
ĠMany	4356
Ġcamera	4357
witch	4358
Ġaccused	4359
Ġspl	4360
Ġneighbor	4361
Ġdouble	4362
Ġice	4363
Ġspecies	4364
Ġshared	4365
Ġjoin	4366
Ġillegal	4367
Ġ31	4368
ĠLab	4369
Ġ2006	4370
Mr	4371
Ġmachine	4372
Ġharm	4373
Ġserved	4374
ĠJer	4375
GB	4376
Ġextremely	4377
olf	4378
Ġactive	4379
Ġ35	4380
Ġserve	4381
Ġdocuments	4382
ĠIslamic	4383
Ġframe	4384
za	4385
Ġstrik	4386
level	4387
ĠDist	4388
Ġaudience	4389
lant	4390
BS	4391
Ġlocation	4392
ĠAM	4393
Ġscientists	4394
Ġbottom	4395
Ġvictims	4396
orrow	4397
Ġwealth	4398
Ġprofessional	4399
ih	4400
Ġresist	4401
Ġreduce	4402
Ġbelief	4403
Ġnine	4404
Ġsolid	4405
Ġwinning	4406
Ġmarijuana	4407
ĠUk	4408
Ġnegative	4409
75	4410
iful	4411
lands	4412
Ġcommunities	4413
Ġreturned	4414
ortunately	4415
Ġbed	4416
ears	4417
met	4418
Ġincred	4419
ĠPM	4420
ĠInstitute	4421
Ġchurch	4422
PS	4423
Ġdepartment	4424
irgin	4425
ĠSanders	4426
Ġran	4427
Ġvictory	4428
Ġpurpose	4429
Ġ90	4430
ĠCommun	4431
Ġamb	4432
Ġvehicle	4433
Ġinternet	4434
Ġleadership	4435
ĠHall	4436
istics	4437
ios	4438
Ġbomb	4439
Ġmobile	4440
ghan	4441
Ġinstance	4442
ipped	4443
38	4444
Ġseparate	4445
Ġexisting	4446
Ġnotice	4447
Ġhearing	4448
Ġdie	4449
Ġexplain	4450
Ġdoubt	4451
Ġfaith	4452
Ġteach	4453
house	4454
ĠYour	4455
atically	4456
ĠFin	4457
Ġepisode	4458
Ġwatching	4459
Ġcomfort	4460
ĠCanadian	4461
ĠBank	4462
aran	4463
Ġnotes	4464
ĠAtt	4465
ĠEv	4466
Ġfresh	4467
Ġunc	4468
Ġradio	4469
ĠInc	4470
Ġviews	4471
Ġputting	4472
asy	4473
Ġsupporters	4474
Ġconservative	4475
Ġpurs	4476
Ġargument	4477
omas	4478
ĠFox	4479
Ġmicro	4480
ario	4481
acity	4482
Ġlaunched	4483
works	4484
scrib	4485
OL	4486
Ġappeal	4487
iliar	4488
Ġitems	4489
Ġcommittee	4490
ĠArt	4491
resp	4492
ĠMad	4493
which	4494
Ġdefinitely	4495
Ġdangerous	4496
iller	4497
PA	4498
zen	4499
Ġcoverage	4500
Ġdirection	4501
ĠOver	4502
Ġsun	4503
Ġcharged	4504
Ġfloor	4505
Ġmax	4506
ography	4507
34	4508
EM	4509
ĠCarol	4510
ĠChurch	4511
Ġissued	4512
Ġdrugs	4513
Image	4514
ipp	4515
Ġtask	4516
Ġbackground	4517
Ġcompetition	4518
Ġtrend	4519
Ġstated	4520
vention	4521
andom	4522
ada	4523
Ġtraffic	4524
ĠFBI	4525
Ġcommercial	4526
ĠDirect	4527
urb	4528
NA	4529
Ġspoke	4530
inct	4531
Ġtransfer	4532
ctors	4533
Ġsuggested	4534
Ġstructure	4535
Ġsett	4536
gu	4537
ady	4538
Ġsites	4539
Ġhus	4540
Ġnorth	4541
ĠSince	4542
ĠLike	4543
Ġrestaur	4544
ampionship	4545
Ġlabor	4546
Ġdecade	4547
Ġrepeated	4548
ĠGame	4549
Ġreact	4550
oman	4551
Ġcards	4552
Ġanimals	4553
going	4554
Ġnovel	4555
but	4556
ribute	4557
Ġdaughter	4558
anted	4559
ĠSl	4560
Ġdriving	4561
Ġclosed	4562
Ġworst	4563
Ġcontain	4564
Ġentirely	4565
Ġded	4566
ĠBritain	4567
gency	4568
Ġdriver	4569
ga	4570
ĠWil	4571
Ġdisease	4572
Ġnor	4573
Ġtelling	4574
iling	4575
Ġsmaller	4576
Ġge	4577
Ġdiscovered	4578
Bl	4579
akistan	4580
ĠPri	4581
Americ	4582
ĠLos	4583
Ġhack	4584
!âĢĿ	4585
hem	4586
ference	4587
ius	4588
ĠQue	4589
spe	4590
Ġfalse	4591
Ġcash	4592
equ	4593
Ġconcerned	4594
ulf	4595
ait	4596
Ġplays	4597
Ġsurface	4598
semb	4599
annel	4600
Ġsupported	4601
ulated	4602
Ġtools	4603
Ġcompar	4604
oyal	4605
ĠChris	4606
Ġexperiment	4607
Ġfinding	4608
Ġtransport	4609
night	4610
Ġcateg	4611
ãĤ	4612
Ġaspect	4613
##	4614
Ġbusinesses	4615
Ġ70	4616
ĠUN	4617
Ġfarm	4618
Ġplease	4619
Ġolder	4620
azon	4621
phone	4622
how	4623
Ġactivities	4624
Ġrequires	4625
CH	4626
Ġgay	4627
itt	4628
ĠJones	4629
ibrary	4630
do	4631
Ġstrength	4632
48	4633
Ġwel	4634
andon	4635
Ġinsurance	4636
Ġconsequ	4637
37	4638
Ġlargely	4639
Ġmurder	4640
NN	4641
ici	4642
55	4643
Ġcaught	4644
Ġexerc	4645
Ġcandidates	4646
kins	4647
ĠIsraeli	4648
Ġallowing	4649
icy	4650
Ġblue	4651
ĠAre	4652
Ġannual	4653
ĠKen	4654
Ġtesting	4655
ĠTre	4656
ossible	4657
ĠSup	4658
Ġstrateg	4659
Ġraise	4660
Ġstock	4661
overy	4662
ĠRobert	4663
izes	4664
Ġdecisions	4665
Ġaccur	4666
rick	4667
Ġcontext	4668
lor	4669
Ġfuel	4670
ĠAc	4671
SP	4672
osure	4673
ĠUkrain	4674
Ġconcern	4675
Ġafford	4676
Ġbelieves	4677
Ġconstruction	4678
Ġtruly	4679
****	4680
Ġtim	4681
ĠTy	4682
ĠMiss	4683
Ġjustice	4684
igrants	4685
Ġgeneration	4686
Ġhighlight	4687
Ġunit	4688
rim	4689
Ġpresence	4690
ĠJewish	4691
anging	4692
!!	4693
ĠSil	4694
Ð°	4695
tery	4696
Ðµ	4697
ception	4698
ĠAfrica	4699
Ġguess	4700
ancy	4701
Ġwitness	4702
itable	4703
Ġholding	4704
ĠGree	4705
Ġestablish	4706
Ġlength	4707
Ġplanning	4708
ĠAfrican	4709
Ġsequ	4710
ava	4711
cknow	4712
Ġsan	4713
Ġplaced	4714
Ġrefuge	4715
Ġcatch	4716
ĠAfghan	4717
inter	4718
ĠAssociation	4719
Ġtells	4720
âĢĺ	4721
Ġscale	4722
Ġspokesman	4723
bre	4724
nel	4725
Ġrough	4726
Ġattend	4727
olly	4728
ĠVer	4729
Ġcells	4730
Ġjoined	4731
Ġmentioned	4732
Ġinterests	4733
Ġabuse	4734
pective	4735
ĠJim	4736
More	4737
Ġhasn	4738
ĠPC	4739
Ġiniti	4740
Ġenforcement	4741
ĠPre	4742
Ġkid	4743
ĠGOP	4744
Ġintroduced	4745
Ġdeliver	4746
Ġconflict	4747
ĠMer	4748
Ġrout	4749
ĠMicrosoft	4750
Ġphil	4751
âĢĶâĢĶ	4752
Ġupdate	4753
ros	4754
Ġmissing	4755
Ġproviding	4756
Ġwaiting	4757
Ġcancer	4758
39	4759
Ġrecommend	4760
ocracy	4761
Ġestablished	4762
ey	4763
isation	4764
Ġeat	4765
bour	4766
ĠYes	4767
Ġoccup	4768
ĠFrank	4769
ĠJeff	4770
ĠAngeles	4771
Ġremoved	4772
Ġ2005	4773
ula	4774
ĠFore	4775
Ġoffensive	4776
ĠInstead	4777
icon	4778
Ġinjury	4779
Ġsports	4780
47	4781
Ġfant	4782
Ġdiscussion	4783
lig	4784
Ġoperation	4785
Ġdownload	4786
Ġuseful	4787
Ġnewsp	4788
Ġconversation	4789
Ġhomes	4790
ronic	4791
Ġsouth	4792
Ġcook	4793
ĠCEO	4794
Ġassess	4795
ĠGroup	4796
itz	4797
formation	4798
Ġbanks	4799
onto	4800
Ġstopped	4801
ĠConst	4802
Ġobvious	4803
ications	4804
Ġmeasures	4805
ĠKh	4806
Ġmodels	4807
Ġfourth	4808
ĠMP	4809
Our	4810
season	4811
DA	4812
what	4813
Ġbul	4814
anda	4815
Ġ2018	4816
Ġfiles	4817
Ġgirls	4818
ĠLouis	4819
Ġstick	4820
cks	4821
vant	4822
azine	4823
mail	4824
umn	4825
Ġmanaged	4826
iter	4827
apped	4828
ĠPalestin	4829
oted	4830
ĠTim	4831
Ġfigures	4832
oms	4833
Ġidentified	4834
Pl	4835
Ġgraph	4836
kin	4837
ĠJud	4838
ĠSal	4839
Ġfinished	4840
igan	4841
Ġfunds	4842
real	4843
ĠPakistan	4844
Ġsetting	4845
Ġconclud	4846
Ġprefer	4847
Ġhair	4848
Ġcommitted	4849
ĠMexico	4850
49	4851
Ġskills	4852
Ġappropri	4853
Ġspirit	4854
ĠRock	4855
Ġveter	4856
Ġfocused	4857
Ġarrived	4858
ĠTHE	4859
Ġhousing	4860
ĠLeg	4861
ĠVirgin	4862
gers	4863
Ġkeeping	4864
Ġtherefore	4865
Ġacknow	4866
ulate	4867
Des	4868
Ġpartner	4869
Ġexclus	4870
ĠAndroid	4871
enses	4872
ups	4873
Ġearth	4874
Ġtransl	4875
outs	4876
place	4877
Ġtough	4878
ĠJapanese	4879
Ġ2000	4880
Ġrelatively	4881
Ã¡	4882
ĠSupreme	4883
wing	4884
owl	4885
Ġidentity	4886
Ġfeels	4887
ĠMet	4888
Ġotherwise	4889
rd	4890
Ġsurvey	4891
RA	4892
ĠRyan	4893
ocal	4894
ication	4895
itutional	4896
Ġprotection	4897
agn	4898
Ġexchange	4899
Ġowner	4900
isf	4901
Trump	4902
Ġsteps	4903
ĠInter	4904
Ġtrip	4905
imb	4906
Ġhusband	4907
Ġtweet	4908
gar	4909
Ġconnection	4910
ĠArmy	4911
Ġslightly	4912
ĠProf	4913
erences	4914
ka	4915
eah	4916
Ġweak	4917
ĠGovernment	4918
verse	4919
":	4920
Ġcircum	4921
Ġclick	4922
Ġelements	4923
ĠRichard	4924
Ġstrike	4925
Ġphotos	4926
Ġmere	4927
Ġdefensive	4928
ĠNor	4929
dden	4930
Ġgain	4931
Ġfle	4932
Ġdepend	4933
ucky	4934
Ġcollection	4935
onym	4936
hens	4937
Ġkilling	4938
Ġroll	4939
ighter	4940
Go	4941
Ġcorner	4942
ĠMartin	4943
ancing	4944
odies	4945
Ġsuggests	4946
uct	4947
Ġaggress	4948
with	4949
prof	4950
Ġguard	4951
Photo	4952
Ġgender	4953
makers	4954
ĠCollege	4955
Ġcommission	4956
ĠAlthough	4957
range	4958
Ġdat	4959
ĠSur	4960
46	4961
ĠIr	4962
ĠDec	4963
Ġmental	4964
icide	4965
Ġamazing	4966
rees	4967
ĠSub	4968
hi	4969
mas	4970
Ġplanet	4971
ĠTeam	4972
rency	4973
ĠOut	4974
Ġbigger	4975
Ġfailure	4976
ĠJose	4977
Ġsupply	4978
Why	4979
ania	4980
Ġstarts	4981
Ġsides	4982
vis	4983
hedul	4984
Ġfamiliar	4985
Ġremind	4986
Ġsust	4987
ils	4988
Ġspect	4989
uate	4990
Ġspeaking	4991
Ġtalks	4992
Ġhappening	4993
ym	4994
Ġorganizations	4995
Ġhate	4996
gypt	4997
Ġwindow	4998
Ġarmy	4999
ĠGood	5000
ĠJoe	5001
Ġnone	5002
uke	5003
ĠPet	5004
Ġtaxes	5005
Ġplanned	5006
Ġthanks	5007
ĠMary	5008
Ġstruct	5009
Ġpit	5010
Ġdecide	5011
Ġsudden	5012
Ġwish	5013
Ġcrew	5014
Ġcarried	5015
lo	5016
ĠMont	5017
oston	5018
Ġpet	5019
awn	5020
agues	5021
ynam	5022
Ġregist	5023
TC	5024
Ġmulti	5025
idering	5026
Ġhelping	5027
ano	5028
Last	5029
Ġaward	5030
Ġstandards	5031
Ġ32	5032
ĠFire	5033
gn	5034
Ġrevolution	5035
Ġenvironmental	5036
ĠWeb	5037
pm	5038
arsh	5039
ĠThomas	5040
olit	5041
Ġscript	5042
ola	5043
Ġseconds	5044
run	5045
ĠResearch	5046
Ġscientific	5047
ĠBern	5048
Ġimmigration	5049
Ġstanding	5050
ĠTheir	5051
Ġ45	5052
Ġque	5053
stream	5054
ocol	5055
Ġbeer	5056
Ġdomestic	5057
imal	5058
adium	5059
Ġpair	5060
uters	5061
ĠAlso	5062
fe	5063
ĠSecretary	5064
ĠUs	5065
Ġacadem	5066
Ġcold	5067
Ġvariety	5068
Ġmarkets	5069
Ġsch	5070
].	5071
HL	5072
Ġterrit	5073
Ġdropped	5074
Ġaccounts	5075
!"	5076
Ġfiled	5077
erous	5078
acks	5079
illa	5080
Ġbalance	5081
eless	5082
Ġimpossible	5083
ĠTer	5084
aven	5085
Ġinteract	5086
Ġrou	5087
Ġneighborhood	5088
aren	5089
Ġdegree	5090
Read	5091
ĠAtlant	5092
Ġturns	5093
ores	5094
itect	5095
Ġpossibly	5096
Ġappre	5097
Ġoperating	5098
Ġprinc	5099
Ġalternative	5100
Ġunion	5101
Ġvotes	5102
Ġvul	5103
ader	5104
Ġprofessor	5105
Ġtack	5106
ĠService	5107
Ġincreasingly	5108
ayer	5109
ruit	5110
Ġapply	5111
Ġfellow	5112
Ġcuts	5113
stein	5114
Ġhonest	5115
Ġunivers	5116
ĠPrime	5117
Ġserver	5118
iser	5119
Ġdevelopers	5120
arks	5121
ĠSyrian	5122
abb	5123
Ġapparently	5124
Ġlived	5125
Ġchanging	5126
Ġworry	5127
rastructure	5128
ĠCarolina	5129
Ġtests	5130
Ġunits	5131
Ġrich	5132
ĠTwo	5133
cious	5134
icted	5135
From	5136
aded	5137
Ġhumans	5138
IM	5139
ĠFoundation	5140
ĠMos	5141
Ġagencies	5142
Ġsounds	5143
ashed	5144
Ġtwice	5145
Ġultimately	5146
obby	5147
Ġlosing	5148
Ġphilos	5149
Ġauthority	5150
Ġsoldiers	5151
ãĥ	5152
Ġanimal	5153
Ġath	5154
ĠImages	5155
Ġsettle	5156
Ġschedul	5157
Ġmut	5158
Ġcolle	5159
Ġcorporate	5160
Ġabsolutely	5161
Ġhealthy	5162
Ġpaying	5163
och	5164
Ġequip	5165
iams	5166
Ġdeveloping	5167
Ġsea	5168
Ġcloser	5169
ĠDen	5170
Ġinnov	5171
ĠTime	5172
related	5173
Ġseeking	5174
Ġregarding	5175
roud	5176
coh	5177
Ġskin	5178
Ġexpensive	5179
ansion	5180
Ġpossibility	5181
Ġbeautiful	5182
Ġreligion	5183
ĠCentral	5184
Ġapart	5185
Ġfundament	5186
Ġexperts	5187
Ġsolar	5188
65	5189
Ġyards	5190
Ġwriter	5191
Ġflight	5192
Ġvast	5193
ĠDistrict	5194
ĠLast	5195
Ġdeploy	5196
Ġadjust	5197
Of	5198
Ġinternal	5199
ĠUnder	5200
ĠLat	5201
31	5202
ĠPeter	5203
ĠPlan	5204
apers	5205
Ġimagine	5206
ĠJon	5207
IV	5208
Ġapplications	5209
iot	5210
ologies	5211
Ġvision	5212
look	5213
state	5214
osen	5215
ĠFrancisco	5216
ĠToronto	5217
den	5218
Ġsitting	5219
Ġtrail	5220
Ġunless	5221
ĠUSA	5222
ĠJes	5223
isted	5224
Ġheat	5225
Ġgar	5226
Ġ2004	5227
Even	5228
Ġresponsibility	5229
Ġcapacity	5230
ĠDan	5231
IP	5232
atures	5233
ĠMiddle	5234
Ġerror	5235
aine	5236
ias	5237
Ġfol	5238
Ġsymb	5239
Ġarms	5240
Ġpil	5241
pire	5242
Ġcovered	5243
idden	5244
ĠBur	5245
Ġappoint	5246
Ġfamous	5247
ĠCamp	5248
Ġforms	5249
uzz	5250
ND	5251
Ġuniversity	5252
Ġtight	5253
top	5254
Ġpresented	5255
ortion	5256
oving	5257
enced	5258
ĠST	5259
ĠEgypt	5260
Ġearn	5261
ĠPut	5262
Ġconvention	5263
under	5264
Just	5265
ĠPublic	5266
Ġsurprise	5267
Ġattorney	5268
Ġelections	5269
Ġestimated	5270
Ġfif	5271
ĠAri	5272
gl	5273
Ġteen	5274
Ġinstit	5275
Ġvehicles	5276
rible	5277
ĠAmazon	5278
road	5279
Ġintended	5280
.âĢĿ<|	5281
Ġodd	5282
Ġrid	5283
Ġhelps	5284
Ġoccurred	5285
person	5286
Ġstreets	5287
uster	5288
hand	5289
ini	5290
ĠBoston	5291
ĠSol	5292
Ġ=>	5293
="	5294
sen	5295
ĠMur	5296
Ġsport	5297
Ġdetermine	5298
ressive	5299
ĠBitcoin	5300
Ġexpert	5301
alls	5302
Ġconsult	5303
uration	5304
Let	5305
Ġbroken	5306
Ġguaran	5307
lets	5308
Ġfired	5309
Ġton	5310
Ġflow	5311
Ġdomin	5312
ĠGal	5313
inte	5314
porary	5315
eder	5316
LE	5317
Ġshall	5318
Ġreserv	5319
Ġtroops	5320
ION	5321
ĠThose	5322
Ġhyp	5323
Up	5324
Ġnar	5325
terday	5326
Ġpieces	5327
ĠChief	5328
Ġprepared	5329
ĠMass	5330
ĠCath	5331
Ġrapid	5332
orage	5333
ĠJo	5334
rie	5335
Ġlocated	5336
ĠSocial	5337
Ġbaby	5338
----------------	5339
Ġconclus	5340
Ġbringing	5341
Ġprove	5342
Ġspecifically	5343
ĠAny	5344
Ġpotentially	5345
Ġsector	5346
anche	5347
Ġrandom	5348
Ġjail	5349
OW	5350
Ġselling	5351
ĠVe	5352
Ġgovernments	5353
ĠOnce	5354
Ġscr	5355
Ab	5356
Ġequal	5357
Ne	5358
class	5359
Ġfaster	5360
Ġheav	5361
ĠSpr	5362
Ġboost	5363
useum	5364
vey	5365
war	5366
Ġclin	5367
Ġproposal	5368
oty	5369
Ġfactors	5370
Ġplenty	5371
TH	5372
Ġequipment	5373
Ġcouncil	5374
Ġera	5375
Ġinfrastructure	5376
Do	5377
Ġstress	5378
phas	5379
Ġstars	5380
ĠJournal	5381
ĠRub	5382
endment	5383
ĠVirginia	5384
Ġbreat	5385
Ġprosecut	5386
Ġvoted	5387
Ġoffering	5388
Ġcarbon	5389
inent	5390
Ġexpressed	5391
Ġcombat	5392
Ġvulner	5393
ĠParis	5394
Ġbroke	5395
()	5396
ureau	5397
Ġclot	5398
ours	5399
ĠFederal	5400
Ġruling	5401
Ġretail	5402
ĠGuard	5403
Ġrefused	5404
Ġdram	5405
Ġelected	5406
ĠOpen	5407
ĠRiver	5408
Every	5409
Ġsecure	5410
cean	5411
Ġseasons	5412
Ġconducted	5413
,'	5414
Ġchallenges	5415
Ġremove	5416
isher	5417
ht	5418
Ġmethods	5419
Ġweapon	5420
noon	5421
Ġpointed	5422
ĠIsland	5423
Ġmaster	5424
Ġremained	5425
ĠAustralian	5426
Ġprime	5427
ENT	5428
Ġtrig	5429
ĠMel	5430
Ġpositions	5431
ĠCru	5432
Ġinfect	5433
Ġdin	5434
Ġcriticism	5435
ipping	5436
First	5437
ocking	5438
ĠMedic	5439
ĠFe	5440
ĠPlease	5441
tion	5442
rog	5443
onom	5444
IG	5445
Ġsale	5446
olved	5447
Ġcultural	5448
that	5449
Ġweren	5450
Ġsignificantly	5451
Ġbrow	5452
etic	5453
Ġoriginally	5454
Ste	5455
ĠDuring	5456
Ġstret	5457
Ġaffected	5458
Ġappearance	5459
Ġcas	5460
ĠSant	5461
Ġtourn	5462
Ġfacing	5463
Ġgreatest	5464
Ġfinish	5465
ĠLee	5466
Ġyouth	5467
yr	5468
Ġtele	5469
ĠWho	5470
ĠCur	5471
Ġpercentage	5472
ĠPhoto	5473
col	5474
Ġdetermined	5475
Ġsigns	5476
Ġinvolve	5477
95	5478
cel	5479
Ð¸	5480
64	5481
Ġthank	5482
Ġbought	5483
Ġ500	5484
lyn	5485
ĠSing	5486
standing	5487
Ġchemical	5488
ashion	5489
Ġshape	5490
Ġvir	5491
Ġregime	5492
Ġgrew	5493
pired	5494
Ġremaining	5495
ĠSteve	5496
lymp	5497
Ġminimum	5498
ĠSaud	5499
reens	5500
Ġindeed	5501
Ġdream	5502
rier	5503
aling	5504
Since	5505
Ġmarg	5506
Sp	5507
ĠRo	5508
ĠBoth	5509
>>	5510
Ġmode	5511
Ġherself	5512
Ġvoting	5513
ĠColor	5514
Ġobviously	5515
ĠForce	5516
Ġreduced	5517
ĠNov	5518
ordin	5519
ĠRem	5520
Ġwood	5521
Ġrecorded	5522
Ġargued	5523
Ġ1990	5524
Ġrevenue	5525
Ġtact	5526
Ġwearing	5527
ighters	5528
Ġleads	5529
edia	5530
Ġhun	5531
Ġplus	5532
Ġpoliticians	5533
Ġswitch	5534
Ġcontrast	5535
Ġhandle	5536
Ġpurchase	5537
Ġthr	5538
Ġsubs	5539
Ġconcent	5540
Ġproced	5541
gment	5542
ÑĤ	5543
Ġagent	5544
arp	5545
ĠWilliams	5546
Ġappreci	5547
eds	5548
Ġexperienced	5549
Ġhurt	5550
Ġexcited	5551
Ġvideos	5552
Ġhttps	5553
cohol	5554
Ġsupporting	5555
DP	5556
ĠHaw	5557
mm	5558
ĠFree	5559
Ġsurprising	5560
ller	5561
Ġminute	5562
odd	5563
Ġexplos	5564
ĠPac	5565
Ġbelong	5566
Ġconsumers	5567
Ġidentify	5568
Ġconsidering	5569
ownt	5570
ĠConserv	5571
apter	5572
Ġaircraft	5573
Ġaid	5574
Ġpulled	5575
Ġrent	5576
CL	5577
Ġbasically	5578
Ġdifferences	5579
ogue	5580
ĠBook	5581
Ġglass	5582
http	5583
Ġafternoon	5584
ĠRad	5585
Ġshift	5586
Ġdiss	5587
Ġends	5588
essions	5589
Ġturning	5590
Ġbound	5591
Ġfilms	5592
Ġspring	5593
Ġdepart	5594
Ġprospect	5595
ruption	5596
ket	5597
ĠCharl	5598
hab	5599
05	5600
life	5601
Ġtreated	5602
Ġaccident	5603
,[	5604
01	5605
Ġmotiv	5606
Ġlisten	5607
Ġseat	5608
ĠPower	5609
uts	5610
Ġcombined	5611
Ġconstruct	5612
Ind	5613
Ġseriously	5614
Ġprivacy	5615
apping	5616
Ġevening	5617
hered	5618
Ġopportunities	5619
asp	5620
hy	5621
Ġstruggle	5622
Ġ195	5623
Ġpanel	5624
Ġenemy	5625
Ġlots	5626
Ġcompleted	5627
ĠDaily	5628
Ġvisual	5629
His	5630
pet	5631
Phone	5632
Pe	5633
Ġtalked	5634
pted	5635
Ġhopes	5636
oral	5637
Ġpassing	5638
Ġid	5639
Ġapps	5640
osite	5641
ĠStep	5642
PD	5643
Ġcalcul	5644
Ġmort	5645
Another	5646
Ġwidely	5647
ensions	5648
Ġemergency	5649
ĠHol	5650
ĠShow	5651
Ġelement	5652
Ġsuit	5653
amm	5654
Ġast	5655
anged	5656
SS	5657
ucks	5658
aled	5659
Ġpowers	5660
ĠRel	5661
ĠBBC	5662
Ġflat	5663
ĠOlymp	5664
Ġburn	5665
TV	5666
Ġdiscl	5667
Ġplants	5668
obe	5669
ĠSpace	5670
ato	5671
Ġliberal	5672
raud	5673
Ġopposed	5674
Well	5675
Ġproceed	5676
ompl	5677
Ġcopyright	5678
oking	5679
ĠProject	5680
Ġadvance	5681
Ġfactor	5682
Ġdistance	5683
Ġ2003	5684
ivered	5685
Ġdismiss	5686
plom	5687
Ġattempts	5688
Ġtun	5689
ĠBet	5690
ĠRoad	5691
abilities	5692
Am	5693
ĠIN	5694
Ġtrouble	5695
ributed	5696
Ġhol	5697
unction	5698
Ġcollabor	5699
Ġdefault	5700
idel	5701
Ġzone	5702
Ġencoun	5703
ĠJackson	5704
Ġupgr	5705
rawn	5706
ita	5707
Ġreaction	5708
Ġstorm	5709
Ġreporters	5710
ĠMem	5711
Ġfrust	5712
PR	5713
nell	5714
mosp	5715
adow	5716
Ġwrites	5717
mond	5718
aints	5719
Ġtypically	5720
lines	5721
ĠToday	5722
respond	5723
UT	5724
Ġpages	5725
Ġinstruct	5726
ternal	5727
Ġreference	5728
Ġpackage	5729
Ġbodies	5730
zer	5731
Ġmatters	5732
sts	5733
42	5734
free	5735
Ġdenied	5736
care	5737
edd	5738
App	5739
Ġquant	5740
Ġdisappoint	5741
Ġsem	5742
Ġexplo	5743
ette	5744
ĠNAS	5745
Ġoptim	5746
ache	5747
Ġquiet	5748
Ġentertain	5749
Ġmal	5750
Ġresponded	5751
Ġapproved	5752
ĠTurkey	5753
Ġsatisf	5754
aped	5755
Rep	5756
Ġbroadcast	5757
esters	5758
De	5759
Ġinstitutions	5760
Ġadvert	5761
Ġstands	5762
ĠDirector	5763
Ġsets	5764
estival	5765
Ġelimin	5766
isters	5767
razy	5768
Ã¤	5769
ĠPenn	5770
Ġvalid	5771
host	5772
Ġrenew	5773
ĠOhio	5774
Cont	5775
0000	5776
Ġsplit	5777
Ġsevere	5778
ĠWilliam	5779
Ġsac	5780
abin	5781
Ġcapable	5782
ĠMatt	5783
Ġ//	5784
Ġ2001	5785
Ġpitch	5786
aniel	5787
Ġcaption	5788
Ġcloud	5789
Ġloved	5790
Ġtechnical	5791
Ġgiant	5792
pass	5793
Ġcann	5794
Ġtradition	5795
water	5796
Ġbull	5797
Ġconfident	5798
elly	5799
uous	5800
Ġconfidence	5801
Ġnumerous	5802
Ġreportedly	5803
Ġfaces	5804
],	5805
writ	5806
Ġweather	5807
Ġfly	5808
ĠMa	5809
Ġtransition	5810
rid	5811
Ġ36	5812
ĠSystem	5813
unte	5814
ĠAfghanistan	5815
Ġgra	5816
ĠSqu	5817
Ġwaste	5818
Ġcreation	5819
Ġperspective	5820
Ġunable	5821
Ġforget	5822
ĠLabour	5823
43	5824
ĠYet	5825
astern	5826
employ	5827
."<|	5828
oken	5829
ĠMedia	5830
angers	5831
II	5832
Ġcraft	5833
Ġsubstant	5834
Ġcooper	5835
Ġviolent	5836
Ġsuffered	5837
ilit	5838
Ġmand	5839
ampion	5840
Ġcoast	5841
Ġpictures	5842
Ġexperiences	5843
Ġapprox	5844
Ġroute	5845
abled	5846
rant	5847
88	5848
Ġflag	5849
Ġadvice	5850
ĠAndrew	5851
usiness	5852
Ġdeclared	5853
ĠWal	5854
Ġordered	5855
ĠHuman	5856
razil	5857
Ġcrimes	5858
Ġcoff	5859
Ġproud	5860
ishes	5861
Ġreporting	5862
Ġmessages	5863
sex	5864
Ġcircumst	5865
Ġfindings	5866
ĠLin	5867
Ġeval	5868
ulations	5869
Res	5870
Ġexcell	5871
Over	5872
Ġdeclined	5873
Ġexplains	5874
can	5875
Ġdelay	5876
Ġ\	5877
ĠFollow	5878
Ġnewspaper	5879
ounded	5880
Ġconnected	5881
ilty	5882
Ġshouldn	5883
evin	5884
oves	5885
Ġongoing	5886
Ġvan	5887
dule	5888
Ġmovies	5889
Ġpicked	5890
resents	5891
77	5892
Ġadmitted	5893
Ġdelivered	5894
During	5895
Ġguns	5896
ĠML	5897
ionally	5898
ĠScot	5899
Ġwalking	5900
Ġprin	5901
Ġagents	5902
called	5903
Ġeditor	5904
Ġthoughts	5905
Ġmarried	5906
ĠTra	5907
Ġauth	5908
Ġemails	5909
Ġappropriate	5910
Ġemphas	5911
uations	5912
Ġedge	5913
Ġarchitect	5914
ĠGrand	5915
Ġleaves	5916
Ġupdates	5917
Ġaccompl	5918
OD	5919
Ġgather	5920
ĠMuslims	5921
Ġforg	5922
ansas	5923
ĠWood	5924
Ġquarterback	5925
Ġsession	5926
ooth	5927
41	5928
arn	5929
ĠTechn	5930
Ġpool	5931
ĠScience	5932
cos	5933
Ġinjured	5934
Ġpublicly	5935
ellow	5936
ĠSov	5937
Ġstatements	5938
Ġperman	5939
Ġlegit	5940
arl	5941
nergy	5942
MA	5943
Ġconfirm	5944
ĠLake	5945
Ġourselves	5946
Other	5947
Ġrealize	5948
Ġdrivers	5949
Ġrot	5950
ĠAv	5951
Te	5952
ĠDou	5953
TA	5954
mates	5955
,âĢĻ	5956
Ġarmed	5957
essor	5958
Ġdial	5959
cons	5960
Ġlawyer	5961
ourney	5962
Ġrail	5963
Ġreaders	5964
reland	5965
Ġsad	5966
Ġcontains	5967
Ġargue	5968
ĠRev	5969
Ġtalent	5970
Ġfilled	5971
ĠSum	5972
Ġallegations	5973
Ġactivists	5974
ĠChristmas	5975
Ġdynam	5976
Ġ1980	5977
ĠMichigan	5978
date	5979
ĠBack	5980
ĠRon	5981
long	5982
Ġcrack	5983
Ġtransform	5984
Tube	5985
ĠRead	5986
Ġbuildings	5987
Ġwear	5988
Many	5989
ĠIll	5990
Ġterrorist	5991
Ġsam	5992
Ġtree	5993
Ġexercise	5994
enda	5995
Ġlabel	5996
Ġeffectively	5997
Oh	5998
Ġpractices	5999
Ġsubsequ	6000
ala	6001
ĠJul	6002
ĠSher	6003
TS	6004
uls	6005
Ġflo	6006
Ġfish	6007
ĠHy	6008
enture	6009
Ġshop	6010
Ġexamples	6011
ĠSee	6012
Ġpatient	6013
ĠGen	6014
ĠSeattle	6015
Ġobjects	6016
Ġtech	6017
Ġsecretary	6018
asure	6019
Ġrain	6020
gia	6021
Ġmissed	6022
Ġcauses	6023
illy	6024
rum	6025
Ġdebut	6026
ĠRod	6027
Ġessentially	6028
66	6029
Ġmoral	6030
orders	6031
amin	6032
ador	6033
word	6034
def	6035
acter	6036
ĠWork	6037
arters	6038
ĠUkraine	6039
ĠStan	6040
Ġcentre	6041
Follow	6042
ĠVict	6043
bur	6044
ĠID	6045
icing	6046
Ġinjuries	6047
ĠPhot	6048
Ġmotor	6049
ĠiPhone	6050
Ġartist	6051
Ġclient	6052
Ġbond	6053
Ġthinks	6054
iat	6055
orse	6056
ouston	6057
Ġpure	6058
Ġhell	6059
Although	6060
ĠSaudi	6061
Ġfacts	6062
Ĥ¬	6063
Ġdesire	6064
agers	6065
aza	6066
Ġske	6067
orry	6068
Ġlinked	6069
ÃŃ	6070
Ġgovernor	6071
ĠBat	6072
Ġmaterials	6073
Ġperformed	6074
Spe	6075
Ġfranch	6076
esome	6077
Ġsuc	6078
Ġphilosoph	6079
Ġinitially	6080
iest	6081
ĠSign	6082
Ġnecessarily	6083
ĠFer	6084
Ġexpansion	6085
Ġscheduled	6086
ERS	6087
Ġwarned	6088
Ġdiplom	6089
Ġadvanced	6090
Ġing	6091
Ġexplan	6092
Ġvari	6093
Ġeverybody	6094
Ġjoint	6095
Ġdecre	6096
Ġresolution	6097
Ġincreases	6098
enger	6099
Yes	6100
Ġaccepted	6101
Ġincor	6102
Ġmyster	6103
Ġfaced	6104
Ġbare	6105
illance	6106
Ġannouncement	6107
Ġfollows	6108
gent	6109
ĠMount	6110
Ġnations	6111
Ġplayoff	6112
ĠLife	6113
Ġabandon	6114
ĠSecond	6115
Ġradical	6116
Ġathlet	6117
Ġneither	6118
Ġyesterday	6119
Ġdatab	6120
Ġnearby	6121
Ġdistribution	6122
otic	6123
Ġapplied	6124
irty	6125
Ġmagazine	6126
Most	6127
athan	6128
rich	6129
Ġconsequences	6130
Ġmir	6131
Ġdoctor	6132
Ġlisted	6133
ĠColumb	6134
Ġatmosp	6135
American	6136
Ġsurprised	6137
Ġfort	6138
Ġoffense	6139
uy	6140
Qu	6141
itors	6142
ĠCNN	6143
ĠRE	6144
Ġspons	6145
Ġbegins	6146
ĠWeek	6147
Ġthreats	6148
Ġaf	6149
sembly	6150
Ġrepresents	6151
edy	6152
ĠJews	6153
ĠGM	6154
ĠAff	6155
Ġenh	6156
Ġmoves	6157
Ġremark	6158
ĠTO	6159
Ġpra	6160
Ġsongs	6161
kay	6162
Ġbehavi	6163
omin	6164
Ġride	6165
Ġadds	6166
Can	6167
Ġwithd	6168
ÃĤ	6169
Ġimproved	6170
rip	6171
Ġphen	6172
ĠBlue	6173
Ġbot	6174
Ġwarm	6175
Ġalcohol	6176
Ġoutput	6177
law	6178
ĠAT	6179
Ġflood	6180
ĠDevelop	6181
ĠHen	6182
whel	6183
Ġshots	6184
Ġfill	6185
ĠVol	6186
Ġstood	6187
Ġbrings	6188
Ġalt	6189
Ġpushed	6190
Ġguilty	6191
ĠRomney	6192
ĠKim	6193
Ġsubscrib	6194
85	6195
Ġentry	6196
ocratic	6197
ĠDev	6198
ĠBrazil	6199
Ġdemocracy	6200
Ġboys	6201
rac	6202
Ġ33	6203
Ġrow	6204
ĠSwed	6205
Ġconfig	6206
ĠNBA	6207
Ġlawsuit	6208
ĠIreland	6209
Ġmanufacture	6210
Ġreceiving	6211
Ġrein	6212
ĠBarack	6213
Then	6214
Ġtrib	6215
Ġtotally	6216
ĠOnly	6217
Ġdiscussed	6218
Ġrestaurant	6219
Ġsought	6220
Ġrising	6221
Ġentered	6222
ĠISIS	6223
ĠBoard	6224
Ġconsistent	6225
Ġhistorical	6226
twitter	6227
Ġstorage	6228
ideo	6229
Ġcorrespond	6230
Ġplane	6231
Ġcombination	6232
Ġinput	6233
Ġscored	6234
Ġ300	6235
Ġsymbol	6236
Ġbright	6237
Ġbutton	6238
irds	6239
Ġsucceed	6240
stood	6241
Ġcreative	6242
Ġinvestors	6243
Ġsquare	6244
Ġarticles	6245
Ġ2002	6246
Ġisland	6247
pty	6248
mes	6249
Ġdeaths	6250
Ġfunctions	6251
Ġnetworks	6252
Ġclasses	6253
Ġunlikely	6254
alty	6255
Ġheads	6256
ician	6257
Ġboss	6258
Ġnative	6259
icious	6260
Ġlie	6261
Ġsav	6262
ĠLib	6263
Ġroughly	6264
Ġconsumer	6265
ĠWhe	6266
ĠWalk	6267
ĠPrem	6268
fortunately	6269
ĠMs	6270
Ġstring	6271
ĠMaybe	6272
Ġheavily	6273
ĠAnother	6274
Ġfairly	6275
Ġtemperature	6276
arden	6277
ican	6278
Ġkit	6279
Ġexistence	6280
ĠIts	6281
ĠAsia	6282
Ġcontest	6283
Add	6284
Ġplot	6285
issions	6286
dis	6287
ĠCub	6288
Ġresident	6289
Man	6290
usal	6291
Ġtargets	6292
ĠBob	6293
Ġresc	6294
ĠKorean	6295
duc	6296
Ġlock	6297
Ġyounger	6298
ĠStr	6299
',	6300
Ġcolleagues	6301
PU	6302
Ġlibrary	6303
Ã¶	6304
Ġrally	6305
Ġparliament	6306
Ġprotests	6307
Ġanywhere	6308
oked	6309
ĠSports	6310
ĠSky	6311
Ġbike	6312
zona	6313
Ġbreaking	6314
ii	6315
acle	6316
Ġgrab	6317
Ġstores	6318
Ġexpression	6319
Ġsym	6320
Ġchain	6321
Ġblow	6322
Ġwarning	6323
Ġimportance	6324
Ġdefined	6325
Ġchart	6326
Ġbuying	6327
greg	6328
Ġmanage	6329
Ġprohib	6330
Ġclassic	6331
Ġcere	6332
Ġsnow	6333
Ġadults	6334
ĠEach	6335
Ġillust	6336
See	6337
Ġmarketing	6338
Ob	6339
Ġlinks	6340
Ã³	6341
iques	6342
Ġshif	6343
born	6344
andal	6345
ĠClub	6346
Ġtow	6347
ĠHist	6348
Ġfraud	6349
OC	6350
pret	6351
Ġfacility	6352
ollywood	6353
cho	6354
Ġhardware	6355
Ġschol	6356
Ġallegedly	6357
Ġ37	6358
Ġregulations	6359
Ġbon	6360
Ġdoctors	6361
ĠColorado	6362
agan	6363
Ġcurrency	6364
Ġhousehold	6365
Ġreplaced	6366
Ġessential	6367
En	6368
opy	6369
onna	6370
ĠRam	6371
Ġsomewhat	6372
ĠDiv	6373
press	6374
86	6375
Ġnav	6376
power	6377
Ġfavour	6378
Ġpromise	6379
ĠDC	6380
ĠBoy	6381
Ġlaugh	6382
Pol	6383
ĠRights	6384
Ġholds	6385
Ġopposite	6386
ocket	6387
ena	6388
Ñģ	6389
Ġmoments	6390
west	6391
Ġhat	6392
tering	6393
Ġopponent	6394
Ġbug	6395
ĠFar	6396
Ġcampus	6397
Ġacts	6398
Ġrum	6399
etroit	6400
Ġversions	6401
Ġmetal	6402
Ġmotion	6403
Ġevolution	6404
hips	6405
ometimes	6406
Ġvice	6407
anish	6408
Ġsees	6409
ĠImage	6410
Ġbag	6411
Ġrelevant	6412
Ġindustrial	6413
Ġzero	6414
Ġsick	6415
IR	6416
oma	6417
Ġclosely	6418
ĠAnn	6419
hetic	6420
Ġemotional	6421
chen	6422
game	6423
IF	6424
ĠYear	6425
ĠYouTube	6426
va	6427
Ġfewer	6428
Ġdivision	6429
olve	6430
Ġadm	6431
Ġdownt	6432
Ġharder	6433
Ġrefere	6434
Ġcustomer	6435
Ġhoping	6436
ologist	6437
Ġtom	6438
ĠBrook	6439
Donald	6440
ĠValley	6441
Ġhur	6442
ĠGra	6443
Ġmechanism	6444
ittle	6445
po	6446
ml	6447
ĠHouston	6448
ĠElect	6449
inem	6450
Ġreturns	6451
NC	6452
atell	6453
Ġvolunte	6454
Ġparticipants	6455
Ġextent	6456
Ġintention	6457
gas	6458
alian	6459
pan	6460
Ġexcellent	6461
ĠSoviet	6462
Ġsyn	6463
Ġacknowled	6464
llect	6465
ulous	6466
ĠMot	6467
oming	6468
ĠGames	6469
Ġsquad	6470
Ġcircumstances	6471
Ġfashion	6472
Ġisol	6473
Ã¼	6474
otal	6475
Ġimmediate	6476
ĠEric	6477
Ġsuffering	6478
esc	6479
ĠWatch	6480
Ġlies	6481
Ġtiny	6482
Ġauthors	6483
Ġbatt	6484
Ġ38	6485
Ġgrown	6486
ĠGar	6487
iger	6488
Ġimmigrants	6489
Ãĥ	6490
print	6491
ora	6492
Ġkinds	6493
utch	6494
Ġ49	6495
ĠDie	6496
Ġcheap	6497
Ġmine	6498
Ġdetailed	6499
ordan	6500
ĠHel	6501
name	6502
Ġfeatured	6503
ĠWik	6504
ayers	6505
Ġmeat	6506
ĠEr	6507
Ġunus	6508
ĠAut	6509
Ġcompetitive	6510
Ġdescribe	6511
Ġformed	6512
ĠHome	6513
ĠIP	6514
nic	6515
certain	6516
Ġcarrying	6517
Ġtournament	6518
Ġtermin	6519
Ġtrick	6520
Ġrelationships	6521
friend	6522
Ġfundamental	6523
kel	6524
Ġwave	6525
Ġcycle	6526
obb	6527
Ġcrazy	6528
Ġsigning	6529
ĠWay	6530
ĠCy	6531
rome	6532
Ġguide	6533
efully	6534
Ġwins	6535
ĠCatholic	6536
Ġearned	6537
08	6538
Ġdecline	6539
Ġregional	6540
nam	6541
ensus	6542
style	6543
Ġembr	6544
Ġstrange	6545
ĠPalestinian	6546
ĠJesus	6547
ĠLong	6548
Ġancient	6549
Ġfrequently	6550
06	6551
Ġacting	6552
ĠPutin	6553
ĠSar	6554
Ġmanner	6555
Ġefficient	6556
Ġpushing	6557
ĠCIA	6558
Ġcomfortable	6559
ĠCard	6560
Ġpip	6561
ORE	6562
Per	6563
Ġsharing	6564
Ġwire	6565
Ġskill	6566
ĠEconom	6567
ockey	6568
chers	6569
Ġinstru	6570
Ġowned	6571
ĠEll	6572
bar	6573
Ġcommitment	6574
Ġalongside	6575
ĠOF	6576
uated	6577
ĠLord	6578
anes	6579
09	6580
ĠDavis	6581
Ġcart	6582
rison	6583
Ġcontroversial	6584
Ġartists	6585
Ġreferred	6586
weight	6587
Ġegg	6588
Ġmouth	6589
Ġrepeatedly	6590
Ġ48	6591
ĠTop	6592
ï¿	6593
Ġ34	6594
FP	6595
awa	6596
Ġattempted	6597
Se	6598
Ġfemin	6599
umber	6600
Ġupdated	6601
foot	6602
Ġcert	6603
vin	6604
Ġpregn	6605
ĠOld	6606
ua	6607
Ġschedule	6608
xy	6609
ĠPS	6610
amily	6611
adel	6612
Ġdedicated	6613
Ð½	6614
Ġposts	6615
ĠAL	6616
Ġsentence	6617
Ġupcoming	6618
ĠDown	6619
ĠNY	6620
Ġcolumn	6621
ĠDi	6622
hus	6623
Ġdepth	6624
Ġpled	6625
Ġvirtual	6626
uable	6627
Ġjourney	6628
Ġstruck	6629
ÑĢ	6630
Ġdesk	6631
Ġstudio	6632
Ġrealized	6633
ĠEnergy	6634
Despite	6635
%)	6636
ceived	6637
ographic	6638
DS	6639
ko	6640
ugh	6641
Ġmedic	6642
Ġserving	6643
iami	6644
Ġwalked	6645
rive	6646
iveness	6647
Ġking	6648
Ġring	6649
Ġreput	6650
phy	6651
you	6652
Ġurban	6653
07	6654
ĠCle	6655
ĠCharles	6656
ĠWild	6657
Ġchannel	6658
Ġtargeted	6659
gor	6660
Ġassets	6661
luding	6662
Ġinspired	6663
Ġhotel	6664
ĠArizona	6665
Ġnewslet	6666
Like	6667
Two	6668
ĠSupp	6669
Ġuniverse	6670
Ġagenda	6671
Ġcausing	6672
Ġwatched	6673
Ġsuicide	6674
Ġtort	6675
Ġstream	6676
Ġoverwhel	6677
ĠPy	6678
Ġusual	6679
Ġsurveillance	6680
ĠMen	6681
Ġintent	6682
sole	6683
People	6684
Ġliqu	6685
Ġsister	6686
Ġopponents	6687
Ġchairman	6688
Ġdu	6689
ĠWars	6690
bel	6691
ĠCruz	6692
Ġmainstream	6693
Ġlatter	6694
Ġhall	6695
Ġsurrounding	6696
Ġfolks	6697
Ġknowing	6698
Ġorders	6699
ĠInf	6700
Ġremote	6701
Ġ75	6702
Ġsand	6703
Ġliterally	6704
ĠJava	6705
Ġobserved	6706
ĠAgain	6707
ĠRight	6708
Ġsubsid	6709
ĠDefense	6710
Ġinfl	6711
Ġapproval	6712
rence	6713
iments	6714
Ġbasket	6715
ĠVan	6716
burg	6717
rations	6718
avor	6719
Ġteachers	6720
azi	6721
izz	6722
Fr	6723
aze	6724
ta	6725
Ġwinter	6726
iciency	6727
alle	6728
Ġexciting	6729
acc	6730
iro	6731
aylor	6732
ĠTal	6733
Ġformat	6734
boy	6735
Ġcongress	6736
Ġprotected	6737
ati	6738
Ġnoticed	6739
Ġsimpl	6740
Ġdealing	6741
ĠYoung	6742
ĠPan	6743
ĠChild	6744
Ġprecise	6745
67	6746
xual	6747
Ġdeeply	6748
ipl	6749
Ġcommunication	6750
Ġgang	6751
Ġsending	6752
Ġforth	6753
ĠJr	6754
Ġfasc	6755
Ġbattery	6756
Ġwal	6757
mun	6758
Ġsky	6759
Ġnarr	6760
Ġfixed	6761
post	6762
Ġaside	6763
abis	6764
Ġrequirements	6765
Ġproperties	6766
rors	6767
str	6768
Ġalive	6769
Ġnarrow	6770
Ġwake	6771
allas	6772
Ġpassion	6773
ĠArch	6774
onymous	6775
Ġeating	6776
ensity	6777
Ġmistake	6778
wart	6779
woman	6780
Ġexplore	6781
Ġcoffee	6782
Ġ1970	6783
Ġrape	6784
Ġvolume	6785
Ġpromised	6786
Ġdiet	6787
acking	6788
Ġrisks	6789
Ġexhib	6790
ĠPolit	6791
Ġsweet	6792
May	6793
ĠEnter	6794
ĠWat	6795
Ġneut	6796
Ġinvolving	6797
Ġwage	6798
Ġselection	6799
ĠMax	6800
Ġtested	6801
ether	6802
Ġflu	6803
ulture	6804
Ġdefeat	6805
Ġnorthern	6806
Ġreward	6807
Ġwelcome	6808
Ġextended	6809
Ġputs	6810
Ġterritory	6811
Ġphenomen	6812
Ġunemploy	6813
Ġrefugees	6814
Ġsample	6815
Ġheight	6816
Ġapproximately	6817
ĠKevin	6818
59	6819
Ġblame	6820
ĠBrad	6821
Ġanyway	6822
ums	6823
ĠDetroit	6824
Ġdestroyed	6825
obile	6826
Ġimpressive	6827
ĠStephen	6828
asks	6829
Ġgod	6830
Ġgap	6831
Ġproof	6832
Ġdry	6833
ï¿½	6834
Ġcrash	6835
ingu	6836
Ġunknown	6837
Ġlocations	6838
04	6839
Ġselected	6840
apse	6841
Ġwest	6842
anges	6843
gery	6844
ĠFil	6845
stone	6846
Ġattacked	6847
ĠTit	6848
lv	6849
ĠMiller	6850
Ġmaximum	6851
ĠWilson	6852
Ġpromote	6853
âĢĻ.	6854
Ġshel	6855
Ġmerely	6856
Ġfranchise	6857
arry	6858
Ġrequests	6859
Ġsho	6860
Ġretire	6861
Ġsuddenly	6862
aser	6863
Ġslowly	6864
Ġprotesters	6865
Ġdisag	6866
dro	6867
Ġteacher	6868
Ġtypical	6869
ogan	6870
ĠIns	6871
ixt	6872
ĠWomen	6873
Ġconver	6874
list	6875
Ġchose	6876
ĠCamer	6877
ĠClass	6878
ĠLu	6879
Ġmatches	6880
Ġlicense	6881
Ġproperly	6882
Ġassume	6883
oration	6884
Ġdiscover	6885
03	6886
Ġwid	6887
ĠPR	6888
ĠMic	6889
Rel	6890
Ġworried	6891
Ġmoder	6892
Or	6893
Ġabortion	6894
fire	6895
owered	6896
Ġallies	6897
Ġoblig	6898
Ġterrorism	6899
02	6900
Ġsupports	6901
ao	6902
ĠÎ	6903
uilding	6904
ÃĥÃĤ	6905
inson	6906
verty	6907
Ġarguments	6908
Ġtheme	6909
Ġadapt	6910
Ġconfront	6911
Ġfacilities	6912
Ġsustain	6913
igg	6914
gender	6915
Ġpal	6916
Ġeast	6917
Ġrecognize	6918
igure	6919
Ġfuck	6920
ÃĥÃĤÃĥÃĤ	6921
lies	6922
Ġequival	6923
Ġobtained	6924
Ġpoverty	6925
Ġrub	6926
ĠItaly	6927
mo	6928
Ġnomine	6929
Ġdeals	6930
Ġfees	6931
itarian	6932
osis	6933
alo	6934
ĠHollywood	6935
Ġunderstood	6936
Ġcontrolled	6937
VER	6938
ĠBest	6939
ĠDam	6940
Ġtopic	6941
Ġcritics	6942
ĠSociety	6943
ĠAgency	6944
axy	6945
ĠFord	6946
Ġsole	6947
ĠJersey	6948
arity	6949
Ġvillage	6950
Ġdiagn	6951
ĠAdminist	6952
raid	6953
68	6954
Ġlikes	6955
celer	6956
sters	6957
ĠFour	6958
Ġevil	6959
Ġpunish	6960
Ġdress	6961
cript	6962
Ġped	6963
ĠGeorgia	6964
asts	6965
Ġbunch	6966
ĠCompany	6967
Ġjournalists	6968
John	6969
Ġexposed	6970
Ġregions	6971
redit	6972
ocation	6973
Ġcommunications	6974
Ġscheme	6975
lls	6976
Ġtransp	6977
Ġstim	6978
Ġlimits	6979
Ġsomehow	6980
Ġstrongly	6981
Ġhonor	6982
Ġdrag	6983
Ġresistance	6984
Ġchampion	6985
ĠLabor	6986
Ġphase	6987
ĠNASA	6988
pool	6989
ĠCarl	6990
Ġtruck	6991
Ġprofit	6992
Ġconstant	6993
Ġcondem	6994
Ġescape	6995
Ġpersonally	6996
ĠDun	6997
rimination	6998
ĠNight	6999
ĠLand	7000
aug	7001
ĠFort	7002
Ġbid	7003
ĠNHL	7004
ĠStand	7005
Ġvacc	7006
Ġdeck	7007
CA	7008
nesota	7009
iform	7010
Ġfalling	7011
ads	7012
GBT	7013
ĠNetwork	7014
Ġsomewhere	7015
cers	7016
Ġemployee	7017
Ġharass	7018
Ġbear	7019
ĠCD	7020
iner	7021
Ġcomparison	7022
orted	7023
ciples	7024
Ġpolls	7025
owa	7026
Ġinqu	7027
ĠLove	7028
pected	7029
Ġsouthern	7030
oric	7031
Ġdecent	7032
cow	7033
ĠSpanish	7034
Ġencourage	7035
Ġemissions	7036
Ġ39	7037
ĠKn	7038
ĠView	7039
enders	7040
Ġempty	7041
ĠMiami	7042
Ġhits	7043
oster	7044
ĠCam	7045
Ġdefinition	7046
57	7047
Ġdirected	7048
Ġpic	7049
ĠBell	7050
pes	7051
Ġflex	7052
wan	7053
zens	7054
ĠOk	7055
Ġmeetings	7056
ĠEnd	7057
Ð¾Ð	7058
Ġcomprom	7059
Ġwinner	7060
intend	7061
icken	7062
Ġgotten	7063
ĠDaniel	7064
ĠTurk	7065
Ġelectricity	7066
Ġchosen	7067
Ġofficially	7068
Ġbench	7069
Ġstretch	7070
Ġdatabase	7071
ĠDespite	7072
Ġintellect	7073
Ġspin	7074
igation	7075
Ġstronger	7076
Com	7077
Ġdeleg	7078
Ġpurposes	7079
ĠDNA	7080
teen	7081
Ġcutting	7082
ĠTurn	7083
Ġfold	7084
aun	7085
rary	7086
Ġextensive	7087
Ġamounts	7088
Ġdesper	7089
Ġanx	7090
Ġtrees	7091
Ġideal	7092
ĠAsian	7093
Ġthread	7094
Ġfifth	7095
ĪĴ	7096
rett	7097
CS	7098
UR	7099
Ġgoods	7100
Ġcolon	7101
Ġdeveloper	7102
Ġclaiming	7103
unning	7104
Any	7105
Ġretain	7106
Ġsoul	7107
Ġcaptured	7108
ĠThough	7109
Ġfinds	7110
Ġdriven	7111
aire	7112
Ġpayments	7113
ĠJordan	7114
ras	7115
Ġties	7116
Ġreasonable	7117
Ġdogs	7118
âĸ	7119
Ġsomebody	7120
Ġending	7121
ĠNations	7122
Ġchoices	7123
Ġble	7124
Ġseats	7125
ĠServices	7126
asters	7127
ĠThank	7128
Ġpod	7129
Ġdrawn	7130
Ġengage	7131
Ġsight	7132
CE	7133
Ġparam	7134
Ġthreatened	7135
Ġruled	7136
ĠDar	7137
ĠAttorney	7138
ĠIrish	7139
eping	7140
ura	7141
ĠSea	7142
Ġtrading	7143
owed	7144
Ġprimarily	7145
Ġaspects	7146
Ġfighters	7147
ML	7148
Ġanswers	7149
Ġperfectly	7150
irms	7151
ĠAcadem	7152
Ġincl	7153
Ġrival	7154
Ġparking	7155
Ġrejected	7156
ĠGall	7157
ĠCat	7158
Ġconstantly	7159
ĠHun	7160
Ġpayment	7161
fast	7162
Ġdistinct	7163
Ġflying	7164
Ġrig	7165
ĠReal	7166
Ġtechnologies	7167
</	7168
Ġcomponents	7169
Police	7170
Ġadmit	7171
ĠScotland	7172
Ġelsewhere	7173
ĠDark	7174
Ġconstit	7175
Ġtur	7176
Ġanymore	7177
lder	7178
ĠCast	7179
Ġicon	7180
Ġfields	7181
Ġestimates	7182
EW	7183
sea	7184
Ġsolutions	7185
Ġresulting	7186
78	7187
ĠBru	7188
Ġawesome	7189
Ġprovince	7190
mod	7191
Ġactor	7192
Ġworldwide	7193
Ġregularly	7194
ĠMoore	7195
Ġcourts	7196
Ġnarrative	7197
Once	7198
Ġboot	7199
ĠUt	7200
Ġenemies	7201
Ġmixed	7202
regon	7203
ĠOS	7204
ĠDisney	7205
sm	7206
icer	7207
Ġhouses	7208
Ġnobody	7209
ĠSk	7210
inations	7211
Ġcontrols	7212
ĠWater	7213
Ġletters	7214
agram	7215
iana	7216
imp	7217
Ġ42	7218
Ġmurd	7219
Ġmayor	7220
Ġoutcome	7221
ĠMS	7222
Ġcontem	7223
sell	7224
ĠTem	7225
vy	7226
Sec	7227
ship	7228
apes	7229
ĠLight	7230
isan	7231
onic	7232
Ġapartment	7233
ĠBrian	7234
ĠSteven	7235
Ġcoalition	7236
Ġcontributed	7237
ĠBas	7238
Ġtank	7239
Ġconcluded	7240
ĠAdam	7241
Ġexists	7242
Ġfounder	7243
ĠLew	7244
Ġatmosphere	7245
Ġprofile	7246
Ġbrew	7247
ĠId	7248
ĠTw	7249
Ġsituations	7250
ls	7251
ĠChampionship	7252
Ġloan	7253
ĠAuthor	7254
rates	7255
Ġincredible	7256
ĠConstitution	7257
Ġsignal	7258
otes	7259
ĠRog	7260
Ġaccurate	7261
300	7262
ĠVictor	7263
otten	7264
ĠWhere	7265
Ġunp	7266
ker	7267
ĠSouthern	7268
."[	7269
Ġemployment	7270
earing	7271
Ġclients	7272
Ġkeeps	7273
Ġinformed	7274
Ġcontinuing	7275
inity	7276
Ġtaste	7277
Ġbaseball	7278
Ġgenerate	7279
Ġticket	7280
Ġconven	7281
Also	7282
ĠConf	7283
oft	7284
Ġweird	7285
lock	7286
Ġtied	7287
adelph	7288
Ġcategory	7289
zy	7290
ilarly	7291
acked	7292
ĠOrgan	7293
Ġangry	7294
Ġroutine	7295
aron	7296
Ġkil	7297
Ġraising	7298
ifer	7299
Ġmachines	7300
Ġregistered	7301
Ġproved	7302
there	7303
Ġdemands	7304
Ġgaming	7305
ĠItalian	7306
Ġincredibly	7307
Ġcrucial	7308
MP	7309
Ġstuck	7310
ĠCivil	7311
ĠDallas	7312
Ġterrible	7313
56	7314
Ġfeedback	7315
Ġupper	7316
Ġplastic	7317
Ġimper	7318
Ġnewly	7319
ĠJoseph	7320
Ġconsumption	7321
rage	7322
Ġdozen	7323
Ġenthus	7324
ali	7325
Ġestate	7326
Ġinnoc	7327
Ġmanip	7328
Ġconscious	7329
Ġbills	7330
ĠCross	7331
ept	7332
ĠSpain	7333
ifications	7334
Today	7335
Ġwriters	7336
Ġexcess	7337
inding	7338
Ġaggressive	7339
Ġreporter	7340
Ġcompens	7341
Ġreturning	7342
Ġstead	7343
Ġprogramming	7344
ĠThanks	7345
Ġrepresented	7346
Ġconclusion	7347
98	7348
Ġrus	7349
ĠBowl	7350
MS	7351
ĠAR	7352
Ġorigin	7353
Ġassistant	7354
adelphia	7355
Ġroster	7356
ĠMinnesota	7357
Ġorganized	7358
ria	7359
Ġpenalty	7360
lers	7361
Ġdrinking	7362
Ġpaint	7363
Ġsatell	7364
Ġgro	7365
ĠProgram	7366
Ġcapture	7367
Ġconspir	7368
Ġinterpret	7369
Ġexplanation	7370
iscal	7371
ni	7372
58	7373
Ġcounty	7374
iscons	7375
essed	7376
ima	7377
Ġ%	7378
Dr	7379
mont	7380
anny	7381
gorith	7382
isconsin	7383
Ġassistance	7384
Ġcomplaint	7385
ĠRoman	7386
star	7387
Ġru	7388
Ġnut	7389
LA	7390
Ġmagic	7391
Ġtall	7392
ĠOper	7393
Ġgranted	7394
Ed	7395
Because	7396
ĠContin	7397
Off	7398
ĠParliament	7399
Ġcomplicated	7400
emen	7401
Ġchances	7402
Ġaudio	7403
Ġextract	7404
ĠGi	7405
Ġ1999	7406
ĠEduc	7407
era	7408
Ġshares	7409
Ġhel	7410
Ġsuccessfully	7411
rete	7412
esy	7413
ĠWin	7414
........	7415
ĠHot	7416
Ġpilot	7417
ĠIT	7418
ĠEp	7419
Ġmyth	7420
Ġrecovery	7421
ĠTest	7422
Ġtechniques	7423
Ġiron	7424
ĠCare	7425
ĠZeal	7426
ĠSC	7427
Ġscenes	7428
ĠFre	7429
Ġveteran	7430
Ġ($	7431
Ġdegrees	7432
actions	7433
ked	7434
thew	7435
Ġsympt	7436
Ġlawmakers	7437
Ġwestern	7438
Ġoperate	7439
Ġads	7440
rating	7441
Ġhabit	7442
rep	7443
Ġaimed	7444
Inst	7445
anchester	7446
Ġphr	7447
idency	7448
Ġengaged	7449
Ġprivile	7450
Ġ55	7451
========	7452
uan	7453
Ġrating	7454
Ġteaching	7455
ĠOs	7456
Ġacademic	7457
!<|	7458
itar	7459
Ġtherap	7460
Ġpasses	7461
Ġdollar	7462
Ġautomatically	7463
hent	7464
ĠPacific	7465
Ġmonit	7466
Ġblocks	7467
abama	7468
Ġattended	7469
Ġpermanent	7470
Ġsurvive	7471
Ġanticip	7472
Ġenable	7473
ĠLook	7474
Ġextrem	7475
ĠForeign	7476
chain	7477
Ġchat	7478
Ġmarked	7479
itals	7480
Ġhidden	7481
Ġaccomp	7482
Ġtitles	7483
ĠSenator	7484
ĠNBC	7485
cr	7486
Ġtaught	7487
aed	7488
ĠLinux	7489
Ġbom	7490
Ġindex	7491
everal	7492
Ġelite	7493
ibilities	7494
Ġlawyers	7495
Ġdepending	7496
from	7497
Ġvaluable	7498
Ġinstalled	7499
Ġchampionship	7500
Ġroot	7501
Ġcompre	7502
mal	7503
ĠBull	7504
Ġdowntown	7505
Ġequivalent	7506
Ġsolve	7507
rific	7508
Ġduty	7509
ĠSpecial	7510
ĠBusiness	7511
Ġ64	7512
Ġpace	7513
HS	7514
Ġreputation	7515
Ġuncertain	7516
Ġphones	7517
Ġoverse	7518
uine	7519
bal	7520
ĠTaylor	7521
Ġpersonnel	7522
Ġpin	7523
reams	7524
aturally	7525
Ġsufficient	7526
Ġvisited	7527
Ġwarming	7528
Ġprinciples	7529
Ġvulnerable	7530
Ġenjoyed	7531
Ġfake	7532
ĠNick	7533
Ġadvis	7534
Ġnegotiations	7535
inder	7536
Ġgenerated	7537
Ġexposure	7538
ye	7539
Me	7540
Ġrecording	7541
Ġcollected	7542
Ġregardless	7543
Ġdict	7544
%.	7545
EA	7546
Ġbitcoin	7547
Ġelev	7548
ãĢ	7549
active	7550
ĠKelly	7551
ĠAnth	7552
Ġcup	7553
Ġpatterns	7554
Getty	7555
ĠTake	7556
))	7557
ĠAvenue	7558
ĠJosh	7559
bro	7560
Ġcable	7561
Ġdisaster	7562
Ġ65	7563
Ġworker	7564
Ġmainly	7565
lla	7566
Ġracial	7567
quarters	7568
ĠViet	7569
ĠCoast	7570
month	7571
Ġpounds	7572
Ġ150	7573
ĠCall	7574
Ġportion	7575
ĠAh	7576
Ġafraid	7577
Ġinspir	7578
Ġbes	7579
Ġdefence	7580
ĠEastern	7581
ĠTony	7582
Ġtracks	7583
da	7584
Ġbusy	7585
Ġshit	7586
Ġintense	7587
ĠLGBT	7588
ĠSeries	7589
orne	7590
ĠStill	7591
athy	7592
Ġfunny	7593
mann	7594
Ġapolog	7595
Ġsurgery	7596
ĠMoscow	7597
ĠColl	7598
Ġpossession	7599
Ġprominent	7600
ĠMars	7601
Ġcomic	7602
ĠGer	7603
ashes	7604
97	7605
ules	7606
ĠRay	7607
Ġthin	7608
Ġengineering	7609
Ġtroub	7610
ĠKurd	7611
this	7612
Ġprocesses	7613
ĠNation	7614
ĠKent	7615
ĠCome	7616
fall	7617
Ġentit	7618
ĠâĢĻ	7619
Ġunusual	7620
raph	7621
etary	7622
Ġdescribes	7623
Col	7624
world	7625
96	7626
Ġresulted	7627
Ġemerged	7628
Ġtaxp	7629
Ġgall	7630
iler	7631
Ġdim	7632
Ġpropag	7633
ĠIowa	7634
ĠOregon	7635
Ġcoordin	7636
Ġcorruption	7637
Ġstations	7638
ĠInvest	7639
Ġfought	7640
ĠAD	7641
Ġbrut	7642
Ġextension	7643
prise	7644
Ġblind	7645
Ġadopted	7646
Ġcompete	7647
Ġrecru	7648
tes	7649
Ġgrant	7650
ĠZealand	7651
Ġhadn	7652
Pr	7653
Ġ400	7654
Ġmail	7655
ref	7656
Ġeverywhere	7657
ĠBalt	7658
ĠHom	7659
ba	7660
Rec	7661
Mean	7662
icate	7663
Ġcrypt	7664
herent	7665
Ġcontracts	7666
ĠAli	7667
Ġneuro	7668
ĠInt	7669
front	7670
ĠDead	7671
ĠRick	7672
Ġfeelings	7673
Ġfirms	7674
idelines	7675
âĢĻ,	7676
Ġminority	7677
HA	7678
cles	7679
Ġadvertising	7680
Ġspr	7681
Ġrarely	7682
Ġdiscipl	7683
gun	7684
making	7685
ĠNorthern	7686
Ġsanctions	7687
scape	7688
ĠPhiladelphia	7689
upid	7690
Ġcameras	7691
log	7692
Ġexplicit	7693
Ġstrict	7694
viously	7695
Ġenorm	7696
Ġfinance	7697
Ġcited	7698
ifies	7699
ĠBefore	7700
Ġshortly	7701
ĠPolicy	7702
UL	7703
Ġexpectations	7704
Ġimplementation	7705
ogen	7706
Ġrecip	7707
cling	7708
ĠGreek	7709
olt	7710
Ġthick	7711
Ġthousand	7712
antic	7713
ĠMu	7714
Ġloud	7715
istent	7716
Ġaffili	7717
orough	7718
urrent	7719
ĠNavy	7720
Ġinev	7721
cus	7722
Ġphotograph	7723
Ġmedium	7724
azz	7725
ĠWisconsin	7726
Ġscenario	7727
ĠFood	7728
ĠLive	7729
Ġsup	7730
ilton	7731
test	7732
Ġplug	7733
Ġveget	7734
Co	7735
Ġho	7736
Ġvisible	7737
Ġlights	7738
LC	7739
Ġcreates	7740
Ġpriority	7741
Ġven	7742
Ġbridge	7743
inking	7744
Ġobst	7745
Ġagric	7746
ATE	7747
Ġpermission	7748
Mar	7749
ĠFoot	7750
Ġalgorith	7751
izon	7752
Ġparticipate	7753
aska	7754
Ġwing	7755
who	7756
asion	7757
Ġtor	7758
ĠProte	7759
Ġbrowser	7760
ĠGlobal	7761
Ġtag	7762
car	7763
ĠHas	7764
Ġmel	7765
ĠAsh	7766
Ġacceler	7767
elect	7768
Ġdozens	7769
ĠKingdom	7770
ez	7771
Ġcomputers	7772
Ġhistoric	7773
Ġlaid	7774
Ġbasketball	7775
Ġlosses	7776
ĠSaf	7777
76	7778
Ġunw	7779
ogether	7780
::	7781
ĠAmendment	7782
Ġstrikes	7783
Ġprinciple	7784
ĠDevelopment	7785
Ġformal	7786
EP	7787
54	7788
Ġscoring	7789
lan	7790
athered	7791
obs	7792
Ġ44	7793
Ġcounsel	7794
++	7795
Ġshock	7796
Ġwonderful	7797
ĠSP	7798
Ġbehalf	7799
abs	7800
Ġuncom	7801
profit	7802
igen	7803
52	7804
enth	7805
ems	7806
Ġinterface	7807
Ġestablishment	7808
Ġtoler	7809
ĠHenry	7810
lete	7811
bell	7812
ĠGreg	7813
amber	7814
ĠMajor	7815
ĠThus	7816
Us	7817
Ġgained	7818
Ġfee	7819
jo	7820
Ġfounded	7821
Ġfoundation	7822
etime	7823
51	7824
ĠESP	7825
ilipp	7826
Ġclubs	7827
Ġcannabis	7828
Ġju	7829
Ġairport	7830
ystem	7831
ĠKey	7832
Ġborrow	7833
olis	7834
iel	7835
weet	7836
BO	7837
Ġmanufacturing	7838
Ġrely	7839
ĠHit	7840
ĠPay	7841
ĠAlabama	7842
ĠRoyal	7843
Ġgenuine	7844
rators	7845
Before	7846
Ġcomponent	7847
Ġridic	7848
osexual	7849
Ġwheel	7850
rative	7851
ĠOak	7852
Ġjournalist	7853
Ġrelief	7854
ĠSn	7855
Ġsaved	7856
Ġhole	7857
Ġyield	7858
Ġheaded	7859
Ġcyber	7860
she	7861
ĠMoh	7862
uer	7863
ependent	7864
ĠOl	7865
Ġgift	7866
aus	7867
Ġwithdraw	7868
Ġfault	7869
Ġindicate	7870
Ġdrawing	7871
Ġuniform	7872
umer	7873
ĠRand	7874
arlier	7875
ĠVis	7876
Ġstable	7877
Ġships	7878
Ġ->	7879
Ġbanned	7880
Ġmagn	7881
ĠMid	7882
Ġfootage	7883
Meanwhile	7884
rous	7885
Ġdoors	7886
Ġrecognized	7887
Ġ1960	7888
Ġcontaining	7889
pread	7890
ĠFC	7891
Ġriver	7892
Ġstruggling	7893
Sub	7894
Ġspark	7895
ĠAcademy	7896
Ġwalls	7897
Ġachieved	7898
opher	7899
ounced	7900
Ġneighb	7901
aning	7902
Ġplate	7903
Ġedition	7904
ĠHT	7905
portion	7906
mate	7907
Ġmovements	7908
Ġdeliber	7909
uce	7910
Post	7911
Ġsharp	7912
ĠAS	7913
ĠSnow	7914
ulating	7915
ĠThree	7916
Ġepisodes	7917
Ġneutral	7918
ĠPremier	7919
ĠRet	7920
ĠFund	7921
Ġexception	7922
etts	7923
Ġproducer	7924
________________	7925
ĠFred	7926
Ġdestruction	7927
Ġ1998	7928
ami	7929
oured	7930
osa	7931
:<|	7932
Ġbeliefs	7933
Ġ47	7934
ĠReview	7935
Ġpump	7936
Ġlegend	7937
ĠMcG	7938
Ġbacked	7939
umin	7940
Ġhired	7941
Ġliked	7942
idespread	7943
cription	7944
ca	7945
Ġroles	7946
Ġlanguages	7947
Ġprofession	7948
Ġentering	7949
ĠVR	7950
oen	7951
Ġinterviews	7952
Ġhang	7953
isp	7954
ĠKir	7955
Ġtox	7956
Ġphilosophy	7957
ĠAdministration	7958
Ġarrange	7959
interest	7960
Ġflaw	7961
ĠNob	7962
Those	7963
sylv	7964
imore	7965
Ġstadium	7966
ĠAtlanta	7967
ĠJac	7968
Ġreduction	7969
Ġdinner	7970
Ġbath	7971
ja	7972
uper	7973
ĠTurkish	7974
eman	7975
ĠReport	7976
400	7977
Ġaver	7978
Ġfinger	7979
ĠNote	7980
ĠConference	7981
Ġtackle	7982
burgh	7983
Ġcha	7984
Ġgonna	7985
ĠDiego	7986
ĠCentre	7987
Ġcrop	7988
Ġfarmers	7989
ĠManchester	7990
Ġnominee	7991
Ġ41	7992
53	7993
aching	7994
ĠJason	7995
Ġbarely	7996
ATO	7997
Ġstructures	7998
Ġcontained	7999
Ġsynt	8000
Ġdelivery	8001
Ġconvin	8002
ĠOtt	8003
%,	8004
Ġprocessing	8005
Ġdiscrimination	8006
Ġincent	8007
riers	8008
ĠFair	8009
erved	8010
RS	8011
ĠData	8012
ĠLo	8013
then	8014
ĠArm	8015
abinet	8016
Ġintellectual	8017
amsung	8018
Ġ46	8019
ĠRadio	8020
ĠBry	8021
ĠField	8022
ĠOK	8023
ĠDid	8024
Ġupset	8025
ĠPerhaps	8026
ĠMir	8027
ĠEducation	8028
sylvania	8029
away	8030
President	8031
Ġchallenging	8032
Ġproven	8033
Ġrestrictions	8034
rik	8035
gener	8036
Ġforever	8037
https	8038
olen	8039
Ġelectronic	8040
Ġhitting	8041
ĠHay	8042
Ġeuro	8043
Ġunex	8044
ho	8045
Ġreviews	8046
ĠFed	8047
ĠChristians	8048
Ġ43	8049
ĠHor	8050
Star	8051
Ġconvicted	8052
Ġillness	8053
Ġsmooth	8054
Dav	8055
page	8056
Ġretired	8057
Ġindicated	8058
usive	8059
Ġproducing	8060
ĠHarry	8061
ĠAbout	8062
Ġrapidly	8063
Ġrose	8064
Ġhide	8065
Ġcorporations	8066
Ġocean	8067
ĠNC	8068
ĠRus	8069
ĠPoint	8070
aying	8071
owing	8072
ĠSat	8073
Ġlistening	8074
ĠReuters	8075
ĠUFC	8076
Ġtechnique	8077
Ġmo	8078
yard	8079
sels	8080
Ġloyal	8081
ĠNic	8082
lessly	8083
iy	8084
Ġrobot	8085
Ġclimb	8086
Ġnotion	8087
Ġbegun	8088
87	8089
Ġren	8090
Ġutil	8091
Ġrecognition	8092
ouver	8093
engers	8094
inf	8095
Ġperpet	8096
Ġassociation	8097
Ġmilk	8098
Ġasks	8099
Ġwebsites	8100
Ġdescription	8101
ĠPack	8102
Ġtickets	8103
ĠPen	8104
achus	8105
Ġflash	8106
Ġbra	8107
Ġsuggesting	8108
enny	8109
ĠJudge	8110
Ġexclusive	8111
Ġreaching	8112
Ġprepare	8113
iti	8114
ĠKansas	8115
found	8116
ione	8117
Who	8118
Ġbail	8119
Ġfrag	8120
Ġprogressive	8121
Ġburd	8122
Ġexceed	8123
Ġequally	8124
ĠHard	8125
Ġhardly	8126
Ġwidespread	8127
ĠABC	8128
Ġcampaigns	8129
ĠMayor	8130
Ġcontribute	8131
udes	8132
elf	8133
ologists	8134
Ġbranch	8135
Look	8136
ĠRose	8137
Ġgrass	8138
Ġinitiative	8139
ĠMarket	8140
Ġethnic	8141
Ġexternal	8142
ikes	8143
ĠCirc	8144
uma	8145
rient	8146
Ġsensitive	8147
Ġpractical	8148
usted	8149
Ġunclear	8150
Ġnormally	8151
Ref	8152
Ġrepresentative	8153
pat	8154
89	8155
Ġwelf	8156
ĠFull	8157
thon	8158
Ġreducing	8159
appy	8160
Ġfriendly	8161
bec	8162
Ġcarefully	8163
ĠArabia	8164
ĠRef	8165
lad	8166
ĠLy	8167
PM	8168
ĠLuc	8169
Ġracist	8170
Ġinvent	8171
rical	8172
PG	8173
ouch	8174
ĠCO	8175
Ġrespectively	8176
senal	8177
Ġexem	8178
rator	8179
Ġtail	8180
imm	8181
ĠMcCain	8182
ĠBernie	8183
ancouver	8184
Ġoverwhelming	8185
Ġviewers	8186
ĠBeach	8187
Ġwelfare	8188
arrass	8189
stract	8190
ĠFurther	8191
Ġconvinced	8192
UN	8193
Ġsmoke	8194
umes	8195
Ġcollapse	8196
Ġinvolvement	8197
ĠLind	8198
ester	8199
Ġthrown	8200
pload	8201
Ġconnections	8202
heast	8203
Ġterrorists	8204
ĠBattle	8205
Ġstrategic	8206
Ġhook	8207
Ġ00	8208
ĠLatin	8209
Ġrecover	8210
omething	8211
ĠOnt	8212
Ġwine	8213
ĠNext	8214
Mc	8215
inois	8216
ĠMusic	8217
rolled	8218
Ġminds	8219
igrant	8220
Ġvital	8221
Ġsettlement	8222
Ġstatistics	8223
Ġlists	8224
Ġvary	8225
ĠSir	8226
Ġfeaturing	8227
ĠESPN	8228
ecut	8229
ĠDig	8230
achusetts	8231
Ġbehaviour	8232
Ġindependence	8233
worth	8234
Ġfantasy	8235
Ġdevast	8236
nedy	8237
core	8238
uties	8239
Ġinvited	8240
Ġcomplaints	8241
Ġjoining	8242
dem	8243
Ġscores	8244
Ġfiscal	8245
Ġdeeper	8246
abil	8247
ĠPennsylvania	8248
ifest	8249
Ġsteal	8250
Ġanger	8251
Ġdeputy	8252
Ġelig	8253
Ġwars	8254
ĠSquare	8255
ĠTenn	8256
Ġinvestigate	8257
ĠTown	8258
Ġsugar	8259
Ġconstitutional	8260
ĠPit	8261
ĠIII	8262
Ġscholars	8263
Ġanybody	8264
ĠiOS	8265
Ġsubjects	8266
ĠAND	8267
Ġarray	8268
Ġalien	8269
FA	8270
ĠGov	8271
Ġlobby	8272
Ġownership	8273
Ġframework	8274
ĠUlt	8275
Ġunemployment	8276
ĠDivision	8277
Ġtransgender	8278
bn	8279
Ġimprovements	8280
ĠSS	8281
Ġmenu	8282
Ġpeak	8283
Back	8284
Ġscreens	8285
ihad	8286
Ġinject	8287
Ġluck	8288
iversary	8289
Ġdefine	8290
Ġtasks	8291
ĠXbox	8292
Ġdemocratic	8293
Ġscandal	8294
icking	8295
Ġjury	8296
ĠAnton	8297
Che	8298
ĠMinistry	8299
ĠKat	8300
Ġcos	8301
Ġcomprehens	8302
osit	8303
ĠEs	8304
unior	8305
Ġremem	8306
Ġdiscovery	8307
Ġregister	8308
Ġcasual	8309
Ġcitizen	8310
RI	8311
Ġfab	8312
Under	8313
Ġroads	8314
Ġdisagree	8315
Ġfailing	8316
ĠNever	8317
ĠLittle	8318
ĠJay	8319
Ġdynamic	8320
Ġserves	8321
ĠCameron	8322
ĠBrother	8323
ĠMah	8324
Ġtestim	8325
Ġgathered	8326
ĠInformation	8327
ĠStone	8328
Sm	8329
asty	8330
Ġsoph	8331
oding	8332
Ġimplemented	8333
Ġcontroversy	8334
Ġcollective	8335
Ġtrained	8336
anna	8337
ĠNSA	8338
Ġneighbour	8339
Ġfears	8340
Ġguarante	8341
leveland	8342
Ġsamples	8343
Ġfiction	8344
Ġprosec	8345
Ġestimate	8346
ĠCommunity	8347
69	8348
ĠIce	8349
ĠMedical	8350
agg	8351
ĠSept	8352
Ġ1997	8353
ĠPhilipp	8354
Ġreferring	8355
Ġtip	8356
Ġcaptain	8357
Will	8358
Ġ1996	8359
Ġspaces	8360
cific	8361
ĠWalker	8362
Ġversus	8363
Ġlegs	8364
ĠSanta	8365
Ġtemporary	8366
Ġnoise	8367
Ġsin	8368
ĠHD	8369
PC	8370
Ġincorpor	8371
Ġtone	8372
eland	8373
acon	8374
Ġovert	8375
Ġvisitors	8376
Ġreven	8377
Ġcivilians	8378
Ġwages	8379
Ġhypot	8380
Ġremarks	8381
Ġawareness	8382
ĠON	8383
ĠSpring	8384
Ġrecommended	8385
Ġstupid	8386
ĠAllen	8387
Ġheading	8388
Ġhandful	8389
Ġregulation	8390
icket	8391
ĠAction	8392
ĠCore	8393
Ġplatforms	8394
Ġaccus	8395
ĠAnthony	8396
Ġaffairs	8397
Ġtouchdown	8398
Ġrural	8399
Ġattacking	8400
Ġextend	8401
Ġultimate	8402
Ġattached	8403
ĠVegas	8404
Ġdiscussions	8405
Ġhorse	8406
mad	8407
ĠBrew	8408
Ġreprodu	8409
Ġattempting	8410
Ġgenetic	8411
Ġexpanded	8412
phones	8413
ĠMatthew	8414
Ġraces	8415
including	8416
ĠQueen	8417
iry	8418
Ġraw	8419
Ġignore	8420
ĠColumbia	8421
serv	8422
ĠPent	8423
ĠGuardian	8424
hour	8425
ĠCook	8426
itionally	8427
Ġgear	8428
ĠiP	8429
Ġsymptoms	8430
ĠPatrick	8431
Ġsuffer	8432
Ġsettings	8433
ĠMake	8434
âĢĶâĢĶâĢĶâĢĶ	8435
alling	8436
Ġsalary	8437
han	8438
case	8439
Ġlicens	8440
Ġroof	8441
mary	8442
GO	8443
Ġtweeted	8444
angel	8445
'.	8446
Ġpublication	8447
Ġbrill	8448
Ġfactory	8449
Ġsuspected	8450
Ġpurchased	8451
Ġintervention	8452
aret	8453
Ġeastern	8454
Ġholiday	8455
type	8456
2014	8457
Ġprompt	8458
esh	8459
Ġtheat	8460
About	8461
Ġdispl	8462
Ġranked	8463
ĠBudd	8464
Ġneck	8465
ĠAustin	8466
ĠConservative	8467
ĠMuseum	8468
ĠRoy	8469
")	8470
Ġcro	8471
Ġenormous	8472
Sen	8473
####	8474
intendo	8475
Ġcogn	8476
Ġlogic	8477
ultural	8478
ictions	8479
ĠAPI	8480
Ġimprovement	8481
Ġviewed	8482
Ġingred	8483
Ġentertainment	8484
Ass	8485
Ġlegitimate	8486
ĠProfessor	8487
ommod	8488
Ġpresum	8489
ĠAlbert	8490
ĠMassachusetts	8491
ĠBall	8492
Ġ2019	8493
Ġwww	8494
News	8495
Ġactors	8496
Ġsubstantial	8497
Ġhumanity	8498
Ġinvolves	8499
Ġresource	8500
arms	8501
Ġbrothers	8502
Ġliquid	8503
Ġrational	8504
Ġseemingly	8505
Ġsorry	8506
Ġlayer	8507
Ġloans	8508
Ġrook	8509
Ġinvestigating	8510
Ġabsence	8511
Ġproviders	8512
Ġtomorrow	8513
Ġbureau	8514
Ġfallen	8515
rec	8516
Ġgrounds	8517
Ġcoaches	8518
Ġstake	8519
Ġresign	8520
Ġouts	8521
Ġadvocates	8522
ĠâĤ¬	8523
RC	8524
Ġinvestigators	8525
Ġconspiracy	8526
Ġdramatic	8527
Ġmedicine	8528
Where	8529
Ġfulf	8530
Ġmonitor	8531
ĠChair	8532
repre	8533
EST	8534
Ġchapter	8535
ĠSeason	8536
Ġcoc	8537
oval	8538
Ġovers	8539
GE	8540
lah	8541
plete	8542
.-	8543
Ġactivist	8544
ped	8545
Ġboat	8546
ĠCheck	8547
aka	8548
ĠControl	8549
Ġjur	8550
Ġsuspended	8551
Ġpapers	8552
Script	8553
ĠGreece	8554
Ġopinions	8555
ĠSuch	8556
ĠRoss	8557
Ġmissile	8558
ĠGolden	8559
Ġceleb	8560
ĠRevolution	8561
2016	8562
Ġstayed	8563
Ġcovers	8564
ĠHead	8565
Ġdiversity	8566
iverpool	8567
otype	8568
Ġbars	8569
Ġgam	8570
Russ	8571
rets	8572
Ġje	8573
xit	8574
Ġembarrass	8575
Ġoffices	8576
ĠAcc	8577
ourse	8578
ĠPot	8579
claim	8580
Part	8581
hot	8582
ĠIranian	8583
ammed	8584
Ġdisrupt	8585
cover	8586
ĠWW	8587
Ġpreced	8588
mat	8589
Ġpoly	8590
Ġforest	8591
wered	8592
Ġcareful	8593
ĠAp	8594
reprene	8595
vard	8596
Ġamid	8597
ĠHistory	8598
79	8599
ĠHo	8600
ĠHospital	8601
isting	8602
ĠAle	8603
Ġauthent	8604
quest	8605
ĠIllinois	8606
ĠCBS	8607
ĠSony	8608
uction	8609
Ġham	8610
geon	8611
Related	8612
dit	8613
72	8614
74	8615
rine	8616
Ġtransportation	8617
ĠVancouver	8618
ĠGaza	8619
Ġhanded	8620
Ġprotocol	8621
Ġconsistently	8622
Ġmountain	8623
Ġ52	8624
Ġreads	8625
ĠStat	8626
Ġpref	8627
Ġclothes	8628
Ġattitude	8629
iability	8630
ection	8631
ĠPo	8632
ĠShare	8633
ĠKennedy	8634
Ġporn	8635
Ġprincip	8636
ĠFreedom	8637
bi	8638
Ġdepends	8639
Ġmining	8640
Ġpetition	8641
Ġnoting	8642
Ġconce	8643
des	8644
Ġcolors	8645
Ġlowest	8646
ĠAnderson	8647
Ġwarrant	8648
Ġaddressed	8649
ĠTri	8650
ĠFamily	8651
unes	8652
Ġentr	8653
ĠRa	8654
ptions	8655
xx	8656
ĠStadium	8657
Ġthrowing	8658
Ġvirtually	8659
Ġfruit	8660
!)	8661
Ġstone	8662
Ġfoss	8663
ĠMean	8664
Ġguarantee	8665
Ġreferend	8666
Both	8667
Ġspeaks	8668
ĠBaltimore	8669
inch	8670
??	8671
Ġsteel	8672
Ġclosing	8673
Ġreader	8674
FF	8675
dri	8676
Ġbuff	8677
Ġpersonality	8678
ĠCre	8679
Ġappreciate	8680
Ġsurf	8681
ĠIraqi	8682
pton	8683
ĠEnvironment	8684
Ġnerv	8685
iences	8686
maker	8687
keep	8688
Ġkm	8689
Ġhandling	8690
Ġprofits	8691
Ġgrav	8692
ordon	8693
low	8694
Ġmarks	8695
Ġtries	8696
ĠBroad	8697
ĠExt	8698
Ġcontributions	8699
ĠEngine	8700
ropri	8701
zed	8702
Ġspiritual	8703
Ġconversations	8704
ĠTro	8705
Ġfantastic	8706
Ġlands	8707
Ġconsole	8708
ila	8709
Ġhorror	8710
ppers	8711
".[	8712
icity	8713
Ġgains	8714
Her	8715
Ġcovering	8716
Ġtea	8717
ivals	8718
ĠHarris	8719
Ġastron	8720
Ġhint	8721
aval	8722
Ġshoulder	8723
scale	8724
Ġwrest	8725
Ġguest	8726
ĠBad	8727
Ġaccommod	8728
uted	8729
uits	8730
Ġdepression	8731
Ġ_	8732
ĠCA	8733
ĠLewis	8734
Ġlucky	8735
ĠBang	8736
Ġencouraged	8737
flix	8738
amac	8739
Ġjudges	8740
Ġincidents	8741
ĠCleveland	8742
Ġdrew	8743
Ġsubsequent	8744
ira	8745
Ġspoken	8746
ĠRen	8747
ĠHoward	8748
Ġbrown	8749
Ġbacter	8750
Please	8751
ixed	8752
annels	8753
Ġranks	8754
Ġrhet	8755
ĠGetty	8756
Ġphotograp	8757
Ġinflation	8758
Ġinner	8759
ĠIntelligence	8760
eding	8761
itting	8762
ĠBa	8763
Ġmaps	8764
abeth	8765
ĠPatri	8766
ported	8767
ijing	8768
plate	8769
Ġdivided	8770
Ġ1995	8771
ĠNATO	8772
********	8773
Ġparalle	8774
Ġdrama	8775
ĠMexican	8776
Ġdistributed	8777
Ġgal	8778
Ġinnovation	8779
Ġswing	8780
Ġcust	8781
unicip	8782
ĠUnfortunately	8783
Ġpremium	8784
Ġpermit	8785
Ġvoter	8786
Ġrevel	8787
ĠKong	8788
Ġtrem	8789
Ġdance	8790
Ġclim	8791
pled	8792
ĠLas	8793
Ġefficiency	8794
ĠIndeed	8795
Ġpromises	8796
Note	8797
ĠCH	8798
ĠWhich	8799
Ġballot	8800
Ġ51	8801
Ġtemperatures	8802
ĠSamsung	8803
Ġportray	8804
Ġspokesperson	8805
Ġlocked	8806
Ġlying	8807
Ġimproving	8808
Ġthrew	8809
Ġjoy	8810
Ġdump	8811
Ġmusical	8812
PP	8813
Ġmistakes	8814
dated	8815
Ġshout	8816
conf	8817
Ġhomeless	8818
Ġreplacement	8819
eries	8820
ĠStart	8821
Ġcomedy	8822
Ġchecks	8823
ĠMoon	8824
ĠWithout	8825
Ġinstrument	8826
ounce	8827
ĠConnect	8828
Ġacknowledged	8829
Ġbarrel	8830
Ġresponses	8831
Ġprotecting	8832
backs	8833
ĠDet	8834
ÂĴ	8835
Ġsilver	8836
Ġcopies	8837
heim	8838
Ġles	8839
ĠAC	8840
Ġdad	8841
Ġbreaks	8842
ĠPlus	8843
ĠBuff	8844
Ke	8845
Ġcommonly	8846
Ġlets	8847
Ġlegacy	8848
itage	8849
Ġprotein	8850
Ġmathem	8851
Ġjoke	8852
amacare	8853
erted	8854
hop	8855
Ġpassengers	8856
2015	8857
Ġyellow	8858
ĠMarvel	8859
Ġnaturally	8860
Your	8861
ĠScient	8862
Ġnomination	8863
Source	8864
Ġmeasured	8865
aping	8866
oded	8867
alia	8868
ĠUse	8869
Ġabandoned	8870
Ġmad	8871
ĠPrince	8872
Ġstudied	8873
800	8874
ĠFootball	8875
Art	8876
helsea	8877
asted	8878
Ġdiverse	8879
Ġrom	8880
argo	8881
Ġacquired	8882
ĠLyn	8883
ieties	8884
Cons	8885
ĠMarsh	8886
Ġsoil	8887
Ġdemonstrated	8888
Ġrear	8889
Ġfunded	8890
Ġheadquarters	8891
hesis	8892
esty	8893
Ġstolen	8894
yo	8895
Ġscan	8896
yer	8897
Ġcounts	8898
Ġtape	8899
Ġpartnership	8900
Ġmidfield	8901
ĠNOT	8902
Ġ(âĢľ	8903
Ġupgrade	8904
ĠCost	8905
ĠAtlantic	8906
Ġmarch	8907
Ġordinary	8908
ĠAud	8909
ĠNev	8910
aware	8911
Ġliterature	8912
Ġplain	8913
Ġstages	8914
ĠâĢ¢	8915
Ġassert	8916
Ġ1994	8917
high	8918
ĠAI	8919
Ġhelpful	8920
Ġarrive	8921
Ġexit	8922
Ġscope	8923
Ġfalls	8924
63	8925
dog	8926
Ġignored	8927
BM	8928
Ġtwenty	8929
eters	8930
ĠMaster	8931
Ġclock	8932
Ġcompe	8933
inction	8934
Ġvirus	8935
ĠTrib	8936
Ġreferendum	8937
Ġinequ	8938
Ġunions	8939
ĠDoes	8940
assador	8941
Ġconservatives	8942
ĠGun	8943
Ġrif	8944
Ġgrid	8945
Ġsymp	8946
Ġfestival	8947
Ġfro	8948
Ġshopping	8949
Ġwaters	8950
ĠPop	8951
Ġcapabilities	8952
ĠBron	8953
Ġax	8954
lahoma	8955
ĠHind	8956
Ġusage	8957
iate	8958
zing	8959
ĠEmpire	8960
aeda	8961
ĠAbb	8962
ington	8963
ĠIndiana	8964
iley	8965
Ġtransactions	8966
Ġhoped	8967
erg	8968
Ġdistract	8969
Ġguitar	8970
VE	8971
ĠEag	8972
ctic	8973
Ġsty	8974
Ġramp	8975
Ġassessment	8976
Ġuniversities	8977
ĠDave	8978
Ġmoon	8979
ormal	8980
Ġmonitoring	8981
acket	8982
bridge	8983
Ġrepresenting	8984
Facebook	8985
ĠDeath	8986
Ġratio	8987
encing	8988
62	8989
ught	8990
ĠProv	8991
ĠAst	8992
orge	8993
ji	8994
Ġconventional	8995
comes	8996
UST	8997
ĠSet	8998
Ġtrave	8999
Ġtracking	9000
door	9001
ntil	9002
pie	9003
ĠSometimes	9004
61	9005
only	9006
shire	9007
Ġhung	9008
ĠSus	9009
Ġreliable	9010
Ġtie	9011
Ġproposals	9012
Ġskept	9013
Ġreplied	9014
uh	9015
ĠRos	9016
Ġcriticized	9017
Ġappearances	9018
rimin	9019
ecutive	9020
Ġracism	9021
Ġinsisted	9022
organ	9023
Ġ2020	9024
Ġintroduction	9025
Ġappointed	9026
dney	9027
ĠBureau	9028
olph	9029
agic	9030
ĠPass	9031
cut	9032
ĠLine	9033
Ġbeauty	9034
Ġconcrete	9035
Ġreceiver	9036
fund	9037
Ġsupplies	9038
Ġperforming	9039
made	9040
Ġbub	9041
Ġexch	9042
rite	9043
ĠHa	9044
ĠHell	9045
Ġvisiting	9046
ĠTechnology	9047
ĠDenver	9048
ocument	9049
EE	9050
theless	9051
omes	9052
ĠCapt	9053
RL	9054
Ġletting	9055
AND	9056
Ġdeficit	9057
Ġclassified	9058
ĠGalaxy	9059
Ġrender	9060
HT	9061
Ġabsor	9062
ĠOrig	9063
Ġswim	9064
Ġaccomplish	9065
Ġauto	9066
Ġprogramme	9067
Ġpresidency	9068
crib	9069
Ġblocked	9070
ĠSweden	9071
ĠJam	9072
Ġec	9073
archy	9074
Ġdust	9075
ĠUtah	9076
Ġdrove	9077
Ġlandscape	9078
Ġcance	9079
ĠPortland	9080
plus	9081
Ġdismissed	9082
ĠLA	9083
Ġhyper	9084
Ġabroad	9085
Ġbonus	9086
ĠTour	9087
Ġsequence	9088
Ġpredicted	9089
Ġsenator	9090
Â°	9091
ela	9092
ĠAge	9093
Ġwarn	9094
Ġdomain	9095
ĠCode	9096
ĠBon	9097
Ġmuseum	9098
ĠAssociated	9099
Ġpersons	9100
NS	9101
Ġdub	9102
aga	9103
Ġrequested	9104
Ġtrigger	9105
ĠOntario	9106
iano	9107
ĠCorpor	9108
Ġhockey	9109
Ġartific	9110
Ġdates	9111
Ġtestimony	9112
Ġcenters	9113
Ð»	9114
Ġrocket	9115
irts	9116
Ġves	9117
Ġtransit	9118
Ġcongressional	9119
Ġentitled	9120
ultane	9121
acco	9122
Ġspokeswoman	9123
ĠFront	9124
ĠNintendo	9125
ĠAlexander	9126
Ġrescue	9127
ĠCooper	9128
mony	9129
Ġassign	9130
Ġequality	9131
Ġpatch	9132
Ġurged	9133
afe	9134
Ġbread	9135
ĠOlympic	9136
Ġdocumentary	9137
Ġveterans	9138
Ġclar	9139
fol	9140
93	9141
king	9142
ĠâĢĿ	9143
Ġrecall	9144
Ġpopulations	9145
94	9146
ais	9147
Ġbreath	9148
ĠLow	9149
Still	9150
92	9151
ounding	9152
rooms	9153
Are	9154
Ġwhenever	9155
Ġviolation	9156
Ġtactics	9157
Ġwider	9158
71	9159
Ġtargeting	9160
Yet	9161
through	9162
Ġpursue	9163
">	9164
Ġsalt	9165
Ġfiring	9166
izabeth	9167
don	9168
ĠMill	9169
Comp	9170
Ġacid	9171
har	9172
Ġmole	9173
inating	9174
Ġrestaurants	9175
Ġcompare	9176
73	9177
fare	9178
orous	9179
Ġwedd	9180
ennis	9181
ective	9182
Ġemployed	9183
ĠRoberts	9184
Ġcontrad	9185
ĠBible	9186
Ġpolitically	9187
Ġphrase	9188
Ġsatellite	9189
ĠCro	9190
Ġsurvival	9191
Ġretirement	9192
Ġbanking	9193
ĠForm	9194
isons	9195
ĠGirl	9196
Ġbrilliant	9197
Ġchannels	9198
Ġservers	9199
ĠBeijing	9200
Ġsoccer	9201
trans	9202
ĠMach	9203
they	9204
Ġintroduce	9205
ĠJustin	9206
atar	9207
Ġexperiments	9208
aver	9209
enez	9210
Ġprisoners	9211
rapped	9212
Ġcig	9213
ĠWH	9214
jud	9215
Ġfighter	9216
600	9217
Ġscientist	9218
OK	9219
ĠYOU	9220
usalem	9221
ĠList	9222
Ġsubmit	9223
Ġapproached	9224
ĠAward	9225
Ġmonthly	9226
ĠLiverpool	9227
rell	9228
Ġdesigns	9229
Ġrepresentatives	9230
Ġcul	9231
Ġtitled	9232
ordinary	9233
Ġquote	9234
Ġpopularity	9235
olves	9236
Ġabilities	9237
oenix	9238
ĠPD	9239
Ġmembership	9240
Ġinvestigations	9241
Ġfocusing	9242
pa	9243
mans	9244
Ġbab	9245
Ġhosp	9246
ĠBridge	9247
Though	9248
ĠMaryland	9249
ĠAdv	9250
Ġsaving	9251
Ġrush	9252
ĠGovernor	9253
Ġmit	9254
Ġshadow	9255
bow	9256
ouri	9257
ĠHur	9258
ĠBase	9259
Ġobjective	9260
berry	9261
ĠTed	9262
Ġencry	9263
erts	9264
ederation	9265
Ġprepar	9266
Ġtips	9267
ĠWas	9268
Ġpipeline	9269
David	9270
Ġchildhood	9271
ika	9272
Ġratings	9273
Ġthorough	9274
Ġentreprene	9275
ĠKar	9276
enter	9277
ĠVill	9278
tel	9279
ĠDutch	9280
was	9281
break	9282
emed	9283
Ġactively	9284
ĠHarvard	9285
ĠSom	9286
Ġpig	9287
Ġdemanding	9288
Ġloose	9289
ĠBra	9290
Ġunexpected	9291
CO	9292
Ġsmoking	9293
Ġsmell	9294
Ġdeny	9295
Ġuniversal	9296
Ġforecast	9297
Ġargues	9298
Ġphenomenon	9299
Ġoverseas	9300
mers	9301
olds	9302
Ġsettled	9303
walk	9304
ĠBeck	9305
Ġgenerations	9306
Ġchicken	9307
Ġweekly	9308
Ġpreparing	9309
Ġ95	9310
Ġsmartphone	9311
Ġproducers	9312
Ġbutt	9313
ĠPA	9314
Ġlegislative	9315
ĠCry	9316
Ġanxiety	9317
ĠHave	9318
Ġdisturb	9319
Ġinnocent	9320
ĠClick	9321
minute	9322
Ġmortg	9323
Ġcelebrate	9324
Dem	9325
iki	9326
Ġprovision	9327
ĠDO	9328
Ġkeys	9329
ĠUr	9330
ded	9331
Ġshame	9332
Ġarguing	9333
ĠDesign	9334
held	9335
Ġquestioned	9336
Ġforcing	9337
ĠCow	9338
ĠHop	9339
agh	9340
ompson	9341
âĶ	9342
Ġbroader	9343
Ġencounter	9344
Ġflags	9345
SL	9346
Ġfool	9347
Ġmac	9348
Ġ53	9349
Ġdeadly	9350
Ġfur	9351
84	9352
Ġreverse	9353
Ġweigh	9354
ĠEdward	9355
ĠAmong	9356
Ġtens	9357
Ġ~	9358
Ġmos	9359
Ġwealthy	9360
ĠObamacare	9361
Ġunpre	9362
Ġmaintained	9363
Ġsurely	9364
Ġshield	9365
ĠProp	9366
ocolate	9367
oret	9368
Ġsecondary	9369
isa	9370
aved	9371
Sim	9372
Ġsavings	9373
irlf	9374
Ġstability	9375
Ġcivilian	9376
Ġtab	9377
Äĥ	9378
ĠCarter	9379
Ġreveals	9380
mind	9381
Ġmini	9382
elson	9383
Ġalarm	9384
Ġanniversary	9385
Ġsorts	9386
ĠAk	9387
vernment	9388
El	9389
Ġtonight	9390
Ġreleases	9391
isk	9392
ĠHon	9393
Ġrooms	9394
irlfriend	9395
ĠGulf	9396
Ġoutrage	9397
Ġprosecutors	9398
ĠLeft	9399
ois	9400
ele	9401
Ġdisorder	9402
inals	9403
Ġexha	9404
orious	9405
Ġshr	9406
Ġrelax	9407
Ġwindows	9408
Ġthreatening	9409
Ġdifferently	9410
Ġharassment	9411
Ġquoted	9412
Ġhealthcare	9413
Ġsubmitted	9414
Ġarbit	9415
Ġlunch	9416
step	9417
itter	9418
ĠRun	9419
Ġreforms	9420
Ġtorture	9421
rection	9422
Ġfate	9423
Ġstored	9424
Ġokay	9425
ĠBelg	9426
Ġpropaganda	9427
Ġspots	9428
Ġinstructions	9429
ĠVietnam	9430
Ġsevent	9431
Ġrounds	9432
Ġodds	9433
Ġ1992	9434
Ġaer	9435
html	9436
tenance	9437
aa	9438
Ġerrors	9439
ĠOklahoma	9440
Ġhydro	9441
icism	9442
GA	9443
Ġdelic	9444
ailed	9445
ĠLiberal	9446
Ġsilence	9447
ĠGraham	9448
acts	9449
ĠWarren	9450
Ġgraduate	9451
ĠSab	9452
Ġcircle	9453
Ġaffordable	9454
sect	9455
ĠBloom	9456
oz	9457
Ġcooperation	9458
Ġpicks	9459
Ġsear	9460
itary	9461
ĠSarah	9462
ĠFall	9463
orship	9464
ĠExpl	9465
Ġstriking	9466
Ġpuzz	9467
van	9468
Ġpersu	9469
Ġstreaming	9470
Ġcomprehensive	9471
Ġimportantly	9472
Ġcow	9473
Ġpossess	9474
Watch	9475
Ġfing	9476
Ġexecution	9477
ĠRuby	9478
lined	9479
rows	9480
Ġintim	9481
Ġstruggled	9482
ĠPerson	9483
ĠSilver	9484
Ġassass	9485
ĠLeader	9486
uten	9487
ahu	9488
Ġgent	9489
Ty	9490
ĠPrice	9491
Reuters	9492
ishop	9493
Ġdeserve	9494
ĠJerusalem	9495
Ġlanding	9496
Ġcalm	9497
Ġalter	9498
Ġhal	9499
Ġceremony	9500
Ġassumed	9501
Ġdemonstrate	9502
Ġdifficulty	9503
fr	9504
83	9505
Ġages	9506
Ġpron	9507
Ġdying	9508
Ġdistingu	9509
asury	9510
ethe	9511
Ġstepped	9512
Ġborders	9513
asting	9514
Ġchest	9515
ĠWolf	9516
ĠLt	9517
Ġadventure	9518
Ġpointing	9519
Ġwaves	9520
ova	9521
ĠDeb	9522
Ġkilomet	9523
essee	9524
ierce	9525
ĠNetflix	9526
atern	9527
Ġautonom	9528
Ġprecisely	9529
Ġarchitecture	9530
Ġgreatly	9531
bury	9532
Ġpromising	9533
Ġconsent	9534
eals	9535
Ġconsideration	9536
Ġdrives	9537
Ġdialogue	9538
ĠMain	9539
Ġtremend	9540
ĠTen	9541
ĠBud	9542
Ġnewsletter	9543
Ġrookie	9544
asant	9545
Ġawarded	9546
ĠMeanwhile	9547
after	9548
Ġrepeat	9549
ĠStory	9550
Ġcontribution	9551
ĠTele	9552
Ġburning	9553
party	9554
Ġsimultane	9555
ĠScottish	9556
ĠVice	9557
akh	9558
Ġdonations	9559
ĠIndust	9560
Ġinterf	9561
itol	9562
ĠMagic	9563
Ġvoices	9564
Ġanalyst	9565
ĠBruce	9566
ĠTech	9567
ceptions	9568
Ġgif	9569
Ġfrequency	9570
ĠCommon	9571
Ġprocedure	9572
Ġwanting	9573
ĠPres	9574
Ġexecutives	9575
Ġplayoffs	9576
oice	9577
Ġstaying	9578
lee	9579
apolis	9580
Ġbirds	9581
Ġbias	9582
iev	9583
VD	9584
ĠHong	9585
ĠAz	9586
izer	9587
Ġinches	9588
Ġtrillion	9589
omy	9590
holders	9591
Ġhighlights	9592
Ġsemi	9593
Ġremarkable	9594
Ġwhereas	9595
EX	9596
ributes	9597
ĠPalestinians	9598
Ġknee	9599
open	9600
Ġans	9601
ĠJonathan	9602
raig	9603
scribe	9604
Ġimplications	9605
Ġformation	9606
Ġsuperior	9607
Ġstrategies	9608
itual	9609
ĠBerlin	9610
ĠLink	9611
div	9612
ĠSydney	9613
stal	9614
ĠMORE	9615
ĠArk	9616
Ġcategories	9617
Ġfet	9618
Ġfollowers	9619
Ġcream	9620
Story	9621
FO	9622
portation	9623
Ġcontacted	9624
Ms	9625
Ġjudgment	9626
annon	9627
yes	9628
Ġsmile	9629
Ġinfo	9630
Ġemerging	9631
igious	9632
rif	9633
js	9634
onder	9635
omed	9636
bered	9637
vision	9638
ĠEff	9639
vertisements	9640
iffs	9641
Ġaccessible	9642
hatt	9643
Ġcrimin	9644
TP	9645
Ġassigned	9646
Ġphysically	9647
Ġ54	9648
Ġguidelines	9649
Ġdefeated	9650
Ġwounded	9651
Ġstem	9652
Ġtrials	9653
Ġmanaging	9654
Ġspell	9655
Ġministry	9656
Ġgrade	9657
Ġcoinc	9658
Ġriding	9659
Ġcenturies	9660
Ġindicates	9661
Christ	9662
cest	9663
ĠAffairs	9664
Ġopens	9665
aki	9666
Ġpharm	9667
->	9668
Ġmeaningful	9669
Ġtiss	9670
ĠMrs	9671
Ġease	9672
child	9673
Ġmargin	9674
ĠStore	9675
Ġclothing	9676
ĠSix	9677
ĠâĪĴ	9678
ĠTes	9679
ĠCapital	9680
Ġparticipation	9681
cedented	9682
Mus	9683
Ġrevers	9684
aria	9685
Int	9686
Ġpoison	9687
ĠBrexit	9688
Ġ120	9689
ĠYemen	9690
Ġlapt	9691
Ġcompeting	9692
Ġmemories	9693
ĠCS	9694
Ġtheories	9695
Ġrecipe	9696
Ġgross	9697
author	9698
umble	9699
hard	9700
91	9701
Ġpassage	9702
sl	9703
Ġaged	9704
ĠCredit	9705
Ġbin	9706
Ġdrone	9707
Ġblank	9708
Ġdispute	9709
Ġdamaged	9710
Ġ1993	9711
ĠHamilton	9712
base	9713
Ġhosted	9714
Ġsubstance	9715
TER	9716
Google	9717
ĠChelsea	9718
Ġpromoting	9719
Ġfacilit	9720
Ġopenly	9721
ĠInstagram	9722
ĠLam	9723
Ġ1950	9724
ĠVik	9725
View	9726
ĠChildren	9727
ĠCrime	9728
Ġclinical	9729
Out	9730
Ġnic	9731
even	9732
eremy	9733
ĠHold	9734
bits	9735
erent	9736
Ġinvestments	9737
Ġconsensus	9738
ĠFal	9739
igate	9740
ĠLeon	9741
ses	9742
Ġeducational	9743
const	9744
Ġdish	9745
ito	9746
Ġmanifest	9747
Ġcustody	9748
82	9749
week	9750
Ġeligible	9751
ĠHawai	9752
Ġlegally	9753
Ġendorse	9754
Ġmissions	9755
Ġgate	9756
Ġmemo	9757
eria	9758
ĠGT	9759
Ġtables	9760
ĠPict	9761
Ġnin	9762
Ġstudying	9763
Hz	9764
adi	9765
Ġcharity	9766
aration	9767
Ġaddresses	9768
Ġ?	9769
Ġinspect	9770
Ġdiscount	9771
rix	9772
left	9773
Ġbattles	9774
ALL	9775
ĠDer	9776
Ġ250	9777
ĠAssembly	9778
Ġathletes	9779
ĠTrade	9780
Ġfossil	9781
Ġenthusi	9782
ĠManagement	9783
Pre	9784
Ġsuspects	9785
Ġtired	9786
iac	9787
Ġhelic	9788
Act	9789
Ġcounterpart	9790
Ġna	9791
Ġdating	9792
ĠEth	9793
Ġspectrum	9794
ĠMetro	9795
ateral	9796
ĠStation	9797
ĠBal	9798
Ġlux	9799
Ġpresentation	9800
gered	9801
Ġbottle	9802
Ġtap	9803
riors	9804
Ġvig	9805
Ġfundra	9806
Ġenhance	9807
ĠSean	9808
assy	9809
Ġtherapy	9810
ĠWales	9811
ĠExper	9812
Ġperceived	9813
market	9814
ĠTok	9815
Def	9816
math	9817
Ġbacking	9818
ĠFestival	9819
Ġunderlying	9820
Ġdefending	9821
ĠThrough	9822
Ġdiscussing	9823
Ġracing	9824
Ġburden	9825
Ġexpanding	9826
Ġmuscle	9827
Ġstops	9828
Ġdominant	9829
uz	9830
Ġbeings	9831
ĠMarx	9832
ĠEqu	9833
Ġtransaction	9834
achel	9835
ĠUber	9836
Ġ99	9837
Cal	9838
Ġrecruit	9839
itudes	9840
ĠGary	9841
Ġmood	9842
Ġpicking	9843
81	9844
lando	9845
ylum	9846
player	9847
acher	9848
Ġmanagers	9849
orable	9850
Ġgathering	9851
Ġhopefully	9852
angle	9853
ĠSon	9854
ĠMit	9855
alysis	9856
section	9857
ĠVideo	9858
Ġcrus	9859
ĠLibya	9860
Ġimpression	9861
olar	9862
Ġhip	9863
Ã¢	9864
Ġscrut	9865
Ġroy	9866
ĠTai	9867
Ġinstitution	9868
igenous	9869
ĠBatman	9870
}}	9871
Ġstere	9872
ĠBoe	9873
Ġprocedures	9874
ĠAndre	9875
Ã±	9876
Ġpocket	9877
Ġcreatures	9878
sa	9879
Ġcompat	9880
Ġarrival	9881
watch	9882
Ġeager	9883
Ġpollution	9884
iture	9885
Ġfoods	9886
Ġkitchen	9887
ocial	9888
Ġrecre	9889
Ġsurviv	9890
ĠMorgan	9891
roph	9892
Ġorganic	9893
ĠPentagon	9894
Ġshipping	9895
aders	9896
Ġcapitalism	9897
Ġtiming	9898
odox	9899
Ġinsult	9900
Ġrequirement	9901
ĠBi	9902
sub	9903
Ġunfair	9904
ĠOp	9905
Ġ56	9906
Ġmice	9907
ĠAssad	9908
Rem	9909
ĠRepresent	9910
ĠMess	9911
ĠMLS	9912
bing	9913
atively	9914
ĠElizabeth	9915
Ġdiseases	9916
Mod	9917
Ġindustries	9918
ĠOakland	9919
dy	9920
Ġbowl	9921
oln	9922
ĠMurray	9923
ĠCreat	9924
Ġsed	9925
Ġhelicop	9926
Ġdivor	9927
agger	9928
Ġbeach	9929
Ġpunishment	9930
abet	9931
Ġshell	9932
Ġfled	9933
***	9934
Ġhospitals	9935
missions	9936
Ġtons	9937
AF	9938
ĠKick	9939
Ġseed	9940
ogy	9941
ĠComey	9942
Ġterr	9943
opyright	9944
Ġstatist	9945
Ġengineers	9946
Ġhire	9947
Ġobsc	9948
SC	9949
Ġmodule	9950
AY	9951
amous	9952
Ġcoaching	9953
oca	9954
Ġanswered	9955
TR	9956
Ġgraphics	9957
Ġintr	9958
Ġregulatory	9959
Ġsovere	9960
Ġstance	9961
Ġbow	9962
ĠKeep	9963
alties	9964
Click	9965
Ġexplaining	9966
Ġrhetoric	9967
Ġbeating	9968
Ġtut	9969
ĠFriend	9970
ĠEmail	9971
rior	9972
ĠYeah	9973
Ge	9974
Ġacknowledge	9975
ĠMichel	9976
Ġprincipal	9977
Ġpulling	9978
erves	9979
Ġsignature	9980
brid	9981
olving	9982
Ġconvince	9983
een	9984
ĠRoll	9985
Ġvariable	9986
cosystem	9987
Ġpill	9988
Ġsearching	9989
ĠOx	9990
Ġdies	9991
Ġovercome	9992
Ġpreferred	9993
duction	9994
Ġsixth	9995
Ġadviser	9996
ĠTennessee	9997
Ġtrends	9998
ĠRussell	9999
Ġ("	10000
ĠThompson	10001
arre	10002
Ġmerch	10003
Ġrebels	10004
Ġinteraction	10005
Ġperiods	10006
ĠYan	10007
Ġpsychological	10008
Mich	10009
ĠSure	10010
emic	10011
ĠUsing	10012
Ġeconomics	10013
ĠCharlie	10014
Ġoutlets	10015
ĠGil	10016
ĠZe	10017
Ġsignals	10018
Ġecho	10019
ĠExecutive	10020
ĠKentucky	10021
Ġtempor	10022
Ġbillions	10023
pg	10024
Ġlineup	10025
Ġmath	10026
2013	10027
Ġ1991	10028
Ġsetup	10029
Ġrend	10030
Finally	10031
netic	10032
mic	10033
Ġeggs	10034
Ġsegment	10035
Ġbadly	10036
Ġarr	10037
kee	10038
ĠLi	10039
Ġsentenced	10040
Ġeveryday	10041
ĠDragon	10042
ĠJean	10043
Ġcommander	10044
ĠHart	10045
ĠHoll	10046
ĠAN	10047
ds	10048
Ġloves	10049
unicipal	10050
will	10051
Ġgenes	10052
NBC	10053
Ġbold	10054
Ġrequiring	10055
Ġbullet	10056
Ġinvasion	10057
Comm	10058
ĠIntel	10059
Ġpartly	10060
Ġescal	10061
check	10062
Ġgene	10063
Ġarts	10064
Ġremoval	10065
Ġundert	10066
Ġupload	10067
Ġinstant	10068
liest	10069
Ġtopics	10070
ĠIron	10071
Ġ!	10072
enezuel	10073
Ġinquiry	10074
Ġamendment	10075
Ġweakness	10076
ĠRather	10077
news	10078
Ġconcepts	10079
PL	10080
has	10081
Ġshoes	10082
ĠSound	10083
grade	10084
Ġfabric	10085
izza	10086
Earlier	10087
ĠDelhi	10088
tsburgh	10089
Ġfrequent	10090
via	10091
Ġsections	10092
cor	10093
Reg	10094
Ġoccurs	10095
oli	10096
Ġmigrants	10097
Ġcompensation	10098
ĠBox	10099
Ġengineer	10100
eness	10101
Ġgig	10102
Ġlad	10103
ĠFinally	10104
Ġfo	10105
Ġattractive	10106
Ġunve	10107
instein	10108
Ġ).	10109
ui	10110
Ġciting	10111
Ġtweets	10112
ĠMcK	10113
Ġutility	10114
arency	10115
Ġposting	10116
Ġridiculous	10117
Ġblockchain	10118
Ġcler	10119
ĠClark	10120
Ġspeaker	10121
âĶĢ	10122
Ġdiam	10123
gus	10124
Ø§	10125
Ġcorrupt	10126
Ġtalented	10127
Ġlect	10128
Ġcollaps	10129
Ġmask	10130
âĢĲ	10131
necess	10132
screen	10133
Ġnotable	10134
ĠTherefore	10135
Ġelder	10136
Ġgenre	10137
Ġdeadline	10138
Ġrolling	10139
ĠBM	10140
Ġcarries	10141
Top	10142
ĠFinal	10143
ĠET	10144
ental	10145
Ġapproaches	10146
Ġeliminate	10147
ĠPriv	10148
Ġanalysts	10149
Ġsits	10150
Ġcens	10151
State	10152
Ġinstances	10153
ĠSimon	10154
Ġpublishing	10155
Ġcolour	10156
Ġunprecedented	10157
Ġroots	10158
ĠPhoenix	10159
VP	10160
Ġcock	10161
Ġbene	10162
ĠPsych	10163
Ġtoxic	10164
ĠHeart	10165
Ġcollaboration	10166
Ġarc	10167
Ġinequality	10168
Ġneighbors	10169
Ġinsight	10170
Ġdramatically	10171
ĠHarper	10172
Ġhomosexual	10173
Ġprize	10174
Ġtowns	10175
Ġextraordinary	10176
Ġperception	10177
ĠGordon	10178
ĠPhill	10179
ĠWhether	10180
Ġparad	10181
Ġgest	10182
arget	10183
Ġmaintenance	10184
owski	10185
rowing	10186
ĠGO	10187
Ġcheaper	10188
isdom	10189
Ġassociate	10190
ĠGro	10191
Ġcoup	10192
Mark	10193
ĠEvent	10194
Ġsheet	10195
ĠBow	10196
ested	10197
ĠBelow	10198
ĠSav	10199
pack	10200
ĠCaptain	10201
Ġcognitive	10202
Ġencouraging	10203
Ġdreams	10204
ĠPers	10205
Ġseized	10206
Ġinterviewed	10207
Ġdeployed	10208
Ġcamps	10209
Ġviolations	10210
Ġcomics	10211
Ġconstitu	10212
ĠReagan	10213
Ġbuck	10214
Ġreserved	10215
Ġemployers	10216
Ġaims	10217
atus	10218
Ġfunctional	10219
Ġmystery	10220
Ġdisplayed	10221
Paul	10222
iban	10223
Ġspan	10224
Ġloop	10225
Ġdelight	10226
apore	10227
cre	10228
AB	10229
Ġtraged	10230
ĠEconomic	10231
ixture	10232
Ġ57	10233
ricane	10234
Ġglad	10235
Ġoccasionally	10236
Ġvend	10237
Ġexport	10238
TON	10239
Ġbirthday	10240
ĠSa	10241
gal	10242
lly	10243
Ġheroes	10244
Ġfatal	10245
estyle	10246
oga	10247
Ġcorrectly	10248
onz	10249
Ġprompted	10250
wa	10251
Ġstamp	10252
ĠCole	10253
Ġcontemporary	10254
ĠAccess	10255
ĠJenn	10256
Ġprospects	10257
oting	10258
vi	10259
endar	10260
Ġirre	10261
Ġrecommendations	10262
mir	10263
Ġdiplomatic	10264
throp	10265
ighth	10266
Ġpa	10267
Ġexclud	10268
Ġparallel	10269
Ġconstitution	10270
Ġdisappointed	10271
Ġadequ	10272
Ġmanufacturers	10273
ĠStaff	10274
Ġmoderate	10275
ĠEver	10276
ĠDog	10277
Ġecosystem	10278
Ġaccompan	10279
eling	10280
Ġdemanded	10281
Time	10282
Ġ85	10283
ĠGDP	10284
ĠPhotos	10285
Ġnose	10286
ĠMontreal	10287
ĠDick	10288
ailable	10289
Ġinterpre	10290
Ġpleased	10291
2017	10292
Ġlabour	10293
Ġlifetime	10294
ĠBrooklyn	10295
ĠTax	10296
ĠEst	10297
ĠReserve	10298
rock	10299
Ġcommunicate	10300
Ġfights	10301
Ġmodified	10302
Ġdrunk	10303
ĠOcean	10304
Ġsessions	10305
Ġwedding	10306
Ġknock	10307
Ġexplosion	10308
ĠLibrary	10309
Ġbiological	10310
Ġlanded	10311
ĠEPA	10312
Ġ58	10313
Ġrepair	10314
ĠAuthority	10315
Ġsubsc	10316
Ġrepresentation	10317
ĠGiven	10318
ĠBol	10319
Ġartificial	10320
250	10321
leans	10322
Fi	10323
Ġrelation	10324
Ġowns	10325
ĠKhan	10326
ixon	10327
ĠAntonio	10328
ĠDigital	10329
Ġlift	10330
agen	10331
Ġdesigner	10332
Ġrecon	10333
Thanks	10334
Ġemp	10335
Ġconsciousness	10336
Ġkicked	10337
ĠOrder	10338
Ġdefender	10339
Ġhanging	10340
Ġlessons	10341
hist	10342
Ġimposed	10343
ĠBul	10344
Ġguests	10345
Ġadopt	10346
Ġanonymous	10347
150	10348
Ġsli	10349
Ġconcerning	10350
fit	10351
wind	10352
ĠFive	10353
Ġpregnant	10354
incoln	10355
Ġunderground	10356
wed	10357
Ġmaintaining	10358
acre	10359
Ġasset	10360
ĠChannel	10361
ĠAlan	10362
Ġpunch	10363
ĠRome	10364
ols	10365
)<|	10366
bourne	10367
Ġshirt	10368
Ġingredients	10369
Update	10370
Ġcheese	10371
Ġintellig	10372
graph	10373
isition	10374
ĠConvention	10375
Ġinterior	10376
Ġpodcast	10377
ching	10378
Ġemotions	10379
":"	10380
human	10381
ĠArgent	10382
Ġabstract	10383
Ġcouples	10384
Ġlesson	10385
Ġcreature	10386
Ġresolve	10387
Ġshocked	10388
Ġoppose	10389
Whe	10390
Ġsummit	10391
ĠSU	10392
Ġperformances	10393
Ġvolunteers	10394
ĠBurn	10395
Dis	10396
some	10397
Ġsoldier	10398
Ñĥ	10399
Ġstimul	10400
Ġlogo	10401
à¤	10402
appropri	10403
bin	10404
Ġvocal	10405
Ġaccum	10406
wich	10407
Ġgirlfriend	10408
ĠProtection	10409
istant	10410
ĠDur	10411
ben	10412
ulty	10413
SE	10414
Ġjumped	10415
Ġannoy	10416
ĠPage	10417
Ġjihad	10418
Ġmile	10419
Ġnurs	10420
gate	10421
ĠLear	10422
user	10423
Ġmilitants	10424
Ġguid	10425
ĠMissouri	10426
Ġprofessionals	10427
Gener	10428
acles	10429
("	10430
ĠAnna	10431
ikh	10432
Instead	10433
Ġbutter	10434
ials	10435
Ġswit	10436
Ġrefers	10437
Ġdesktop	10438
Ġtraveling	10439
Ġlibr	10440
gets	10441
Ġisolated	10442
Ġforum	10443
Ġadvocate	10444
Ġexisted	10445
ĠLim	10446
Ġopposing	10447
ĠHan	10448
ĠCoal	10449
Ġrecalled	10450
Station	10451
ĠCase	10452
Next	10453
Israel	10454
Ġ600	10455
Ġintegration	10456
Ġdescribing	10457
Ġboxes	10458
ĠJavaScript	10459
ĠFant	10460
ĠOrleans	10461
early	10462
Ġstro	10463
ĠHal	10464
CD	10465
ĠMail	10466
Ġminimal	10467
tainment	10468
ĠCustom	10469
Ġconfused	10470
ĠSD	10471
umph	10472
abe	10473
Ġpeaceful	10474
Ġinherent	10475
odge	10476
cal	10477
Ġsurrounded	10478
elle	10479
rot	10480
owned	10481
Ġvert	10482
ĠCapitol	10483
hattan	10484
ĠHand	10485
commun	10486
Step	10487
Ġholes	10488
Ġmeal	10489
ĠRs	10490
dr	10491
Ġ1989	10492
Ġintegrity	10493
ĠBan	10494
ĠKnow	10495
ĠPlayer	10496
Ġpm	10497
Ġinspiration	10498
Ġconfiguration	10499
Ġsne	10500
ĠTrust	10501
ðŁ	10502
hero	10503
Ġexpense	10504
Ġcredits	10505
ĠNon	10506
Ġsubur	10507
Ġelectoral	10508
Ġideology	10509
Ġdual	10510
Ġyell	10511
Ġsilent	10512
ĠMarine	10513
ĠDoctor	10514
Ġstack	10515
ĠBarb	10516
Ġsuspic	10517
ext	10518
Ġburied	10519
ĠNevada	10520
iens	10521
TE	10522
Ã§	10523
imize	10524
Ġdesperate	10525
ĠOcc	10526
starter	10527
Ðº	10528
Ġscream	10529
Ġclip	10530
Ġchoosing	10531
Ġbombs	10532
Trans	10533
ĠCB	10534
Ġbands	10535
Ġteammates	10536
Ġfleet	10537
ĠSH	10538
âĢ¦.	10539
Ġconvert	10540
tra	10541
Ġacceptable	10542
ĠOrlando	10543
ibl	10544
Ġjer	10545
ĠWright	10546
Ġregistration	10547
List	10548
Gu	10549
ĠEve	10550
ĠPortug	10551
ĠHitler	10552
Ġbrutal	10553
SU	10554
awks	10555
Net	10556
ĠMove	10557
Ġscar	10558
Ġancest	10559
ĠOnline	10560
ĠAlliance	10561
election	10562
too	10563
Ġsubscribe	10564
Ġstruggles	10565
Ġkeyboard	10566
Ġmomentum	10567
ĠLeban	10568
ĠArea	10569
aro	10570
Ġpromotion	10571
ĠArsenal	10572
ĠVen	10573
Ġevident	10574
Fl	10575
Ġquit	10576
hire	10577
Name	10578
father	10579
Ġorganisation	10580
ĠIndones	10581
Ġwondering	10582
Ġclosest	10583
mits	10584
ĠSteel	10585
Ġembrace	10586
books	10587
ĠFollowing	10588
ĠHamp	10589
Ġrefugee	10590
Ġteeth	10591
ART	10592
Ġprobe	10593
Ġutter	10594
Speaking	10595
Ġathe	10596
chell	10597
ĠWord	10598
Ġoccasional	10599
Ġmonster	10600
strong	10601
Ġassembly	10602
Ġbankrupt	10603
Ġreferences	10604
Ġjournalism	10605
isd	10606
Ġexpenses	10607
Ġsubsequently	10608
grad	10609
stop	10610
oker	10611
Ġpride	10612
Ġguards	10613
Ġinterpretation	10614
ĠVenezuel	10615
Ġyeah	10616
ï¼	10617
Ġlin	10618
Gl	10619
hr	10620
ĠMun	10621
Ġorbit	10622
Ġremoving	10623
ĠIndependent	10624
ĠWrit	10625
Ġprofound	10626
ipedia	10627
2012	10628
ĠPittsburgh	10629
Ġcompromise	10630
Ġknife	10631
Ġdistricts	10632
Ġexclusively	10633
Ġsurvived	10634
ĠSource	10635
Ġconsiderable	10636
Ġmathemat	10637
Ġstating	10638
Ġengaging	10639
ĠCould	10640
Ġrefuse	10641
Ġbird	10642
Ġcharacteristics	10643
ĠMountain	10644
Ġlobb	10645
Gr	10646
ĠRaj	10647
Ġjustify	10648
HP	10649
Ġdominated	10650
Ġ72	10651
Ġprost	10652
ĠNazi	10653
Ġbriefly	10654
bound	10655
arson	10656
ĠRest	10657
Ġchip	10658
Ġministers	10659
QL	10660
Ġelectron	10661
rend	10662
Ġtremendous	10663
Ġcontrary	10664
Ġsustainable	10665
Share	10666
Ġloaded	10667
Ġflour	10668
Ġdisappear	10669
Ġnervous	10670
Ġgri	10671
Ġroutes	10672
orneys	10673
Ġproportion	10674
otte	10675
Ġsophistic	10676
attered	10677
Ġexecuted	10678
ocated	10679
ĠDuke	10680
utter	10681
Ġasylum	10682
ĠEveryone	10683
Ġgameplay	10684
Ġsexually	10685
Thank	10686
Hey	10687
amine	10688
Ġpir	10689
inst	10690
Ġdonors	10691
ĠBu	10692
Ġconfusion	10693
ĠDream	10694
Ġrevolutionary	10695
cap	10696
ĠAaron	10697
elve	10698
ĠAndy	10699
Ġcurious	10700
ĠTreasury	10701
Ġharsh	10702
limited	10703
lihood	10704
income	10705
KE	10706
Ġattending	10707
Ġ800	10708
ĠAdams	10709
immer	10710
ĠIM	10711
Ã¨	10712
security	10713
UC	10714
Ġspeakers	10715
Ã³n	10716
Ġcabinet	10717
reek	10718
Ġnowhere	10719
inge	10720
Ġflee	10721
Ġvoid	10722
Ġbrands	10723
Ġchronic	10724
Ġprinted	10725
ĠTesla	10726
Ag	10727
oub	10728
Ġcharging	10729
Ġengines	10730
reck	10731
Ġphysics	10732
anim	10733
ĠHaving	10734
urse	10735
ĠAlp	10736
Ġconcert	10737
scar	10738
function	10739
ĠSheriff	10740
Ġoutcomes	10741
ĠAren	10742
ĠOfficer	10743
MAN	10744
ublished	10745
olid	10746
ĠMult	10747
Ġorient	10748
Ġmirror	10749
Ġstrengthen	10750
ĠGib	10751
thood	10752
Ġfails	10753
Ġspo	10754
ĠJun	10755
.]	10756
Ġobser	10757
Ġchaos	10758
Ġpassenger	10759
ĠiPad	10760
ĠCurrent	10761
Ġcriminals	10762
Ġfel	10763
ĠSpir	10764
Ġsteady	10765
ĠRobinson	10766
700	10767
Red	10768
ĠNether	10769
merce	10770
ĠÂ±	10771
Ġrobust	10772
ĠCON	10773
ĠManhattan	10774
white	10775
IE	10776
Ġendors	10777
Ġspeculation	10778
ĠChange	10779
ĠShort	10780
reshold	10781
Ġcertific	10782
Ġdeemed	10783
ĠTaliban	10784
Ġdropping	10785
Ġhiring	10786
ĠNorm	10787
ĠGiants	10788
ĠSingapore	10789
Cor	10790
Ġintegrated	10791
ĠPerry	10792
Ġpresents	10793
ĠTs	10794
ĠBand	10795
Ġavo	10796
ĠFA	10797
Ġguaranteed	10798
apper	10799
Ġfert	10800
Ġepic	10801
Ġleaked	10802
ĠKings	10803
Ġpackages	10804
mble	10805
Ġpleasure	10806
BN	10807
opt	10808
Ġsuspension	10809
Ġchallenged	10810
Ġpacked	10811
good	10812
Ġchecking	10813
à¸	10814
Ġbits	10815
Ġvit	10816
ĠKit	10817
Ġengagement	10818
Ġradiation	10819
Ġslot	10820
Ġbombing	10821
leep	10822
Ġpatri	10823
Ġalert	10824
Ġda	10825
Pal	10826
istle	10827
ĠHu	10828
Ġwet	10829
rics	10830
Ġhunting	10831
ĠTel	10832
ĠUSB	10833
riv	10834
Äģ	10835
ÃĥÃĤÃĥÃĤÃĥÃĤÃĥÃĤ	10836
Ġproduces	10837
Ġwitnesses	10838
ĠCraig	10839
ophob	10840
ĠPant	10841
Ġeditorial	10842
Ġdefended	10843
Ġrecovered	10844
ĠHoly	10845
ĠRou	10846
Ġdevelopments	10847
Ġboom	10848
Ġsimultaneously	10849
ĠLog	10850
Ġbacteria	10851
Ġblocking	10852
Br	10853
ĠLater	10854
Car	10855
mented	10856
Ġ59	10857
Ġattracted	10858
Ġ66	10859
ĠOpp	10860
Ġfigured	10861
ĠHung	10862
Ġcorrel	10863
Ġalliance	10864
Ġresearcher	10865
ĠEntertainment	10866
Ġtaxpayers	10867
ĠLes	10868
ĠNone	10869
Ġcaps	10870
card	10871
ĠJeremy	10872
Ġhosts	10873
Ġcinem	10874
Ġpatent	10875
ĠRussians	10876
izarre	10877
Ġexamine	10878
ATCH	10879
ĠFuture	10880
Ġvariables	10881
ĠLincoln	10882
ifier	10883
Ġoxy	10884
Ġembed	10885
--------------------------------	10886
Ġjunior	10887
ateful	10888
lynn	10889
Black	10890
uter	10891
oned	10892
ĠChairman	10893
ĠTower	10894
Ġpublish	10895
ĠGh	10896
JP	10897
Ġtear	10898
Ġ62	10899
Ġmeth	10900
gly	10901
ĠBor	10902
DR	10903
ĠVlad	10904
dep	10905
Ġvent	10906
ĠPoland	10907
ĠStudies	10908
ĠUkrainian	10909
adesh	10910
gged	10911
Right	10912
Ġenact	10913
may	10914
ĠDak	10915
Ġflights	10916
omic	10917
Ġaccuracy	10918
Ġflav	10919
Ġdistribut	10920
Ġlos	10921
Ġimpacts	10922
Ġsurprisingly	10923
Ġsolo	10924
Ġraises	10925
Ġburned	10926
Ġric	10927
ĠSci	10928
Ġangle	10929
secutive	10930
Ġbreast	10931
ĠWould	10932
Ġevac	10933
ĠStewart	10934
Ġqualified	10935
Ġdecrease	10936
town	10937
ĠCPU	10938
vas	10939
nie	10940
Ġevolved	10941
Ġflavor	10942
olitical	10943
Ġunnecess	10944
Ġassemb	10945
ĠTotal	10946
Ġintimid	10947
imir	10948
Ġcourtesy	10949
ĠOR	10950
nan	10951
ERE	10952
Ġfingers	10953
ĠMPs	10954
rition	10955
Ġproductive	10956
Ġvoc	10957
Ġblamed	10958
etheless	10959
ĠHIV	10960
Ġdependent	10961
Ġexpecting	10962
Ġtransferred	10963
ĠRangers	10964
Ġenabled	10965
Ġidentical	10966
Ġvisits	10967
Ġexpects	10968
Ġlane	10969
ĠGill	10970
dict	10971
Ġignor	10972
Ġaccord	10973
ĠUb	10974
ĠGriff	10975
ĠWi	10976
terror	10977
ishers	10978
Book	10979
Ġventure	10980
df	10981
ĠCC	10982
Ġbarg	10983
Ġshops	10984
Ġdeparture	10985
ĠCommand	10986
iere	10987
ĠMississ	10988
TO	10989
Ġkiller	10990
Ġrepeal	10991
Ġmotivated	10992
Ġstrip	10993
Ġrestore	10994
Ġagreements	10995
Ġconflicts	10996
Ġorganis	10997
thodox	10998
ĠDu	10999
Ġscared	11000
Ġforgotten	11001
ĠThink	11002
iden	11003
icked	11004
ulse	11005
bian	11006
Ġinher	11007
Ġnationwide	11008
ĠEdition	11009
Ġcycl	11010
Ġcriteria	11011
Ġinfluenced	11012
ernand	11013
Ġoccupied	11014
ĠBC	11015
Ġanimation	11016
Ġtrailer	11017
Ġranking	11018
ĠPope	11019
ĠNi	11020
ĠShould	11021
ĠThings	11022
Ġ`	11023
Ġbacks	11024
ahoo	11025
Ġtelephone	11026
Ġoccasion	11027
about	11028
unity	11029
Ġanalys	11030
ĠReddit	11031
Ġfunctionality	11032
Ġchecked	11033
Ġconcentration	11034
ĠModel	11035
looking	11036
Ġhouseholds	11037
link	11038
Ġreass	11039
onduct	11040
Ġalgorithm	11041
Ġcourage	11042
rah	11043
ressing	11044
ĠSupport	11045
ĠHug	11046
Ġpromoted	11047
Ġimprison	11048
aments	11049
Ġexplicitly	11050
Ġbatter	11051
leted	11052
Ġdesp	11053
Ġbabies	11054
Ġtanks	11055
Ġought	11056
Ġstatic	11057
oup	11058
ĠProduct	11059
Ġreleasing	11060
Ġantib	11061
ĠPlace	11062
rike	11063
Ġsubtle	11064
Former	11065
arted	11066
Ġbases	11067
Ġstats	11068
ILL	11069
Ġdoct	11070
large	11071
uating	11072
agine	11073
ĠJerry	11074
Ġprivilege	11075
ĠMoreover	11076
bat	11077
ippi	11078
ĠWarner	11079
ĠNO	11080
Ġmeters	11081
Ġentrance	11082
aco	11083
MB	11084
Ġtower	11085
Ġinvestigated	11086
Three	11087
Ġsenators	11088
zone	11089
ĠCold	11090
ĠCanadians	11091
Ġhub	11092
Ġwise	11093
ĠEb	11094
Ġoverl	11095
Ġapplies	11096
Ġformula	11097
ĠStandard	11098
ollar	11099
ĠEgyptian	11100
ĠChristopher	11101
Ġmart	11102
Ġinevitable	11103
breaking	11104
Ġuncertainty	11105
Ġprovider	11106
actor	11107
Ġpainting	11108
Ġcontinu	11109
Ġmodest	11110
Ġlens	11111
Ġinfluential	11112
Ġdestination	11113
ĠQueens	11114
Ġunre	11115
ĠMap	11116
izations	11117
forward	11118
Ġchips	11119
being	11120
Supp	11121
Ġally	11122
Ġinfection	11123
Ġdimin	11124
leading	11125
","	11126
ĠUnivers	11127
Ġjet	11128
kes	11129
Ġsolely	11130
Ġbelt	11131
Ġscrew	11132
Ġinaug	11133
Ġ63	11134
Ġinsist	11135
Good	11136
Yeah	11137
ĠTR	11138
ĠNiger	11139
Ġtheft	11140
uccess	11141
ĠMarg	11142
ĠAlaska	11143
Ġpolitician	11144
Ġtransparency	11145
ĠPlayStation	11146
Ġinvested	11147
gov	11148
Ġsinger	11149
Ġimmune	11150
ĠOttawa	11151
Ġprovisions	11152
istance	11153
Ġpy	11154
ĠStock	11155
Ġhandled	11156
overs	11157
ĠJane	11158
Ġuncomfort	11159
ampa	11160
ĠOlympics	11161
ĠLouisiana	11162
Ġimpressed	11163
Ġinbox	11164
ĠOil	11165
Ġoperator	11166
SD	11167
ardo	11168
untu	11169
ĠNetherlands	11170
Ġballs	11171
Em	11172
Ġtent	11173
ilation	11174
ĠKr	11175
Ġcolleg	11176
Ġbol	11177
Ġsimilarly	11178
Ġlifestyle	11179
offs	11180
comp	11181
Ġheadlines	11182
idal	11183
Ġboards	11184
rifice	11185
non	11186
ĠTrek	11187
Ġdisabled	11188
thur	11189
ixel	11190
ĠStanley	11191
Bar	11192
Ġoperated	11193
olas	11194
Ġregarded	11195
ĠType	11196
Ġlaunching	11197
ĠSN	11198
Ġreluct	11199
ĠExp	11200
achment	11201
Down	11202
ĠMother	11203
wall	11204
iar	11205
Ġphotographs	11206
Ġvolunt	11207
such	11208
ĠDrug	11209
Ġkidn	11210
?âĢĻ	11211
Ġsake	11212
citation	11213
Ġkeen	11214
track	11215
rc	11216
Ġdetention	11217
Ġconsecutive	11218
Obama	11219
var	11220
Ġgym	11221
ĠUnlike	11222
million	11223
inite	11224
).[	11225
ĠBlood	11226
?)	11227
Ġprosecutor	11228
Ġfilter	11229
Ġprosecution	11230
keley	11231
Ġsuck	11232
oning	11233
anguage	11234
Ġconviction	11235
uther	11236
Ġearthqu	11237
Ġlean	11238
Ġrolled	11239
Ġkiss	11240
ĠTable	11241
armed	11242
ista	11243
ĠModi	11244
erald	11245
ĠCorporation	11246
ĠCaption	11247
tarian	11248
ĠCorp	11249
bitious	11250
Ġbulk	11251
ĠBir	11252
ĠHampshire	11253
first	11254
Ġmales	11255
ĠFO	11256
Jo	11257
Ġinex	11258
Ġtears	11259
Ġtragedy	11260
llor	11261
Ġchocolate	11262
ige	11263
Ġmouse	11264
Ġpoet	11265
Ġpreserve	11266
Ġguidance	11267
ĠFather	11268
ĠBeing	11269
Ġleak	11270
ĠSche	11271
ĠPhilippines	11272
Bel	11273
ĠForest	11274
urches	11275
vo	11276
Ġbags	11277
assion	11278
Ġnu	11279
ĠSeveral	11280
Ġreck	11281
Ġdestro	11282
block	11283
Ġexamined	11284
rin	11285
Ġsynd	11286
Ġaccepting	11287
Ġelabor	11288
Ġmissiles	11289
Ġabsurd	11290
Further	11291
Ġbeneath	11292
Ġneur	11293
Ġparticipating	11294
vironments	11295
Ġ1000	11296
ĠHans	11297
bes	11298
Ġneighborhoods	11299
ĠDa	11300
ucker	11301
ĠStanford	11302
Ġcompelling	11303
Ġreflects	11304
Ġcomplained	11305
ĠWy	11306
Ġadap	11307
Ġbother	11308
Ġcontroller	11309
Ġluxury	11310
ĠVictoria	11311
ĠMarc	11312
ĠEdit	11313
tex	11314
ĠCloud	11315
ĠMorm	11316
laim	11317
Ġtheater	11318
ĠMario	11319
Ġenfor	11320
ĠNelson	11321
Ġshelter	11322
stra	11323
rying	11324
boys	11325
Ġfer	11326
ĠMedicare	11327
speed	11328
ĠTam	11329
Ġfits	11330
ĠGrant	11331
ĠMedicaid	11332
Ġjurisd	11333
mons	11334
ouses	11335
Ġposter	11336
usting	11337
Ġ</	11338
ĠKnight	11339
Ġconsists	11340
opp	11341
Ġpose	11342
Ġsignificance	11343
ĠFilm	11344
Ġpolling	11345
Ġstopping	11346
Ġoccasions	11347
Ġbone	11348
ĠDE	11349
ĠTokyo	11350
ĠRubio	11351
ĠCas	11352
Ġwireless	11353
Ġrealistic	11354
Ġexcuse	11355
aya	11356
ĠLocal	11357
neg	11358
ĠImm	11359
Among	11360
friendly	11361
Each	11362
ĠVin	11363
ĠChron	11364
âĢĿ)	11365
Ġtension	11366
Ġaccompanied	11367
Ġseeks	11368
ĠGard	11369
Ġbackup	11370
otion	11371
Ġresemb	11372
Ġmandate	11373
Ġtheoret	11374
ĠContinue	11375
orate	11376
Ġassists	11377
Ġpossibilities	11378
ĠWinter	11379
ĠQuest	11380
fish	11381
Ġbeta	11382
Ġaccusations	11383
Ġadvent	11384
Ġcooking	11385
iah	11386
ĠCR	11387
ĠPa	11388
ĠChampions	11389
ĠAbu	11390
Ġinhab	11391
Ġsupposedly	11392
ping	11393
ĠSnowden	11394
Ġemphasis	11395
Ġfinishing	11396
ĠDal	11397
ambling	11398
ĠSport	11399
Ġsustained	11400
Perhaps	11401
cat	11402
ĠMalays	11403
Ġbeaten	11404
ĠSEC	11405
Ġbump	11406
itement	11407
ĠPear	11408
ĠHad	11409
Ġawards	11410
Ġdressed	11411
Ġprojected	11412
isms	11413
ĠNothing	11414
Ġtorn	11415
Ġinnovative	11416
ĠEverything	11417
ĠMind	11418
Ġaffects	11419
âĶĢâĶĢ	11420
Ġpolar	11421
Ġpreventing	11422
Ġconstructed	11423
ĠFlash	11424
bery	11425
Ġlongtime	11426
ATION	11427
thal	11428
Following	11429
Ġfed	11430
ĠSection	11431
tech	11432
Ġfucking	11433
Ġeru	11434
Ġgarden	11435
Ġ360	11436
ĠAbd	11437
IO	11438
ĠOrganization	11439
Ġspeeds	11440
Ġoperators	11441
Ġgut	11442
ilst	11443
ĠFinancial	11444
Ġdrum	11445
Ġmanual	11446
Ġoutstanding	11447
Ġpassword	11448
Ġmortgage	11449
ĠHamas	11450
ĠKa	11451
Ġentity	11452
Ġrecession	11453
cott	11454
ĠNich	11455
ĠPython	11456
Ġwisdom	11457
ĠNature	11458
Ġdocumented	11459
Ġtraded	11460
Ġintrig	11461
ĠSteam	11462
una	11463
ĠIV	11464
Ġgolf	11465
ĠJimmy	11466
Ġoccupation	11467
ĠKurdish	11468
Ġfut	11469
Ġoldest	11470
Ġdocumentation	11471
Ġfavourite	11472
iox	11473
Ġpraised	11474
Ġresidential	11475
incial	11476
Ġspotted	11477
Ġcops	11478
century	11479
ugby	11480
Ġrevenues	11481
ĠCommons	11482
ĠThird	11483
Ġlayers	11484
Ġwalks	11485
ĠMA	11486
olitan	11487
Ġinteractions	11488
ĠPatriots	11489
Ġsurge	11490
charg	11491
Ġbicy	11492
Ġawful	11493
Ġpanels	11494
Ġther	11495
Ġcalculated	11496
Ġinfant	11497
Ġcircuit	11498
cular	11499
rons	11500
DC	11501
Ġ67	11502
Ġexperimental	11503
âĤ¬	11504
Ġrenewable	11505
Ġautomatic	11506
ĠCL	11507
Ġdirty	11508
Ġmysterious	11509
anyahu	11510
ĠSoft	11511
Ġtrains	11512
ĠLad	11513
ĠOthers	11514
Ġthreshold	11515
Ġtale	11516
Mon	11517
ques	11518
ĠNash	11519
Ġ68	11520
err	11521
ĠKal	11522
Ġdealt	11523
ĠRh	11524
Ġreviewed	11525
Ġ61	11526
âĸĪ	11527
lied	11528
Ġpainful	11529
Ġglobe	11530
ĠCitiz	11531
omer	11532
irs	11533
Ġcoin	11534
Ġtrips	11535
ĠTrue	11536
ĠAirport	11537
requ	11538
ects	11539
ĠWayne	11540
Ġcleared	11541
Ġearnings	11542
ello	11543
~~	11544
arded	11545
Ġcrossed	11546
Ben	11547
lli	11548
Ġadministrative	11549
Ġconvenient	11550
Ġgraphic	11551
Ġriders	11552
ĠEmer	11553
ĠNik	11554
Ġlady	11555
Ġliberty	11556
ĠFle	11557
Ġranging	11558
Ġbizarre	11559
Ġpour	11560
Ġiter	11561
ĠBah	11562
uto	11563
Ġhes	11564
former	11565
Ġdisplays	11566
Ġiconic	11567
Ġenvironments	11568
Ġrobots	11569
Ġmothers	11570
China	11571
Ġhosting	11572
Ġambitious	11573
Ġ1988	11574
owder	11575
seless	11576
Ġdesert	11577
Ġreserve	11578
beat	11579
Ġsecular	11580
Ġsentiment	11581
Ġpredec	11582
Ps	11583
ĠMcDonald	11584
jamin	11585
uri	11586
isive	11587
Only	11588
Ġconverted	11589
ĠClimate	11590
Ġtissue	11591
?<|	11592
Id	11593
ĠMurphy	11594
ĠLarry	11595
ĠSin	11596
ori	11597
Ġtum	11598
ĠAFP	11599
ĠFOR	11600
Ġdrops	11601
ĠDean	11602
ĠDeep	11603
shore	11604
Did	11605
Ġexploit	11606
ĠPi	11607
words	11608
ĠReds	11609
ĠSummer	11610
kind	11611
Ġcreator	11612
Ġresort	11613
Ġaddressing	11614
Ġanch	11615
Ġsons	11616
Ġhiding	11617
Ġsafely	11618
Ġattorneys	11619
Ã¥	11620
Ġdevastating	11621
DE	11622
Mart	11623
EMENT	11624
two	11625
Ġspray	11626
Ġsleeping	11627
uably	11628
Ġcrossing	11629
Ġpension	11630
ĠSac	11631
Ġrestricted	11632
Ġarrests	11633
Ġwore	11634
ĠPir	11635
Ġscrutiny	11636
ICE	11637
Ġunfortunately	11638
puter	11639
uj	11640
Ġburst	11641
Ġlibraries	11642
Ġdepartments	11643
Ġmurdered	11644
Ġcompetitors	11645
ĠWhit	11646
ĠTan	11647
ĠDrive	11648
Ġwhis	11649
Ġalign	11650
pin	11651
Ġcontainer	11652
Ġavailability	11653
Ġnewsletters	11654
Ġfiling	11655
ĠSingh	11656
kward	11657
Ġadoption	11658
ailing	11659
Ġnewspapers	11660
Ġmisc	11661
atter	11662
Ġproductivity	11663
Ġtoss	11664
phan	11665
oj	11666
bet	11667
Ġreign	11668
Ġbuilds	11669
ĠSE	11670
Ġdiscrimin	11671
Ġpregnancy	11672
ĠNS	11673
Ġovernight	11674
celona	11675
map	11676
Ġappearing	11677
Ġindication	11678
arians	11679
Ġearning	11680
Ġpublisher	11681
ighting	11682
Ġcombine	11683
count	11684
Ġviewing	11685
Ġduties	11686
ASH	11687
oyd	11688
ĠManning	11689
Ġfishing	11690
Ġreflected	11691
isode	11692
arios	11693
Ġuncomfortable	11694
ĠMagazine	11695
Ġtu	11696
Ġregret	11697
government	11698
Ġmunicipal	11699
ĠFurthermore	11700
ĠEnt	11701
named	11702
Check	11703
data	11704
gence	11705
ĠNative	11706
agu	11707
dev	11708
Ġhorrible	11709
bably	11710
Ġchemicals	11711
Ġrelie	11712
Ġanonym	11713
Ġcave	11714
oop	11715
accept	11716
Ġseparated	11717
Maybe	11718
uels	11719
Ġsophisticated	11720
World	11721
Ġrivals	11722
oria	11723
Ġrewards	11724
ĠFig	11725
Ġviable	11726
Ġdeserves	11727
Ġpricing	11728
Ġacted	11729
ĠPhys	11730
ĠWiki	11731
Ġrelatives	11732
Ġindu	11733
ĠMand	11734
Ġwinners	11735
Ġrecept	11736
ĠMadrid	11737
Ġslide	11738
Ġpreparation	11739
version	11740
Ġequipped	11741
Ġritual	11742
Ġlimitations	11743
ĠChrome	11744
ĠInn	11745
ernel	11746
Ġ1984	11747
Ġamongst	11748
Ġcomplexity	11749
ĠRonald	11750
Ġ==	11751
Ġmechanisms	11752
Ġpeer	11753
Ġcommod	11754
lesh	11755
Ġparameters	11756
ĠFederation	11757
Ġfirearms	11758
Ġcarrier	11759
Ġbip	11760
Ġtob	11761
ĠNaz	11762
size	11763
Ġsuggestions	11764
iors	11765
Ġdelayed	11766
ĠBlu	11767
ĠHTML	11768
Ġexploring	11769
Ġmeets	11770
winning	11771
Ġtoug	11772
Ġ1986	11773
Ġcoord	11774
ĠTaiwan	11775
Ġlighting	11776
Ġcurve	11777
Ġstartup	11778
eller	11779
emit	11780
ĠCollins	11781
Ġintelligent	11782
Unfortunately	11783
Ġghost	11784
Ġcelebrated	11785
ĠMississippi	11786
Ġabund	11787
Ġcease	11788
arer	11789
Ġinterven	11790
burn	11791
Ġquietly	11792
ĠPoll	11793
Ġensuring	11794
ĠDomin	11795
XX	11796
ATED	11797
Ġrebel	11798
ĠLuke	11799
Ġnights	11800
Ġmm	11801
quer	11802
Ġcollecting	11803
2011	11804
Ġtranslation	11805
Ġworlds	11806
Ġdetained	11807
Ġorange	11808
ĠMcCon	11809
profile	11810
DAY	11811
Ġbeef	11812
Ġemployer	11813
ĠDVD	11814
ĠLevel	11815
Pat	11816
Ġradar	11817
White	11818
Ġinstallation	11819
ĠBlock	11820
Ġdelivering	11821
Ġcoins	11822
Ġdesignated	11823
Michael	11824
Ġmigration	11825
Ġdebates	11826
Ġ);	11827
emin	11828
THE	11829
oda	11830
ĠMelbourne	11831
Ġpledge	11832
Ġcatast	11833
aman	11834
ĠSex	11835
ĠEC	11836
Ġgrants	11837
Ġcaution	11838
Ġoffseason	11839
Ġnotably	11840
RO	11841
Ġbugs	11842
Ġtablet	11843
hyth	11844
Ġthemes	11845
uates	11846
ĠExpress	11847
Ġwrap	11848
natural	11849
Ġgolden	11850
Ġdelegates	11851
Advertisements	11852
Ġcourses	11853
âĢ³	11854
Ġcountless	11855
ĠDisc	11856
ĠEagles	11857
ĠBab	11858
Ġgradually	11859
Ġwitnessed	11860
ĠQuebec	11861
alid	11862
Ġcommands	11863
ĠCuba	11864
code	11865
ĠCoalition	11866
media	11867
mid	11868
Ġtends	11869
ĠSmart	11870
ĠNa	11871
ĠOw	11872
Ġviolated	11873
Ġmeanwhile	11874
Ġpsychiat	11875
Ġdemonstration	11876
pot	11877
Ġdemo	11878
ĠCrit	11879
ĠPod	11880
formance	11881
Ġcommentary	11882
witzer	11883
ĠSwedish	11884
Ġannually	11885
Ġforb	11886
Ġpending	11887
onds	11888
ĠHeat	11889
Ġobservations	11890
Ġthro	11891
ĠNap	11892
orical	11893
athon	11894
ĠSaint	11895
oples	11896
ersion	11897
arently	11898
ĠToy	11899
arma	11900
Ġfires	11901
Ġremembered	11902
Ġquestioning	11903
rencies	11904
Ġcorn	11905
FS	11906
Ġlaptop	11907
Ġverify	11908
rup	11909
Ġimpose	11910
Ġhighlighted	11911
Ġreplacing	11912
/.	11913
Ġseeds	11914
ĠLady	11915
Ġcontents	11916
Ġhunt	11917
Ġpreview	11918
Media	11919
elcome	11920
Ġfrustration	11921
ĠMarshall	11922
Ġdiscipline	11923
Ġpatrol	11924
Ġsupplement	11925
Ġpoorly	11926
onda	11927
udeau	11928
Ġcomed	11929
Ġgrave	11930
ĠProgress	11931
Ġpraise	11932
ĠArts	11933
ĠPeace	11934
Ġfurn	11935
ĠPel	11936
Ġbathroom	11937
rait	11938
Ġactress	11939
Ġaspir	11940
Ġhappiness	11941
ĠKy	11942
Ġexploration	11943
ĠRound	11944
Ġgentle	11945
omach	11946
Ġcruel	11947
ĠLions	11948
Ġstarter	11949
outing	11950
ĠHunter	11951
ĠBlake	11952
Ġprevented	11953
Ġchamber	11954
fi	11955
ĠLen	11956
ĠWard	11957
Ġprayer	11958
Min	11959
ĠStorm	11960
Ġcultiv	11961
ĠMas	11962
Ġpermitted	11963
Ġvenue	11964
Ġinstantly	11965
War	11966
Ġoxygen	11967
ĠHuff	11968
Ġaltogether	11969
atal	11970
urities	11971
Republic	11972
Ġbonds	11973
Ġambassador	11974
ĠBeat	11975
ĠMotor	11976
.),	11977
Ġarena	11978
ugs	11979
Ġconced	11980
ĠBerkeley	11981
Ġdisappeared	11982
Ġplanes	11983
Ġ76	11984
Ġtechnological	11985
string	11986
file	11987
shot	11988
ierre	11989
Ġsuggestion	11990
ĠRoger	11991
Ġpartially	11992
Ġagriculture	11993
ĠAy	11994
anches	11995
Ġunl	11996
Ġdil	11997
Ġdrinks	11998
ĠCampbell	11999
ĠFergus	12000
flow	12001
Ġsizes	12002
Twitter	12003
group	12004
Ġincorrect	12005
Ġprotections	12006
ĠFR	12007
hill	12008
Ġfascinating	12009
ĠAmb	12010
ocur	12011
ĠEnvironmental	12012
ĠHann	12013
ĠChristianity	12014
Ġvaccine	12015
ĠHawaii	12016
ĠAdditionally	12017
Ġlogical	12018
Ġparks	12019
ĠMuch	12020
aucus	12021
Ġstyles	12022
Ġsupporter	12023
Ġhonestly	12024
Ġadj	12025
Ġalike	12026
ĠLaur	12027
appropriate	12028
ĠNCAA	12029
Ġprol	12030
Ġtobacco	12031
Ġmarginal	12032
ĠGene	12033
encer	12034
Ġsummary	12035
Ġtoll	12036
ĠGre	12037
ĠVar	12038
ologically	12039
Ġflew	12040
ĠKickstarter	12041
Ġadvised	12042
Ġhearts	12043
Ġcompr	12044
Ġsinging	12045
Leaks	12046
Ġwound	12047
Their	12048
Ġappointment	12049
ĠQual	12050
ĠForces	12051
ĠCongressional	12052
Ġethics	12053
ttes	12054
Ġstunning	12055
Ġtar	12056
esides	12057
ĠJen	12058
Ġcapability	12059
ĠGab	12060
ĠMitchell	12061
Ġtransmission	12062
Ġenterprise	12063
ĠVladimir	12064
ctive	12065
Ġmetaph	12066
chron	12067
ĠSpeaker	12068
Ġpowered	12069
Ġprosper	12070
Ġblast	12071
ĠManager	12072
Ġreactions	12073
ivan	12074
ĠEditor	12075
Ġessay	12076
Ġelectrical	12077
Ġcous	12078
pling	12079
py	12080
Ġstressed	12081
Ġhaz	12082
bu	12083
start	12084
ĠTodd	12085
Ġfaculty	12086
Ġmakers	12087
ĠCorps	12088
Ġash	12089
ĠArena	12090
Ġceiling	12091
Ġsket	12092
Ġderived	12093
ĠReid	12094
sk	12095
Ġseventh	12096
ĠName	12097
Ġmountains	12098
Ġcelebration	12099
Ġrice	12100
Ġpressing	12101
Ġarguably	12102
gments	12103
Ġdrafted	12104
Ġcrown	12105
Ġdamn	12106
Ġdepos	12107
lected	12108
Ġraid	12109
ĠJess	12110
Fe	12111
ĠOrange	12112
ĠRT	12113
ĠUI	12114
NT	12115
ĠBenn	12116
Ġendless	12117
Ġtraveled	12118
las	12119
Ġcomplain	12120
UD	12121
ĠSessions	12122
Ġdrones	12123
ĠImp	12124
ĠCommissioner	12125
ĠOxford	12126
TIS	12127
Ġineff	12128
ĠBrus	12129
ĠRow	12130
Ġawkward	12131
Ġbund	12132
gary	12133
orer	12134
witzerland	12135
Ġapplying	12136
ĠWatson	12137
Ġsacrifice	12138
Ġaccomplished	12139
Ġshooter	12140
('	12141
dam	12142
Ġbubble	12143
Ġweaken	12144
ults	12145
Take	12146
ĠFlynn	12147
Ġepid	12148
onia	12149
Ġmechanics	12150
Ġassumption	12151
aughters	12152
Ġadvocacy	12153
Ġcats	12154
ims	12155
Ġhostile	12156
Ġbreach	12157
Ġrevealing	12158
BL	12159
Ġfract	12160
Ġrespective	12161
storm	12162
handed	12163
Ġscratch	12164
Have	12165
ĠModern	12166
Several	12167
atin	12168
Ġexpertise	12169
ĠDakota	12170
Ġdevoted	12171
Second	12172
ĠRap	12173
atoes	12174
ĠParker	12175
hol	12176
ĠIndians	12177
ĠBaker	12178
bie	12179
Ġanarch	12180
mare	12181
Ġcircles	12182
Ġstrongest	12183
ĠChall	12184
written	12185
Ġfocuses	12186
ipher	12187
Ġshocking	12188
ĠKas	12189
Ġsword	12190
Ġcalendar	12191
uez	12192
Ġaudiences	12193
Ġmic	12194
Ġlone	12195
utt	12196
Ġcitizenship	12197
Ġbuyers	12198
agraph	12199
Ġconfirmation	12200
ĠMedicine	12201
WS	12202
uming	12203
Ġspy	12204
Eng	12205
formed	12206
Ġtrucks	12207
Ġlung	12208
Ġparticles	12209
Ġfrank	12210
Ġacquisition	12211
Ġconclusions	12212
vol	12213
idth	12214
Ġcomputing	12215
Ġsauce	12216
âĦ	12217
Bre	12218
ĠLawrence	12219
uerto	12220
matic	12221
Ġunnecessary	12222
Ġdirectors	12223
oard	12224
Data	12225
Ġlyr	12226
ĠDate	12227
tit	12228
Ġlineback	12229
Ġ700	12230
actory	12231
Ġpenalties	12232
Ġdecor	12233
itate	12234
half	12235
Ġlongest	12236
GM	12237
Ġresponding	12238
ĠTemple	12239
liver	12240
piece	12241
nor	12242
vious	12243
2010	12244
Hist	12245
itivity	12246
anded	12247
ĠFind	12248
Ġbitter	12249
ĠED	12250
Men	12251
brew	12252
Ġstir	12253
ĠResp	12254
ĠHus	12255
ocus	12256
byn	12257
atre	12258
Ġhistorically	12259
Ġentities	12260
ĠDor	12261
ĠMorris	12262
Ġadvertisement	12263
Ġinterrupt	12264
Ġpor	12265
Ġaddiction	12266
Ġyard	12267
Ġbears	12268
Ġplacing	12269
ĠYang	12270
Ġcontributing	12271
Ġboundaries	12272
Ġgreet	12273
Ġqualify	12274
stan	12275
ĠFerguson	12276
jan	12277
Ġunderstands	12278
Ġcomposition	12279
Ġduration	12280
?'	12281
Ġquantum	12282
borne	12283
ĠHotel	12284
umm	12285
Ġconversion	12286
mart	12287
Ġshake	12288
Ġfrustrated	12289
ÙĦ	12290
Ġcoordinator	12291
ĠLegisl	12292
km	12293
Ġoperates	12294
Med	12295
zes	12296
Ġorientation	12297
Ġhacking	12298
ĠSafety	12299
ĠBarcelona	12300
PI	12301
sur	12302
MM	12303
Ġcam	12304
Ġstun	12305
Inter	12306
Given	12307
ĠRoc	12308
ĠRecords	12309
di	12310
Ġpriest	12311
Ġfeminist	12312
lements	12313
ĠProm	12314
ĠHispan	12315
ĠJacob	12316
Big	12317
Ġ1987	12318
acular	12319
andy	12320
Ġdistant	12321
Ġmotivation	12322
Ġfastest	12323
ĠSud	12324
minded	12325
boards	12326
Ġgrocer	12327
Ġpainted	12328
Ġpopul	12329
ĠIan	12330
Set	12331
ĠNetanyahu	12332
âĢĭ	12333
outheast	12334
Ġpedest	12335
ĠFCC	12336
liminary	12337
connect	12338
La	12339
ĠRain	12340
IST	12341
Ġdensity	12342
Ġnode	12343
ĠUC	12344
PDATE	12345
Ġoversight	12346
Ġtunnel	12347
Ġexperiencing	12348
Ġcontrolling	12349
Ġcounties	12350
Ġmild	12351
ĠRy	12352
ĠHend	12353
Ġsafer	12354
ĠSong	12355
Ġtill	12356
Ġvague	12357
Ġ1979	12358
fs	12359
Ġdivide	12360
ĠFif	12361
ĠBE	12362
ĠSwiss	12363
abling	12364
Ġtransformation	12365
Ġdirections	12366
dec	12367
Ġreceives	12368
Ġsentences	12369
Ġimperial	12370
Â·	12371
Figure	12372
Ġugly	12373
leton	12374
Ġsla	12375
Har	12376
Ġillegally	12377
Ġsuprem	12378
comed	12379
Ġprobability	12380
Ġintensity	12381
Ġcomposed	12382
Euro	12383
acies	12384
Ġenjoying	12385
ĠCos	12386
acer	12387
ĠAbbott	12388
western	12389
Ġheaven	12390
Ġdign	12391
supp	12392
ĠSide	12393
Ġmandatory	12394
specific	12395
ACK	12396
Ġconservation	12397
Ġachievement	12398
Ġgaining	12399
ĠRemember	12400
ĠBloomberg	12401
Ġinsane	12402
ĠAgainst	12403
Ġagricultural	12404
ding	12405
Ġbalanced	12406
Ġ69	12407
Ġcondemned	12408
Ġstomach	12409
Ġ1985	12410
Ġresidence	12411
ĠLie	12412
Ġdistinction	12413
Ġprinting	12414
Ġpione	12415
Ġemerge	12416
Ġprototype	12417
ĠBeng	12418
ĠCa	12419
ĠBlog	12420
Ġwings	12421
health	12422
Ġspacecraft	12423
mother	12424
Ġinvesting	12425
ÂĶ	12426
Ġacceptance	12427
Ġ77	12428
Ġtouched	12429
ĠRice	12430
Ġtune	12431
Ġzomb	12432
Ġtoile	12433
ĠTea	12434
Ġinitiatives	12435
ĠBuilding	12436
Ġexchanges	12437
Ġscary	12438
otypes	12439
Ġpays	12440
ayed	12441
main	12442
ĠDJ	12443
Ġideological	12444
Ġpink	12445
gt	12446
orient	12447
Ġscenarios	12448
idding	12449
guard	12450
Ġfilling	12451
Ġmanufacturer	12452
ĠBenjamin	12453
ĠBeh	12454
---	12455
roc	12456
ĠStein	12457
]<|	12458
ĠTampa	12459
ĠEvans	12460
ĠElection	12461
Ġserial	12462
âĦ¢	12463
Ġinfring	12464
Ġconstrain	12465
ocker	12466
Ġrotation	12467
lamm	12468
ĠText	12469
Ġrespected	12470
ĠMcM	12471
when	12472
ridge	12473
ĠDraft	12474
ĠKu	12475
Ġpressed	12476
abbing	12477
Ġoverd	12478
Ġnonprofit	12479
Ġpeers	12480
because	12481
Ġacquire	12482
Ġcake	12483
Ġoperational	12484
zo	12485
Ġincomp	12486
Ġcrops	12487
Ġlanes	12488
abetes	12489
initely	12490
UTERS	12491
Ġcompletion	12492
ĠLaure	12493
Ġhighway	12494
Ġtreating	12495
umbled	12496
Ġpriorities	12497
Ġsubsidies	12498
Ġexplosive	12499
chi	12500
Ġanimated	12501
Ġresigned	12502
econom	12503
Ġears	12504
ortunate	12505
Ġdifficulties	12506
Ġslavery	12507
ĠArctic	12508
usters	12509
ĠMobile	12510
Ġislands	12511
auc	12512
ĠCohen	12513
story	12514
ĠÂ©	12515
Ġfreely	12516
whe	12517
Ġchurches	12518
ĠChance	12519
Ġshorter	12520
ockets	12521
Ġfright	12522
owell	12523
Ġformally	12524
Ġapprove	12525
Ġreserves	12526
Ġtel	12527
Ġdesired	12528
orph	12529
Ġquotes	12530
Ġrifle	12531
ĠGa	12532
Ġrespondents	12533
Ġparticipated	12534
ĠBrandon	12535
Ġbones	12536
Ġdisclosure	12537
think	12538
ĠRio	12539
zb	12540
ĠFigure	12541
ĠRail	12542
mn	12543
ĠAwards	12544
Ġ1930	12545
Ġcrowds	12546
Ġhumanitarian	12547
Ġworthy	12548
Ġvolunteer	12549
Ġsher	12550
Ġmechanical	12551
icut	12552
Ġtutorial	12553
abl	12554
valid	12555
Ġclever	12556
ĠÃĹ	12557
Ġsecured	12558
Ġhier	12559
Ġjudicial	12560
Ġattributed	12561
Ġrumors	12562
Ġmamm	12563
Ġcrude	12564
oons	12565
rane	12566
charge	12567
ĠSaints	12568
Ġconj	12569
Ñı	12570
Ġmonetary	12571
Ġdeliberately	12572
ĠCentury	12573
();	12574
ĠFro	12575
icts	12576
product	12577
Ġcultures	12578
Ġrocks	12579
Ġanticipated	12580
Att	12581
isen	12582
Ġinhib	12583
Ġflexible	12584
erving	12585
Ġeconomies	12586
udge	12587
Key	12588
ĠMcConnell	12589
iary	12590
Ġincons	12591
Ġbass	12592
ĠProt	12593
imens	12594
bart	12595
ĠRaid	12596
Par	12597
atile	12598
ĠKyle	12599
Ġexped	12600
Ġgrateful	12601
Ġelderly	12602
Ġconsequence	12603
Ġjokes	12604
sized	12605
Ġheritage	12606
ĠDom	12607
Ġpanic	12608
Ġteenager	12609
Ġdispar	12610
ĠKl	12611
Ġspreading	12612
controlled	12613
Ġdispos	12614
Ġflexibility	12615
Ġinterrog	12616
Ġtoken	12617
Ġaffair	12618
ĠSmall	12619
Ġchap	12620
Ġalternatives	12621
ĠFarm	12622
ĠTalk	12623
iciary	12624
ĠBart	12625
Which	12626
drop	12627
Ġnaked	12628
Ġzones	12629
Ġdeclare	12630
ĠCircuit	12631
glas	12632
ĠPok	12633
crat	12634
Ġviral	12635
Ġfinan	12636
gi	12637
Ġabsent	12638
ĠKerry	12639
Ġattendance	12640
Ġturb	12641
ĠTerry	12642
Ġadvantages	12643
azy	12644
Ġtriggered	12645
Best	12646
Ġbuzz	12647
ĠAlberta	12648
izard	12649
Ġtechnically	12650
Ġreaches	12651
ĠSwitzerland	12652
ĠChap	12653
Ġtensions	12654
Ġposed	12655
ĠBuck	12656
Ġdetected	12657
bles	12658
llers	12659
Ġinstinct	12660
Ġknocked	12661
Ġdesigners	12662
VERTIS	12663
Ġdisturbing	12664
Current	12665
Ġpreval	12666
ĠEarly	12667
ĠArticle	12668
ĠTreat	12669
Ġpledged	12670
ĠTun	12671
Ð²	12672
ĠPosts	12673
sky	12674
orig	12675
ĠBrussels	12676
Ġinstruments	12677
Aust	12678
value	12679
Ġsends	12680
Ġsatisfied	12681
ĠIC	12682
RT	12683
Ġprocessor	12684
Ġwrapped	12685
ilateral	12686
ĠMov	12687
arettes	12688
iva	12689
Ġexcitement	12690
Ġfare	12691
Ġgreenhouse	12692
Ġshifted	12693
Ġequity	12694
Ġbreakfast	12695
Ġfluid	12696
North	12697
Ġlun	12698
never	12699
Ġfloating	12700
Ġdose	12701
Ġreminded	12702
ĠKirk	12703
Ġharmful	12704
ĠPuerto	12705
incinn	12706
ĠPartners	12707
Ġtrapped	12708
urned	12709
Ġreply	12710
Ġnull	12711
Ġwelcomed	12712
Ġappeals	12713
ĠCampaign	12714
ĠFranklin	12715
Ġharvest	12716
Ġresolved	12717
Ġlegendary	12718
Ġsuitable	12719
ĠAnti	12720
ationally	12721
Ġtransparent	12722
ĠIss	12723
best	12724
Ġmagical	12725
Ġbrains	12726
Ġrefusing	12727
Ġ73	12728
Ġfitness	12729
Ġavoided	12730
ĠTa	12731
prising	12732
Ġgrasp	12733
Ġportfol	12734
Ġidentifying	12735
estone	12736
ĠGray	12737
Ġdeclaration	12738
Ġannouncing	12739
Ġ74	12740
Ġrecy	12741
Ġabol	12742
itably	12743
Ġinnings	12744
Press	12745
fox	12746
Ġlib	12747
Ġhorm	12748
ĠBuffalo	12749
ĠLynch	12750
Ġsteep	12751
Ġprovincial	12752
Ð¼	12753
ĠCommunist	12754
iated	12755
Ġcondemn	12756
Ġhabits	12757
ĠMD	12758
ocate	12759
Ġrushed	12760
Ġimmigrant	12761
founder	12762
Ġmutual	12763
Ġempire	12764
ĠBarry	12765
Ġhatred	12766
stock	12767
ĠMaine	12768
eu	12769
Ġhybrid	12770
ski	12771
Ġassuming	12772
raham	12773
Ġminorities	12774
Ġoptimistic	12775
Ġhopeful	12776
Ġindicating	12777
Ġeditors	12778
Ġexcessive	12779
Ġfrozen	12780
ĠBou	12781
Ġwhites	12782
ĠPhilip	12783
Ġbeloved	12784
Ġbrows	12785
incinnati	12786
Ġtemporarily	12787
Ġconducting	12788
NG	12789
ĠVery	12790
ĠPrin	12791
verning	12792
seud	12793
anking	12794
Ġpresumably	12795
Ġtrusted	12796
Ġdeployment	12797
Ġimagination	12798
eded	12799
Ġediting	12800
Ġsuppose	12801
dale	12802
Ġearliest	12803
ĠDoug	12804
Ġassured	12805
ĠChristie	12806
Ġstocks	12807
Ġtendency	12808
Ġimmense	12809
Ġpenet	12810
ĠNatural	12811
ĠMom	12812
AV	12813
Ġshar	12814
ĠRogers	12815
eor	12816
than	12817
Never	12818
Ġbarriers	12819
ĠGPU	12820
110	12821
Ġfest	12822
ĠPed	12823
Ġtourists	12824
powered	12825
quality	12826
Ġdeciding	12827
Ġheadline	12828
Ġthrows	12829
âĢ¦âĢ¦	12830
ĠBears	12831
Ġcasting	12832
Through	12833
Ġworship	12834
around	12835
Ġcompos	12836
Ġrall	12837
ĠTrudeau	12838
Ġinfected	12839
ĠJets	12840
Ġmixture	12841
Ġvegan	12842
Ġsocialist	12843
Having	12844
points	12845
keeper	12846
Ġsparked	12847
ĠFun	12848
roller	12849
Ġbuttons	12850
Ġgrip	12851
Ġwaited	12852
Ġdamaging	12853
Ġstructural	12854
rust	12855
ĠOccup	12856
ĠAw	12857
ĠWarriors	12858
Ġgrabbed	12859
ifferent	12860
Ġdefenders	12861
ĠBund	12862
Ġcolleague	12863
Ġdiver	12864
Ġcolleges	12865
bage	12866
note	12867
ĠJe	12868
Ġcryptocur	12869
otton	12870
Ġunity	12871
ĠMitt	12872
Ġathletic	12873
lib	12874
Video	12875
Ġarmor	12876
Ġrehab	12877
sign	12878
Ġtrash	12879
peror	12880
ĠHP	12881
ighed	12882
master	12883
igers	12884
Ġplanets	12885
ĠOscar	12886
ĠFried	12887
olk	12888
orses	12889
gregation	12890
Ġcartoon	12891
Ġscrap	12892
ĠChuck	12893
nered	12894
aukee	12895
ousing	12896
ĠBrady	12897
Ġlake	12898
ĠGarden	12899
Ġparliamentary	12900
Ġfru	12901
ĠJefferson	12902
Ġcompliance	12903
Sch	12904
Ġsocieties	12905
wal	12906
plan	12907
ĠAlt	12908
ĠLiberty	12909
Ġpursuit	12910
Ġdisg	12911
Link	12912
big	12913
Ġwhistle	12914
perial	12915
Ġclicking	12916
enc	12917
Ġauction	12918
alog	12919
ĠGuide	12920
ĠShan	12921
Ġ78	12922
Ġtraditionally	12923
Ġattitudes	12924
oner	12925
ogg	12926
Free	12927
Ġhumor	12928
Ġsurvivors	12929
Ġapproaching	12930
Ġwidth	12931
Ġnick	12932
Ġexports	12933
Ġreson	12934
ĠColumbus	12935
ĠTurner	12936
enna	12937
ĠWikipedia	12938
NEW	12939
Val	12940
Clinton	12941
ĠHide	12942
Ġlegislature	12943
ĠIslands	12944
Ġbarrier	12945
ĠKeith	12946
pace	12947
Ġchampions	12948
Ġdecides	12949
Ġpurchases	12950
acent	12951
Ġmasc	12952
beit	12953
Ġhoney	12954
BR	12955
ĠBh	12956
Ġpurely	12957
Ġlifted	12958
public	12959
Ġdetain	12960
afi	12961
Ġessence	12962
Ġsecrets	12963
ĠCorbyn	12964
ructive	12965
Ġpursuing	12966
Ġobservation	12967
Ġtexts	12968
Tom	12969
tics	12970
cs	12971
ĠUntil	12972
ĠHarvey	12973
ĠMorning	12974
Ġinsect	12975
Ġthereby	12976
Ġfont	12977
Ġethical	12978
Ġrecount	12979
Ġbless	12980
Ġundermine	12981
Game	12982
forcement	12983
Ġwishes	12984
Ġtang	12985
Ġurge	12986
store	12987
Ġgrows	12988
oni	12989
ĠDub	12990
arents	12991
ADVERTIS	12992
ĠCrown	12993
Ġoffset	12994
Ġregulators	12995
Ġft	12996
TION	12997
IVE	12998
Ġmeantime	12999
ĠYahoo	13000
urred	13001
Ġdonated	13002
ĠCorn	13003
ĠCho	13004
Ġtong	13005
school	13006
Ġlaser	13007
mi	13008
Ġeconomists	13009
Ġliberals	13010
tees	13011
Ġmetab	13012
Ġtreaty	13013
waukee	13014
Ġ71	13015
Ġreminder	13016
Bet	13017
Ġaest	13018
Ġsucceeded	13019
Ġnons	13020
Ġpist	13021
Ġsquee	13022
Ġromantic	13023
Ġbottles	13024
Ġpassionate	13025
llo	13026
ĠNorway	13027
Ġvel	13028
Ġflip	13029
Ser	13030
Ġhackers	13031
Ġfailures	13032
ĠJu	13033
rer	13034
ĠWWE	13035
path	13036
gree	13037
ĠUniverse	13038
Ġemotion	13039
ĠWorks	13040
dig	13041
Ġouter	13042
icials	13043
ĠFantasy	13044
ĠPap	13045
arenthood	13046
ĠEV	13047
Ġbreakdown	13048
ĠMoney	13049
ĠEX	13050
================	13051
Ġidentification	13052
gian	13053
Ġfraction	13054
plex	13055
ĠFDA	13056
ĠMadison	13057
Ġtrop	13058
backed	13059
ĠCambridge	13060
Ant	13061
Ġadmits	13062
EG	13063
Ġsacrific	13064
Ġdivorce	13065
Ġpermits	13066
Ġsensor	13067
Ġ01	13068
ĠRaven	13069
Ġdecreased	13070
owners	13071
ãģ®	13072
CNN	13073
ĠDNC	13074
Ġexecute	13075
rained	13076
Ġgenerous	13077
Ġaftermath	13078
ĠPur	13079
olo	13080
ĠKarl	13081
]:	13082
Ġ()	13083
ĠEss	13084
esis	13085
Ġwallet	13086
Ġcomply	13087
Ġsued	13088
Ġdraws	13089
Ġ82	13090
second	13091
Ġtat	13092
Ġcomparing	13093
UM	13094
Ġunfortunate	13095
Sy	13096
Ġarriving	13097
Ġfinancing	13098
Ġretreat	13099
tha	13100
visor	13101
isers	13102
Ġdisorders	13103
Ġstrain	13104
ĠArkansas	13105
Ġvariation	13106
ĠMilitary	13107
Ġslave	13108
Ġenhanced	13109
ĠWikiLeaks	13110
inging	13111
Ġwinds	13112
Ġfeeding	13113
source	13114
Ġfemales	13115
ĠEli	13116
ĠRodrig	13117
ropolitan	13118
tail	13119
ĠGhost	13120
opes	13121
Ġverdict	13122
Ġhelicopter	13123
Ġaccountable	13124
Ġconclude	13125
aws	13126
Ġunh	13127
ĠGuy	13128
izable	13129
ĠDeputy	13130
ĠSM	13131
ĠFisher	13132
Ġcreep	13133
ĠRobin	13134
ĠREUTERS	13135
DB	13136
Ġcheer	13137
Ġtreatments	13138
Ġbatteries	13139
Ġreconst	13140
Ġunders	13141
advant	13142
ĠJake	13143
South	13144
ĠMemorial	13145
ĠNeil	13146
mouth	13147
ĠURL	13148
Ġpreference	13149
LY	13150
ĠConnecticut	13151
Ġcontacts	13152
Ġsilly	13153
Ġlasted	13154
Ġmasses	13155
ĠPolish	13156
ĠCommunications	13157
Ġcompound	13158
Ġembedded	13159
Ġsequel	13160
Ġretailers	13161
Ġcorresponding	13162
giving	13163
ĠMission	13164
Ġdestroying	13165
Ġlacking	13166
Ġdaughters	13167
igma	13168
erer	13169
ĠTyler	13170
Ġwondered	13171
direct	13172
Ġdys	13173
NY	13174
Ġcapitalist	13175
five	13176
Ġencountered	13177
Inte	13178
Ġeconomist	13179
UE	13180
Ñĭ	13181
Ġreun	13182
ĠRoom	13183
Ġampl	13184
Ġvertical	13185
Ġlicensed	13186
vation	13187
Four	13188
Ġwarfare	13189
ĠIRS	13190
ĠKrist	13191
ĠThunder	13192
ĠEmb	13193
Ġfounding	13194
normal	13195
ĠVenezuela	13196
Ġcub	13197
Ġaging	13198
Ġsmugg	13199
ĠMaria	13200
irable	13201
Ġhill	13202
Ġgifts	13203
Ġstatistical	13204
have	13205
pop	13206
Ġslower	13207
Ġadvances	13208
ĠPakistani	13209
arest	13210
Ġgravity	13211
LO	13212
Ġfierce	13213
char	13214
ĠConservatives	13215
Ġcareers	13216
Ġstabil	13217
Work	13218
acceptable	13219
ĠSpeed	13220
Ġ1983	13221
ahl	13222
Ġvillages	13223
elta	13224
Ġintentions	13225
ĠScar	13226
Ġorganisations	13227
Ã©s	13228
Ġseparation	13229
ĠDownload	13230
Using	13231
Ġauthorized	13232
Ġkingdom	13233
ĠAdvent	13234
Ġcounting	13235
ĠLucas	13236
haul	13237
Ġtragic	13238
Ġgoverning	13239
Ġwarnings	13240
Ġdispro	13241
Ġinsurg	13242
ĠÏ	13243
ĠPlayers	13244
Ġ1982	13245
ĠStudios	13246
ĠSalt	13247
Ġfarms	13248
ĠSusan	13249
ĠMerkel	13250
Ġcommissioner	13251
Ġdiagnosed	13252
Ġtaxpayer	13253
ĠSpirit	13254
image	13255
itbart	13256
utical	13257
Ġlobbying	13258
airy	13259
Ġedited	13260
Ġdemol	13261
Ġalph	13262
Ġtransformed	13263
ĠCz	13264
Ġcleaning	13265
ĠHub	13266
Ġstreak	13267
Ġsuspicion	13268
Fig	13269
Ġawa	13270
Ġeleph	13271
ĠHolland	13272
Ġlip	13273
Ġcodes	13274
Ġcontinuous	13275
itative	13276
Ġboring	13277
ĠBos	13278
anka	13279
cha	13280
ĠPrize	13281
ĠSciences	13282
Ġconsiders	13283
Ġmillenn	13284
cribed	13285
Ġscreening	13286
Ġgamers	13287
ĠStars	13288
ĠAth	13289
Ġcontam	13290
Ġdamages	13291
oline	13292
oler	13293
ardless	13294
Ġtenure	13295
ĠKle	13296
writer	13297
Ġfib	13298
ĠThor	13299
ĠNav	13300
Ġdece	13301
earchers	13302
ĠZh	13303
ĠBrand	13304
Start	13305
Ġinclusion	13306
Ġcluster	13307
Ġfuneral	13308
Ġfence	13309
heric	13310
Ġaired	13311
Ġinstruction	13312
anked	13313
Ġtrafficking	13314
Ġfeared	13315
âĪĴ	13316
Ġdonation	13317
ĠPinterest	13318
ussion	13319
Ġworkplace	13320
Ġinvite	13321
fly	13322
ĠDanny	13323
Ġcredibility	13324
rint	13325
Ġteens	13326
Ġinstitutional	13327
Ġmonsters	13328
ĠDest	13329
idays	13330
ĠMM	13331
Ġcollapsed	13332
Ġ''	13333
cker	13334
Ġjustified	13335
Sign	13336
AG	13337
ppy	13338
Ġhence	13339
hammad	13340
oa	13341
Ġnan	13342
Ġhypothesis	13343
iph	13344
claimed	13345
ortheast	13346
Ġsuspicious	13347
Ġdenial	13348
Ġorganizing	13349
ĠTheatre	13350
Ġisolation	13351
adows	13352
Ġgrace	13353
ueller	13354
ĠMormon	13355
Ġspawn	13356
ĠWithin	13357
inance	13358
Ġsteam	13359
Ġboyfriend	13360
Ġcivilization	13361
Ġnovels	13362
Ġwrestling	13363
Ġurging	13364
.:	13365
Ġinterference	13366
Ġdoubled	13367
ĠIslamist	13368
ĠPeters	13369
Ã£	13370
Ġthirty	13371
home	13372
Ġrealm	13373
fil	13374
Ġmagnetic	13375
.âĢľ	13376
Ġrib	13377
Ġbelieving	13378
Ġexpend	13379
Ġoutright	13380
Ġmedian	13381
Ġevangel	13382
Ġsooner	13383
ĠInterest	13384
Orig	13385
Ġindict	13386
Ġbeneficial	13387
Ġbranches	13388
Ġdecks	13389
Ġcrying	13390
Ġcompiled	13391
ollah	13392
Ġrecruiting	13393
Ġmock	13394
Ġeducated	13395
Ġenables	13396
ools	13397
Ġleverage	13398
Ġinvented	13399
Ġrhyth	13400
Cap	13401
Ġrushing	13402
Ġeliminated	13403
coins	13404
Hill	13405
Jan	13406
Os	13407
Type	13408
urable	13409
live	13410
opard	13411
Ġsponsored	13412
aceutical	13413
Dec	13414
Ġtraits	13415
Ġunveiled	13416
Ġbeers	13417
Ð´	13418
ĠCharlotte	13419
ĠUbuntu	13420
Met	13421
ĠStudio	13422
ĠCincinnati	13423
Ġtemplate	13424
kh	13425
Ġpleaded	13426
Ġroutinely	13427
ĠBash	13428
Ah	13429
Ġpizza	13430
USA	13431
Ġlabels	13432
ADVERTISEMENT	13433
ĠTD	13434
References	13435
Ġevaluate	13436
Ġdumb	13437
Stud	13438
Ġsolidarity	13439
Ġagrees	13440
Ġtemple	13441
ĠLtd	13442
Ġbreathing	13443
Ġox	13444
Ġalbums	13445
aux	13446
ĠKam	13447
ĠFormer	13448
Whether	13449
roduction	13450
ĠBradley	13451
ĠHills	13452
Ġdiscour	13453
ĠPrinc	13454
Ġlayout	13455
ĠFel	13456
Ġ88	13457
Ġlau	13458
render	13459
feld	13460
ĠGlass	13461
Ġultra	13462
General	13463
amps	13464
Ġshifts	13465
ĠTar	13466
Ġincentive	13467
ĠCut	13468
Ġdirectory	13469
ĠLeaf	13470
James	13471
ĠCarson	13472
stage	13473
ĠOd	13474
Ġentrepreneurs	13475
ĠBuy	13476
aha	13477
ĠSolar	13478
ĠHindu	13479
Ġvibr	13480
Ġmagnitude	13481
Mal	13482
Ġjumping	13483
Alex	13484
astically	13485
ĠCass	13486
Islam	13487
Ġsmartphones	13488
ĠOliver	13489
Ġcomparable	13490
Ġclimbing	13491
width	13492
ĠIndonesia	13493
Ġarrangement	13494
Ġwheels	13495
Ġpaths	13496
Ġterminal	13497
essional	13498
Ġpilots	13499
driven	13500
Ġincentives	13501
Ġmidfielder	13502
Ġdirt	13503
UI	13504
Ġspecified	13505
Ġexceptions	13506
table	13507
Ġadequate	13508
Ġsnaps	13509
Ġmonop	13510
Ġcocaine	13511
Ġpsychology	13512
Ġpeoples	13513
ordable	13514
arthy	13515
Ġcents	13516
Ġpreliminary	13517
ĠSenior	13518
ĠLED	13519
Ġpartial	13520
ĠMcL	13521
pur	13522
ĠAB	13523
ĠVerizon	13524
2009	13525
ĠVermont	13526
ĠPence	13527
Ġscreaming	13528
Ġlyrics	13529
Ġvisa	13530
ĠBJP	13531
illo	13532
Ġtranslated	13533
ucc	13534
Ġglob	13535
Ġfirmly	13536
irk	13537
Ġchains	13538
unct	13539
Ġgenet	13540
ĠTribune	13541
God	13542
Ġintroducing	13543
ĠJoy	13544
Ġregards	13545
Ġconnecting	13546
fold	13547
Ġcounterparts	13548
Ġamend	13549
Ġacres	13550
ĠStre	13551
Ġbust	13552
Ġcricket	13553
>>>>	13554
ĠGonz	13555
Ġappealing	13556
ĠFriends	13557
Ġmeals	13558
Ġunst	13559
anium	13560
ĠFab	13561
Ġscul	13562
Ġunrest	13563
WA	13564
ĠCountry	13565
Ġwildlife	13566
Ã©mon	13567
bull	13568
Make	13569
120	13570
Ġdivers	13571
ĠSox	13572
ĠNin	13573
ĠTob	13574
Ġtraditions	13575
Ġthreaten	13576
jar	13577
occ	13578
Ġpupp	13579
Ġcreators	13580
Â£	13581
Ġ::	13582
Ġvacation	13583
Ġsensors	13584
Ġlikelihood	13585
ĠBooks	13586
Ġdetermination	13587
Ġcommented	13588
Ġanime	13589
Ġtrace	13590
Ġtriple	13591
Ġconvinc	13592
umbling	13593
cend	13594
Ġmatching	13595
lie	13596
ĠProfile	13597
Ġcounted	13598
ĠðŁ	13599
Ġbetray	13600
ivic	13601
ervation	13602
Ġprecious	13603
resa	13604
ĠPAC	13605
Ġtoy	13606
Ġplaint	13607
rien	13608
ĠBelgium	13609
ÃĹ	13610
Ġmotorcy	13611
Ġparagraph	13612
Ġtransf	13613
Ġsheer	13614
ĠLebanon	13615
ulative	13616
Ġinvestor	13617
Ġkills	13618
Ġleagues	13619
Ġendorsed	13620
NET	13621
Ġaccurately	13622
Ġlicensing	13623
ante	13624
ĠArthur	13625
Ġtwist	13626
Ġshifting	13627
Russia	13628
ĠAMD	13629
iasm	13630
anto	13631
ĠNixon	13632
iang	13633
lude	13634
Ġfolder	13635
ĠCowboys	13636
Ġdism	13637
ĠBY	13638
West	13639
Ġdisappointing	13640
ateur	13641
Ġavoiding	13642
Ġcompassion	13643
aton	13644
iots	13645
Ġjew	13646
Ġgrain	13647
acker	13648
Ġ1920	13649
Ġprohibited	13650
Ġmerc	13651
url	13652
ĠBrazilian	13653
ĠGarc	13654
ĠRosen	13655
ugged	13656
ĠArgentina	13657
Ġworkforce	13658
Ġaccounting	13659
UPDATE	13660
ĠRams	13661
Ġspare	13662
Ġorg	13663
Ġnit	13664
Ġproceedings	13665
pse	13666
ĠUniversal	13667
Ġfict	13668
ĠEbola	13669
Ġriot	13670
Ġlengthy	13671
Ġslaves	13672
ĠWeiss	13673
ĠPolitical	13674
riving	13675
Ġdubbed	13676
pring	13677
SM	13678
Ġinmates	13679
Ġmentally	13680
Ġshaped	13681
Ġfundraising	13682
Ġoverlook	13683
Ġcelebrity	13684
Ġtouchdowns	13685
Oct	13686
tor	13687
ocaly	13688
Ġ1981	13689
Ġindirect	13690
Ġmarine	13691
Ġshed	13692
Ġwillingness	13693
Ġdivid	13694
kees	13695
aley	13696
aghd	13697
HD	13698
affe	13699
Ġintu	13700
ĠBros	13701
Ġseverely	13702
ulum	13703
OST	13704
Ġgenerating	13705
Ġestablishing	13706
Green	13707
ĠNex	13708
ifting	13709
Ġshoulders	13710
Ġnegotiate	13711
Ġimplementing	13712
ĠSerge	13713
Ġpowder	13714
Europe	13715
Ġrenewed	13716
ĠMO	13717
ĠFinance	13718
Rich	13719
redict	13720
Ġconsumed	13721
gel	13722
Ġswimming	13723
Ġbite	13724
Ġcreativity	13725
ĠQaeda	13726
Ġrelating	13727
Jack	13728
je	13729
vals	13730
Ġsectors	13731
rament	13732
Ġfiref	13733
len	13734
Ġcertificate	13735
ĠGlenn	13736
ĠPhone	13737
Åį	13738
aku	13739
Ġassumptions	13740
sson	13741
ĠHunt	13742
kg	13743
ĠØ	13744
ublin	13745
Day	13746
lash	13747
people	13748
Ġinteractive	13749
Sometimes	13750
ĠTell	13751
iosity	13752
Ġobserve	13753
auer	13754
Ġtradem	13755
SON	13756
ĠGates	13757
Ġaccompany	13758
ullivan	13759
Ġaveraged	13760
Ġreflection	13761
itated	13762
Ġhij	13763
ĠCher	13764
READ	13765
High	13766
ioxide	13767
Ġbrave	13768
uced	13769
Ġsail	13770
Ġroyal	13771
ĠMust	13772
ĠEc	13773
ÑĮ	13774
Ġdisk	13775
ĠAnim	13776
Ġaffecting	13777
isible	13778
Rober	13779
ĠLane	13780
days	13781
outube	13782
uv	13783
Ġfilming	13784
Ġworn	13785
Ġblacks	13786
aters	13787
Tor	13788
Ġfolk	13789
Chris	13790
ĠArmen	13791
ulent	13792
Ġindigenous	13793
Ġearthquake	13794
qual	13795
Ġpub	13796
Ġsubscription	13797
ĠBond	13798
Ġtub	13799
Ġconsultant	13800
Ġmounted	13801
Ġadaptation	13802
Ġclinic	13803
Ġ79	13804
Ġdetection	13805
gro	13806
olutions	13807
ĠAve	13808
ĠAnne	13809
Ġcompatible	13810
rose	13811
ĠMarco	13812
ĠMilwaukee	13813
Ġrepublic	13814
acious	13815
ĠClar	13816
Ġye	13817
engu	13818
Ġrecalls	13819
Ġ130	13820
Ġfuels	13821
olphins	13822
Ġcorners	13823
Ġspecialist	13824
Brit	13825
Ġescaped	13826
ĠHighway	13827
Ġdiabetes	13828
German	13829
Ġ1967	13830
Ġwooden	13831
ĠMason	13832
Ġadjusted	13833
Ġpredictions	13834
Ġtriumph	13835
iology	13836
Ġimpress	13837
Ġslip	13838
ooting	13839
Ġproblematic	13840
ĠCelt	13841
Ġlesser	13842
Ġadmission	13843
Ġfarming	13844
Ġliterary	13845
nik	13846
Ġtranscript	13847
âĸĪâĸĪ	13848
Ġmarry	13849
Ġmaker	13850
Ġlawsuits	13851
Ġaggression	13852
ĠEdd	13853
ĠBlues	13854
ĠCreek	13855
Ġorigins	13856
ĠColomb	13857
abul	13858
ĠHum	13859
inos	13860
Ġhealing	13861
Ġaudit	13862
Ġcontinent	13863
ĠBulls	13864
Ġtrap	13865
ĠGermans	13866
Ġ110	13867
WH	13868
Ġholy	13869
ĠDouglas	13870
Ġdescript	13871
Ġwherever	13872
etta	13873
his	13874
Ġmusicians	13875
eches	13876
ĠRC	13877
closure	13878
ĠGoldman	13879
issa	13880
Ġvon	13881
Super	13882
ĠÐ¿	13883
ĠBB	13884
Ġunderway	13885
Ġmortality	13886
ĠReading	13887
eting	13888
neath	13889
blog	13890
Ġevaluation	13891
orns	13892
Ġpants	13893
Ġabused	13894
ĠGallery	13895
Ġvulnerability	13896
Ġbankruptcy	13897
Ġsuperhero	13898
Ġdelays	13899
ĠParenthood	13900
Ġreset	13901
Ġleather	13902
Ġleaf	13903
Writ	13904
Ġshore	13905
Ġindependently	13906
munition	13907
Ġveto	13908
ocaust	13909
Ġskilled	13910
hal	13911
Russian	13912
ĠTry	13913
alph	13914
hew	13915
Ġtimeline	13916
ignt	13917
ĠSpider	13918
Muslim	13919
Ġleaks	13920
iliation	13921
ĠVA	13922
ĠSor	13923
Ġintercept	13924
ector	13925
Ġresignation	13926
Ġinch	13927
Ġsuits	13928
actic	13929
Ġwreck	13930
Ġcycling	13931
ĠSW	13932
ĠBroncos	13933
Ġ180	13934
Ġdarkness	13935
Ġorganize	13936
Ġswift	13937
ĠMort	13938
ĠSuperman	13939
ĠVi	13940
Ġsheriff	13941
ailand	13942
asi	13943
ĠBernard	13944
atherine	13945
blem	13946
rape	13947
Ġafterwards	13948
Ġresume	13949
Ġseiz	13950
Ġsupportive	13951
levant	13952
PN	13953
esity	13954
marks	13955
Ġshootings	13956
Ġ]<|	13957
ĠSomething	13958
Ġinappropriate	13959
ĠJoh	13960
Ġforming	13961
Ġ1940	13962
Ġlaughing	13963
Ġbehaviors	13964
Tunes	13965
selling	13966
issance	13967
Ġalternate	13968
umbl	13969
ĠIl	13970
pered	13971
Ġunanim	13972
ĠIsa	13973
Ġtestified	13974
lights	13975
Ġrebell	13976
Ġ1968	13977
Ġesp	13978
Ġpractically	13979
ugging	13980
ĠBudget	13981
ĠSad	13982
ĠDM	13983
rowth	13984
Ġbroadband	13985
Ġcrashed	13986
Ġthoroughly	13987
Ġinsists	13988
Ġteenage	13989
ĠLock	13990
Ġsie	13991
Ġbind	13992
Ġlaboratory	13993
Ġdisadvant	13994
REL	13995
Ġune	13996
Ġprest	13997
ĠJohnny	13998
Ġdoctrine	13999
Ġencryption	14000
ĠExchange	14001
iop	14002
uru	14003
Ġconsolid	14004
Ġkernel	14005
black	14006
ĠVikings	14007
Ġlocally	14008
ĠAlf	14009
Ġoutbreak	14010
Americans	14011
Ġexhaust	14012
ĠGate	14013
Ġoffshore	14014
Ġsounded	14015
keys	14016
Ġexpose	14017
Ġapology	14018
ĠQB	14019
COM	14020
Ġoutfit	14021
ĠReed	14022
ITY	14023
Ġcolonial	14024
bean	14025
ĠMember	14026
riel	14027
Ġautonomous	14028
Å¡	14029
Ġcorporation	14030
Ġcostly	14031
display	14032
Ġprox	14033
uns	14034
Ġneat	14035
Ġphotographer	14036
Ġgray	14037
Ġanalyses	14038
addy	14039
Ġkillings	14040
City	14041
ĠSpencer	14042
four	14043
illery	14044
Ġdemonstrations	14045
ĠLiving	14046
Ġcharts	14047
Ġintend	14048
apy	14049
Ġreasoning	14050
Ġclassical	14051
..."	14052
Ġdemon	14053
Ġedges	14054
Ġmobil	14055
ĠPalestine	14056
Ġattacker	14057
ĠWR	14058
ependence	14059
Ġvegetables	14060
wer	14061
Ġinfer	14062
ĠSeah	14063
Ġmatched	14064
Ġembassy	14065
Ġpurchasing	14066
Ġlecture	14067
Ġcm	14068
lementary	14069
Ġhed	14070
ĠAgree	14071
Ġcra	14072
IDS	14073
funded	14074
Ġswitched	14075
ĠKoch	14076
prote	14077
Mike	14078
Ġlocals	14079
ĠFat	14080
ĠWalter	14081
ĠDiam	14082
Ġlap	14083
Ġrated	14084
proof	14085
Ġobligation	14086
ocity	14087
ĠInv	14088
itis	14089
Ġgarbage	14090
abad	14091
Ġstatue	14092
ella	14093
ĠSystems	14094
Ġstraightforward	14095
2000	14096
Ġgods	14097
Ġelaborate	14098
Ġbuses	14099
ĠLess	14100
uum	14101
Ã£o	14102
Ġflowers	14103
Ġterritories	14104
Ġ1976	14105
Ġportfolio	14106
900	14107
ĠBased	14108
ĠBetween	14109
cules	14110
ocumented	14111
Ġ101	14112
Ġinfamous	14113
Ġtrauma	14114
Ġoh	14115
ĠLoad	14116
ĠMichelle	14117
ĠMerc	14118
Ġunfold	14119
CR	14120
asm	14121
ĠSoul	14122
Ġorche	14123
Bit	14124
lem	14125
Ġairline	14126
)(	14127
ioned	14128
oping	14129
oubted	14130
reach	14131
Ġhalt	14132
ĠTory	14133
Ġprivately	14134
azed	14135
cca	14136
zi	14137
ignty	14138
ĠEmploy	14139
ĠMMA	14140
Ġsisters	14141
Ġdealers	14142
Ġbesides	14143
ĠHomeland	14144
Everyone	14145
Ġ^	14146
ĠAqu	14147
ĠKind	14148
php	14149
Ġpepper	14150
LS	14151
Such	14152
Ġloving	14153
Ġfame	14154
ĠUnit	14155
Ġfrustrating	14156
Ġaccommodate	14157
iking	14158
ĠMuhammad	14159
Ġmedication	14160
Ġathlete	14161
Ġforums	14162
Ġ1975	14163
Ġburg	14164
ä¸	14165
Ġnuts	14166
Ġattributes	14167
Av	14168
Ġpredomin	14169
ĠHem	14170
ĠVeter	14171
ĠDenmark	14172
Asked	14173
Ġheter	14174
rolling	14175
ĠBuild	14176
ĠPere	14177
ĠComics	14178
names	14179
ĠHat	14180
ĠGear	14181
Ġrankings	14182
Ġclosure	14183
ortions	14184
Ġlimiting	14185
Ġmodes	14186
pelled	14187
Ġ98	14188
Ġstriker	14189
nesty	14190
Ġsearches	14191
viol	14192
Ġsink	14193
ĠCalgary	14194
Ġimagined	14195
bul	14196
Ġ81	14197
Ġdated	14198
Ġwithdrawal	14199
Ġeighth	14200
Ġquery	14201
writing	14202
ĠLuck	14203
Ġeffectiveness	14204
respons	14205
Ġstays	14206
iri	14207
Ġobservers	14208
ĠNumber	14209
ĠSubscribe	14210
Ġintake	14211
Ġmph	14212
Ġspill	14213
Ġdioxide	14214
othy	14215
Ġcarriers	14216
ĠShadow	14217
ĠWATCH	14218
Ġenthusiasm	14219
Ġgrat	14220
prom	14221
Ġwhilst	14222
Ġconvey	14223
Ġuncons	14224
Ġmisleading	14225
Ġ1973	14226
ĠRelations	14227
Ġpublishers	14228
Ġmeasurements	14229
ĠMovement	14230
Ġsubstantially	14231
Ġnominated	14232
shirt	14233
iga	14234
ĠHarrison	14235
Ġhistorian	14236
LD	14237
ĠKel	14238
Ġlisting	14239
ĠConfeder	14240
Article	14241
ahn	14242
ĠGPS	14243
Ġstrings	14244
ĠBuzz	14245
Ġqualities	14246
Ġdelicious	14247
Â®	14248
Ġlocker	14249
Ġresponsibilities	14250
Ġdangers	14251
Ġexamination	14252
Ġhungry	14253
Bay	14254
ĠBrun	14255
Ġdiagnosis	14256
Ġdash	14257
ĠSel	14258
Sep	14259
ovic	14260
ĠPalin	14261
Ġplea	14262
Does	14263
Ġhood	14264
Ġdrought	14265
iche	14266
Ġexagger	14267
national	14268
ĠPT	14269
ĠRace	14270
Ġwand	14271
roots	14272
ĠHud	14273
Ġdisclose	14274
ĠTeh	14275
abel	14276
ĠACL	14277
Ġrevised	14278
Ġrelies	14279
Ġstab	14280
Ġdiffer	14281
Ġinevitably	14282
Semit	14283
Ġbloody	14284
Ġmemorial	14285
ĠJar	14286
Ġvolumes	14287
Ġcher	14288
ĠRico	14289
Ġignoring	14290
ĠUpdate	14291
mination	14292
Ġ84	14293
Ġloyalty	14294
help	14295
izont	14296
Ġvariations	14297
Ġshutdown	14298
ORT	14299
Ġmaintains	14300
ĠSoftware	14301
Ġentries	14302
ĠCarlos	14303
Ġammunition	14304
Ġ1972	14305
Looking	14306
Ġsymbols	14307
ĠBlair	14308
ĠWoman	14309
Again	14310
Ġports	14311
arts	14312
Ġyours	14313
AK	14314
MI	14315
comm	14316
Ġ83	14317
Ġfriendship	14318
ĠPas	14319
insula	14320
!!!	14321
wear	14322
olan	14323
Ġpile	14324
Ġclassroom	14325
Ġaltered	14326
pit	14327
mines	14328
Ġdemographic	14329
Ġoccurring	14330
Ġcod	14331
Ġphotography	14332
ĠVillage	14333
ĠAmy	14334
Ġaggreg	14335
Life	14336
ĠDennis	14337
Ġtribal	14338
Ġquad	14339
Dep	14340
INGTON	14341
Ġalgorithms	14342
ository	14343
Ġhorses	14344
Ġformerly	14345
entials	14346
Ġreduces	14347
Ġbriefing	14348
Ġfundamentally	14349
Ġfulfill	14350
ĠPlanned	14351
Ġpseud	14352
Ġinhabit	14353
Ġraped	14354
Ġcelebrating	14355
del	14356
hole	14357
Ġvessel	14358
Ġheroin	14359
ĠBrooks	14360
########	14361
Ġdesperately	14362
artisan	14363
Ġgallery	14364
Ġmetres	14365
ĠWallace	14366
Ġskull	14367
ĠDR	14368
ĠLisa	14369
Ġmidst	14370
lient	14371
ĠTransportation	14372
INE	14373
Ġbikes	14374
ĠGMT	14375
ĠJa	14376
pts	14377
Ġreinfor	14378
represent	14379
Ġdispens	14380
ĠGit	14381
âĢ¦âĢĿ	14382
Ġdeleted	14383
wealth	14384
Ġunlimited	14385
Ġ1978	14386
Ġsacred	14387
ĠMi	14388
Ġoutdoor	14389
Ġshy	14390
Ġarchae	14391
ĠHockey	14392
aba	14393
ften	14394
ĠSunni	14395
Ġnewest	14396
Ġdeclining	14397
idges	14398
Ġbelongs	14399
Ac	14400
Ġinsure	14401
Ġprescription	14402
Ġspectacular	14403
Ġfiber	14404
Ret	14405
Ġexercises	14406
Ġexpressing	14407
Ġjuice	14408
ARD	14409
Point	14410
Ġmodules	14411
Qaeda	14412
db	14413
Ġaccountability	14414
ĠLiberals	14415
Ġschemes	14416
ĠAld	14417
ĠRaiders	14418
ĠTerror	14419
letter	14420
Ġpipe	14421
Ġgarage	14422
Ġgovernance	14423
Ġflesh	14424
also	14425
Ġtribute	14426
Ġconsume	14427
urring	14428
Indeed	14429
Ġrubber	14430
ITH	14431
hner	14432
ĠEdwards	14433
ocide	14434
Ġpresidents	14435
Ġlinebacker	14436
Ġwip	14437
arette	14438
itial	14439
ellar	14440
Rob	14441
Ġarranged	14442
ĠMC	14443
ĠPick	14444
Ġchase	14445
Ġshapes	14446
Ġfilmed	14447
pic	14448
RES	14449
Ġbedroom	14450
alin	14451
puted	14452
Apple	14453
ĠPokÃ©mon	14454
sche	14455
ĠShel	14456
Ġsolved	14457
Ġ86	14458
ĠSeahawks	14459
remlin	14460
Ġaide	14461
Ġproc	14462
ulu	14463
Ġnodes	14464
agging	14465
Ġreception	14466
ĠMueller	14467
Ġconfusing	14468
Ġplayback	14469
heimer	14470
Ġbillionaire	14471
uki	14472
Ġtwin	14473
Ġaccidentally	14474
ĠAgr	14475
lay	14476
ĠChapter	14477
oubtedly	14478
Ġbinding	14479
ppo	14480
ĠJennifer	14481
ĠBus	14482
Copyright	14483
irtual	14484
Ġloses	14485
Ġrage	14486
Ġpermanently	14487
runner	14488
ulsion	14489
Mat	14490
ĠWonder	14491
Ġtoys	14492
apor	14493
2008	14494
VA	14495
Ġexhibition	14496
Ang	14497
Ġunle	14498
Ġmeg	14499
ĠServer	14500
Ġsanct	14501
ĠCoach	14502
ĠSilicon	14503
Ġmisconduct	14504
Ġspirits	14505
aneous	14506
Ġ96	14507
Ġwounds	14508
Ġmedal	14509
Ġboats	14510
Ġthumb	14511
sis	14512
working	14513
chair	14514
ĠLost	14515
Ġfreshman	14516
ĠSi	14517
ĠFly	14518
Ġvigil	14519
Ġluc	14520
Ġprejud	14521
Ġsells	14522
ĠFame	14523
Ġconsiderably	14524
ĠPhotograph	14525
Ġdemonstrates	14526
ĠDublin	14527
ĠRah	14528
Ġgrey	14529
semble	14530
Ġlasting	14531
Ġshipped	14532
Ġstrictly	14533
Ġmanages	14534
Ġchemistry	14535
onge	14536
Ġregulate	14537
Ġfinals	14538
mel	14539
reated	14540
ĠShar	14541
Ġ87	14542
Ġmilitant	14543
Ġlabeled	14544
Cr	14545
degree	14546
Ġfines	14547
Ġtolerance	14548
Ġtier	14549
ĠNPR	14550
ĠTruth	14551
Ġskeptical	14552
Phot	14553
Ġexceptional	14554
Ġspite	14555
Ġfancy	14556
ĠMalaysia	14557
Mer	14558
rong	14559
San	14560
ieval	14561
Ġlinear	14562
ĠUrban	14563
GR	14564
Ġstreams	14565
ungle	14566
Prof	14567
ĠChile	14568
ĠForum	14569
ĠZion	14570
ĠAuto	14571
Ġpuzzle	14572
ĠString	14573
Ġreasonably	14574
ĠRoth	14575
Ġtackles	14576
Ġcancelled	14577
ĠJuan	14578
Ġdenying	14579
ete	14580
arding	14581
Ġpitcher	14582
Ġ97	14583
ĠDod	14584
Aug	14585
Micro	14586
Ġprocessed	14587
ĠGand	14588
Ġlovely	14589
ĠHero	14590
space	14591
Author	14592
ĠRat	14593
ĠViol	14594
prov	14595
Ġmas	14596
Ġmidnight	14597
Ġretrie	14598
ĠResources	14599
ĠOperation	14600
thirds	14601
Sl	14602
Ġspends	14603
Ġrestored	14604
manuel	14605
Ġorganizers	14606
Ġmonument	14607
px	14608
Ġunacceptable	14609
forming	14610
Ġsubmar	14611
ĠYears	14612
Ġtuned	14613
Ġgenuinely	14614
Ġquo	14615
Ġteenagers	14616
olutely	14617
Ġbell	14618
ĠPalace	14619
ĠRush	14620
Ġfacilitate	14621
Ġmature	14622
psy	14623
ĠCond	14624
ĠFile	14625
ĠSelf	14626
Ġfoul	14627
ĠRepresentatives	14628
Ġdancing	14629
ths	14630
Ġrelate	14631
borough	14632
Ġoutlined	14633
ĠTill	14634
ĠBilly	14635
Mem	14636
Ġadvers	14637
Ġautomated	14638
Ġobligations	14639
Ġsexuality	14640
Ġdivisions	14641
Ġextends	14642
................	14643
Ġtourism	14644
Ġsurveys	14645
ĠMcCarthy	14646
retion	14647
Ġleap	14648
ĠiTunes	14649
ĠThailand	14650
airo	14651
Ev	14652
Ġsuccessor	14653
Early	14654
BER	14655
oween	14656
ĠPad	14657
ĠCharg	14658
ido	14659
ĠBennett	14660
ĠShield	14661
Ġspotlight	14662
ĠMack	14663
ĠÂĵ	14664
ĠArn	14665
Tur	14666
Ġanonymity	14667
inery	14668
Ġinability	14669
Ġaboard	14670
Ġdefining	14671
ĠNDP	14672
wick	14673
ĠZero	14674
ĠRichmond	14675
Ġrecommendation	14676
Ġunderneath	14677
ĠInvalid	14678
Ġdrilling	14679
ripp	14680
ĠSpurs	14681
Î±	14682
Ġgeneric	14683
exp	14684
istically	14685
Ġsubjected	14686
Ġhearings	14687
Ġbattlefield	14688
Ġpound	14689
Ġincumb	14690
Ġsnap	14691
ESS	14692
clusion	14693
ĠCzech	14694
ĠGriffin	14695
ĠGay	14696
Ġsect	14697
Ġspeeches	14698
Ġconsistency	14699
ĠObviously	14700
Ġvictories	14701
ĠBetter	14702
ĠBangl	14703
ĠReturn	14704
headed	14705
ĠChamber	14706
ĠGB	14707
Ġpiv	14708
ĠHope	14709
aires	14710
Sur	14711
Ġcontractors	14712
ĠChronicle	14713
Ġcorrid	14714
ĠSeven	14715
ync	14716
Ġlined	14717
Ġrisen	14718
closed	14719
Ġguilt	14720
mos	14721
ranean	14722
Ġtongue	14723
Ġoverhaul	14724
Ġincoming	14725
ĠCommerce	14726
PH	14727
mile	14728
anti	14729
Ġadverse	14730
ĠBreitbart	14731
ĠMaj	14732
edge	14733
Ġparade	14734
Ġpremiere	14735
SO	14736
Ġsalaries	14737
ĠRecord	14738
ĠElsa	14739
Ġconcess	14740
Ġtravelling	14741
ĠSay	14742
ĠBeyond	14743
ĠLLC	14744
Ġstepping	14745
ĠSoccer	14746
Ġnamely	14747
Ġembraced	14748
oust	14749
Ġfrankly	14750
write	14751
Ġdiscon	14752
Ġrendering	14753
holder	14754
ĠSoon	14755
âĢĿâĢĶ	14756
Ġtranslate	14757
ĠFitz	14758
ĠTitle	14759
Ġconfidential	14760
Ġmelt	14761
ĠAccount	14762
Ġplates	14763
Ġ02	14764
gs	14765
Ġexhibit	14766
Ġconfronted	14767
Ġ1969	14768
ĠQatar	14769
Ġbinary	14770
Ġdive	14771
Ġì	14772
icers	14773
Ġanalyzed	14774
bad	14775
Ġtactical	14776
Ġdefic	14777
Ġartif	14778
{\	14779
bsite	14780
Ġliability	14781
ĠWorkers	14782
ãĢĤ	14783
Ġempower	14784
ĠPackers	14785
ĠHurricane	14786
ĠGP	14787
ĠElectric	14788
ĠGas	14789
green	14790
inate	14791
Ġbureaucrat	14792
Download	14793
Ġstroke	14794
ĠPun	14795
ĠSurvey	14796
cill	14797
Ġrede	14798
Ġunited	14799
Ġfunctioning	14800
team	14801
agged	14802
Ġgard	14803
ĠCape	14804
ierra	14805
osi	14806
Ġdot	14807
accur	14808
Ġarrives	14809
Ġlicenses	14810
Ġrings	14811
ĠCuban	14812
Ġpartisan	14813
House	14814
Ġdonate	14815
ĠMall	14816
kill	14817
Ġmate	14818
Ġbacklash	14819
ĠBryant	14820
Ġvendors	14821
ĠMVP	14822
Ġdoubts	14823
lett	14824
usterity	14825
ĠHalf	14826
Ġstealing	14827
Ġsignatures	14828
Ġcargo	14829
Ġvib	14830
Ġfelony	14831
ĠIv	14832
lington	14833
mor	14834
ĠNA	14835
ĠGreens	14836
Ġgrocery	14837
ĠSF	14838
Ġclouds	14839
ĠMLB	14840
mingham	14841
Ġjack	14842
Ġpublications	14843
Ġcasualties	14844
Ġ911	14845
Ġautism	14846
Ġpale	14847
Ġnegotiating	14848
Ġcoastal	14849
ĠNeed	14850
IFA	14851
ĠRAM	14852
ĠStudy	14853
Ġ93	14854
Ġobjectives	14855
Ġmentions	14856
ĠPrint	14857
Ġretro	14858
Ġglory	14859
disc	14860
Ġsovereignty	14861
Ġelectronics	14862
Ġdefendants	14863
IGHT	14864
ango	14865
=âĢĿ	14866
ĠHBO	14867
ority	14868
Ġ>>	14869
Ġpremier	14870
ĠMethod	14871
Ġindef	14872
Ġlibertarian	14873
Ġintens	14874
ĠTitan	14875
ĠSA	14876
ĠShah	14877
Frank	14878
ĠIceland	14879
Ġarrangements	14880
ĠRegional	14881
ickets	14882
MC	14883
Ġvessels	14884
Ġartic	14885
cry	14886
Ġnod	14887
ĠKill	14888
Ġhonour	14889
uting	14890
Ġacute	14891
Ġflows	14892
ĠDefence	14893
Ġsculpt	14894
ĠSent	14895
Ġdisclosed	14896
Ġsporting	14897
Ġlacks	14898
Ġfortun	14899
ocrats	14900
Cle	14901
rones	14902
Ġpreseason	14903
Ġnecessity	14904
ĠALL	14905
ĠSearch	14906
ulator	14907
Ġpropri	14908
BE	14909
GS	14910
Ġ{\	14911
ECT	14912
ĠBrothers	14913
far	14914
Tim	14915
ĠBobby	14916
Ġuseless	14917
Ġoutlet	14918
Ġpretend	14919
Ġ1977	14920
Ġclarity	14921
Ġheal	14922
Ġconvincing	14923
entions	14924
Ġlegislators	14925
VR	14926
Ġimpe	14927
ĠTib	14928
Ġcatching	14929
ĠBarbara	14930
oriented	14931
Ġdignity	14932
thereum	14933
Ġdetermining	14934
Ġutterly	14935
Ġprotective	14936
ĠLE	14937
azines	14938
Ġtwelve	14939
Ġcute	14940
uity	14941
Ġstimulus	14942
?!	14943
pless	14944
Ġlegitim	14945
yd	14946
Ġram	14947
Ġcharacterized	14948
Ġblown	14949
Ġdense	14950
terior	14951
Ġmarketplace	14952
ĠAttack	14953
Ġslic	14954
Ġtube	14955
Ġsponsors	14956
Ġtheoretical	14957
ĠNobody	14958
Ġlighter	14959
Ġhash	14960
ĠRic	14961
Sand	14962
Ġspells	14963
Ġcure	14964
rawl	14965
Ġhunger	14966
ĠBeast	14967
Posted	14968
ĠSimilarly	14969
Ġelectro	14970
Ġflooding	14971
Ġadapted	14972
ĠEventually	14973
omatic	14974
ĠPhillips	14975
ushing	14976
ĠBrowns	14977
zh	14978
Event	14979
Class	14980
Wind	14981
ufficient	14982
orus	14983
Ġ92	14984
Ġgenius	14985
Ġprevention	14986
aughed	14987
feed	14988
ĠFran	14989
ĠCOM	14990
FR	14991
ĠShi	14992
Ġseam	14993
ĠColon	14994
OO	14995
kens	14996
Ġswitching	14997
Washington	14998
Ġevolutionary	14999
Ġmall	15000
Ġunch	15001
Ġforests	15002
ĠButler	15003
ĠBP	15004
aky	15005
ANT	15006
lickr	15007
constitutional	15008
ĠFast	15009
Ġenabling	15010
Ġmuscles	15011
ĠÑģ	15012
umns	15013
ĠTigers	15014
Ġglasses	15015
Ġcompleting	15016
Äį	15017
Ġod	15018
ĠMIT	15019
Ġquarters	15020
Ġ1974	15021
plane	15022
Ġsensitivity	15023
Ġantibiot	15024
ĠNag	15025
cost	15026
ĠBryan	15027
ĠMode	15028
atican	15029
Ġfart	15030
ĠAltern	15031
Ġ),	15032
Äĩ	15033
Ġcares	15034
castle	15035
Ġware	15036
ĠJav	15037
Ġbarrels	15038
server	15039
anting	15040
Care	15041
Ġachieving	15042
ĠSandy	15043
Ġmalware	15044
Ġreadily	15045
Ġexploitation	15046
FT	15047
Ġmistaken	15048
Er	15049
ĠBR	15050
Ġtablets	15051
Ġadmin	15052
ĠPL	15053
Ġaffiliate	15054
email	15055
Ġmeta	15056
ĠClay	15057
Ġmurders	15058
building	15059
Ġcoat	15060
omo	15061
Ġhaul	15062
Ġwit	15063
utenant	15064
)|	15065
ĠLang	15066
ĠCastle	15067
Ġastronaut	15068
ĠBishop	15069
ĠNE	15070
Ġequation	15071
Ġlistened	15072
ĠObject	15073
ĠStop	15074
Ġjurisdiction	15075
outed	15076
Ġdebris	15077
ĠIb	15078
Ġdrill	15079
Ġsubscribers	15080
aired	15081
Ġrebuild	15082
AFP	15083
Ġhind	15084
control	15085
nex	15086
''	15087
ĠPanthers	15088
ĠNevertheless	15089
velt	15090
Ġreferen	15091
Ġtribe	15092
ottom	15093
Ġholders	15094
ICK	15095
ĠPlanet	15096
Ġsponsor	15097
Ġlaughed	15098
ĠOwn	15099
mined	15100
last	15101
Ġextending	15102
Ġspecify	15103
Ġsubscribing	15104
ĠAx	15105
ĠInside	15106
Ġredist	15107
Ġcab	15108
Ġbipartisan	15109
Ġcooling	15110
Ġfond	15111
Ġpredecessor	15112
ĠToo	15113
Ġframes	15114
Ġinsights	15115
Ġsometime	15116
Mobile	15117
color	15118
ĠArabic	15119
III	15120
Ġcancel	15121
riages	15122
Ġrefusal	15123
Ġ1971	15124
ptic	15125
ĠEdge	15126
Ġbearing	15127
Ġrats	15128
Ġcousin	15129
ĠImperial	15130
amas	15131
Ġfinancially	15132
Ġrolls	15133
Ġupside	15134
Ġsweep	15135
Ġsyndrome	15136
Ġende	15137
IX	15138
Ġnotorious	15139
Ġnightmare	15140
Ġpersist	15141
Ġpairs	15142
Ġfirearm	15143
Ġduo	15144
cm	15145
ĠPrim	15146
ĠJamie	15147
Ġeleg	15148
Ġsweeping	15149
Ġbusinessman	15150
Ġproport	15151
ĠOrthodox	15152
bot	15153
ulk	15154
rone	15155
amped	15156
ĠLev	15157
Ġsurpass	15158
Ġcredible	15159
ĠSO	15160
Ġarbitrary	15161
Ġaston	15162
ĠAustria	15163
ĠWii	15164
ĠBird	15165
Ġattackers	15166
ĠCu	15167
Ġ350	15168
Ġcu	15169
Ġhardest	15170
ĠBed	15171
ĠIndex	15172
frame	15173
Conf	15174
Ġmobility	15175
Ġmigr	15176
ĠDawn	15177
Ġ140	15178
Ġrect	15179
die	15180
Ġexpectation	15181
respect	15182
Ġassociations	15183
reamed	15184
Ġmemor	15185
ĠSpot	15186
Ġneurons	15187
ĠDouble	15188
Ġglobally	15189
ashi	15190
Ġoral	15191
Ġdominate	15192
Ġreviewing	15193
produ	15194
UK	15195
Ġhydrogen	15196
Put	15197
Ġnewer	15198
amy	15199
tic	15200
Ġviolating	15201
ĠNewton	15202
build	15203
ĠKor	15204
Ġportrayed	15205
ASHINGTON	15206
Ġspat	15207
Ġcharter	15208
Ġtreasure	15209
Ġbio	15210
Ġlately	15211
ĠTODAY	15212
Ġtourist	15213
Ġterrain	15214
Ġtricks	15215
Ġseparately	15216
Direct	15217
Ġinflamm	15218
agonist	15219
Ġendorsement	15220
ĠIBM	15221
Ġdeterior	15222
Ġvowed	15223
Ġtroubled	15224
Ġreiter	15225
ospel	15226
Ġrevelation	15227
ĠSwift	15228
VID	15229
Ä±	15230
ĠDaw	15231
ĠRachel	15232
Ġdescend	15233
Ġdisability	15234
ĠSudan	15235
Great	15236
Ġaides	15237
nut	15238
Ġapologize	15239
Ġnationally	15240
ĠBaghd	15241
Ġposes	15242
Ġnavigate	15243
Ġbiology	15244
inces	15245
Ġrelied	15246
ĠRud	15247
ĠJulian	15248
ĠRO	15249
Buy	15250
import	15251
âĢĶâĢĶâĢĶâĢĶâĢĶâĢĶâĢĶâĢĶ	15252
ĠGR	15253
izards	15254
ĠQuinn	15255
tw	15256
ĠMul	15257
osures	15258
Ġsettlements	15259
Ġwash	15260
ĠMarcus	15261
Ġpockets	15262
amo	15263
ĠWells	15264
Ġartistic	15265
ĠÐ²	15266
ĠTehran	15267
hum	15268
atched	15269
Public	15270
Ġbatch	15271
ĠStra	15272
Ġcommitting	15273
Ġcache	15274
Ġgau	15275
arcer	15276
umblr	15277
pdf	15278
three	15279
Ġtournaments	15280
ĠLaura	15281
ĠBorder	15282
Ġphysician	15283
Ġelevated	15284
Ġstraw	15285
ithub	15286
Ġpersistent	15287
Ġblend	15288
system	15289
ĠContinued	15290
fin	15291
Ġaqu	15292
Ġproving	15293
Ġshortage	15294
UP	15295
Ġdeclaring	15296
ĠCSS	15297
especially	15298
Ġincon	15299
Ġpray	15300
ĠGlobe	15301
adequ	15302
Ġidentities	15303
Hub	15304
AST	15305
iances	15306
aho	15307
Ġinterim	15308
Ġvillain	15309
ĠFish	15310
String	15311
Ġstark	15312
ĠBreak	15313
aru	15314
unks	15315
Ġaster	15316
Ġlesbian	15317
Ġinvisible	15318
ĠMachine	15319
Ġdistinguish	15320
ĠCab	15321
Ġviolate	15322
talk	15323
Ġgalaxy	15324
Ġartwork	15325
ĠBL	15326
ĠAssistant	15327
Ġgraduated	15328
sim	15329
Ġvaried	15330
Ġexcluded	15331
Ver	15332
ĠDue	15333
Ġaliens	15334
inho	15335
Ġtempt	15336
Ġovertime	15337
Ġdrown	15338
Ġdefinitive	15339
Ġoversee	15340
ĠLegend	15341
Ter	15342
info	15343
Ġintersection	15344
Ġ89	15345
Ġpronounced	15346
Ġgi	15347
ausible	15348
ĠClean	15349
Mac	15350
America	15351
ulates	15352
Ġrunner	15353
ĠNancy	15354
Ġkicking	15355
ĠNat	15356
Ġanalog	15357
Ġrelent	15358
ĠTher	15359
Ġaccusing	15360
Ġassembled	15361
bone	15362
ĠClose	15363
IME	15364
Ġinfluences	15365
rogen	15366
ĠCardinals	15367
Ġmush	15368
ĠErd	15369
Ġrenov	15370
Ġpreferences	15371
ĠNexus	15372
Ġprey	15373
Ġsubway	15374
Ġobesity	15375
Ġrevelations	15376
National	15377
Until	15378
ĠTravel	15379
Ġalumin	15380
ĠJong	15381
ĠLaden	15382
ucle	15383
Ã¼r	15384
Ġfortune	15385
ernandez	15386
Ġlaying	15387
Ġbullets	15388
";	15389
Sports	15390
Ġhelmet	15391
monton	15392
Ġwarr	15393
ĠWade	15394
Ġbeside	15395
Ġpsy	15396
Ġdread	15397
ĠSelect	15398
Cong	15399
Det	15400
ĠNeither	15401
Ġseal	15402
Ġpp	15403
Ġrisky	15404
Ġunsuccess	15405
ĠTru	15406
Ġtribes	15407
Ġvarying	15408
Ġhandy	15409
Ġimplies	15410
inez	15411
Ġshower	15412
ĠAffordable	15413
Ġtoilet	15414
Ġrental	15415
ĠDra	15416
Ġvet	15417
itutes	15418
ĠMitch	15419
osevelt	15420
ramento	15421
ĠBiden	15422
Ġbanner	15423
Ġkilometers	15424
Ġrelying	15425
ĠBannon	15426
ĠDrag	15427
ĠHorn	15428
Ġneural	15429
Ġbreakthrough	15430
ĠLuther	15431
Ġfavorable	15432
inis	15433
ĠWhatever	15434
Af	15435
science	15436
ĠMembers	15437
Ġpetro	15438
although	15439
Ġauthentic	15440
yang	15441
hett	15442
Ġnurse	15443
Ġtaxi	15444
Ġdissent	15445
ĠFlight	15446
ĠPil	15447
ĠClassic	15448
ĠTarget	15449
ĠCM	15450
ĠCou	15451
SR	15452
Ġanalyze	15453
Ġrecipes	15454
Long	15455
Ġreluctant	15456
Ġaiming	15457
ĠPast	15458
Ġkicks	15459
ĠJoined	15460
lon	15461
Ġcredited	15462
Ġpatience	15463
Ġinspire	15464
Gold	15465
Ġurgent	15466
Ġassassination	15467
Ġfamously	15468
third	15469
full	15470
Law	15471
Inf	15472
ritical	15473
Ġunaware	15474
Ġbackers	15475
Ġpup	15476
ĠJobs	15477
ribly	15478
ĠCollect	15479
Bill	15480
ĠWire	15481
Ġclause	15482
Ġprofitable	15483
economic	15484
ĠHR	15485
larg	15486
Ġvoluntary	15487
Ġfactories	15488
Ġsubstitute	15489
Ġcaut	15490
Ġmassacre	15491
Ġmeasuring	15492
Char	15493
Ġrecreational	15494
Play	15495
Ġsummar	15496
ometown	15497
asma	15498
achers	15499
CLA	15500
Ġprayers	15501
official	15502
Ġexpressions	15503
Ġtricky	15504
Ġminim	15505
Based	15506
ĠCBC	15507
ĠPoly	15508
lication	15509
braska	15510
Ġmagazines	15511
Ġtexture	15512
Ġcycles	15513
Ġpuck	15514
Ġpassive	15515
Ġdiscourse	15516
appro	15517
ĠYankees	15518
ĠVatican	15519
ĠArc	15520
Ġpause	15521
Ġsocially	15522
Ġalbeit	15523
every	15524
ĠGarcia	15525
Ġbout	15526
ulin	15527
Ġundoubtedly	15528
Ġfisher	15529
ĠHispanic	15530
ĠKremlin	15531
Ġstarring	15532
ĠEither	15533
ĠWinn	15534
soever	15535
Ġattribute	15536
obi	15537
omi	15538
uras	15539
ĠLem	15540
Ġmosque	15541
REE	15542
imated	15543
Ġreceivers	15544
Ġcrews	15545
Ġsticks	15546
Ġheated	15547
Ġprovinces	15548
Open	15549
ĠFourth	15550
Ġworries	15551
ĠMans	15552
ĠMes	15553
ĠAgricult	15554
Ġmaneu	15555
Ġcontractor	15556
Ġdefendant	15557
ĠCrow	15558
Ġintentionally	15559
usions	15560
Ġloading	15561
mus	15562
Ġsemin	15563
Ġprecedent	15564
Ġmemorable	15565
ĠPete	15566
Ġic	15567
ĠGrey	15568
Ġfoster	15569
ĠHolocaust	15570
ĠPolitics	15571
Ġbroadly	15572
erting	15573
Ġfitting	15574
Ġours	15575
Ġsatisfaction	15576
hend	15577
aternal	15578
Ġhyd	15579
Japan	15580
ĠProtest	15581
Ġblogs	15582
Ġdynamics	15583
ĠLot	15584
ĠInvestig	15585
anne	15586
fulness	15587
ĠHait	15588
Ġliv	15589
Ġfacial	15590
Ġbuffer	15591
heastern	15592
Ġster	15593
ĠNobel	15594
develop	15595
ĠDeal	15596
Ġsummon	15597
pound	15598
ĠCour	15599
ĠNEW	15600
Ġsupplied	15601
Ġvalued	15602
ĠAgreement	15603
Ġmultiplayer	15604
Ġ94	15605
ĠPhD	15606
Ġinitiated	15607
ĠSnap	15608
ĠMB	15609
Ġstranger	15610
Ġattraction	15611
Ġ91	15612
Without	15613
ĠAlong	15614
ĠHalloween	15615
ĠNep	15616
Canada	15617
ĠAlice	15618
antle	15619
orting	15620
Ġdisappointment	15621
Fox	15622
ĠSamuel	15623
Ġteammate	15624
ĠÐ½	15625
Ġsticking	15626
ĠChand	15627
ĠChen	15628
ĠWorking	15629
ĠTrail	15630
ĠAbs	15631
RELATED	15632
Ġneo	15633
Ġproves	15634
ĠEnterprise	15635
Ġsearched	15636
Ġmedi	15637
KK	15638
heads	15639
Ġmartial	15640
ĠBirmingham	15641
Ġswept	15642
Ġincomes	15643
001	15644
Ġpars	15645
Ġq	15646
allow	15647
ĠPath	15648
ĠGirls	15649
ĠNashville	15650
Ġunlock	15651
Ġepidemic	15652
Ġfictional	15653
Ġdimensions	15654
Ġentrepreneur	15655
Ġmisunder	15656
bb	15657
ĠReform	15658
ĠChiefs	15659
elling	15660
Ġbroadc	15661
ĠFerr	15662
Ġmaj	15663
ĠEngineering	15664
ĠBrewing	15665
CP	15666
ostal	15667
telling	15668
Ġgrandfather	15669
ĠFinn	15670
GN	15671
culation	15672
ĠIsraelis	15673
Ġparameter	15674
Ġinterpreted	15675
Fire	15676
Ã¡n	15677
Ġtheaters	15678
ĠEle	15679
ainted	15680
Ġeventual	15681
ahan	15682
Ġachievements	15683
Ñĩ	15684
Ġmodify	15685
amation	15686
Ġdominance	15687
Ġflaws	15688
ĠComputer	15689
emale	15690
Ġyoungest	15691
ĠGA	15692
Intern	15693
Ġcontributor	15694
Ġtrump	15695
Ġworrying	15696
terrorism	15697
rophic	15698
ĠSach	15699
Ġintact	15700
ĠDays	15701
Ġpole	15702
ĠSpect	15703
irmed	15704
Ġward	15705
Ġconvenience	15706
take	15707
Ġarise	15708
Ġsubmission	15709
Ġarchive	15710
Ġdefines	15711
ĠKath	15712
Tex	15713
March	15714
Ġprediction	15715
Ġfinale	15716
cedes	15717
Ġsurrender	15718
Ġtactic	15719
ĠAlb	15720
Ġobstacles	15721
Ġmacro	15722
ĠYe	15723
ĠJoint	15724
information	15725
Ġdiscont	15726
opular	15727
Ġphilosophical	15728
ĠBaseball	15729
vised	15730
culus	15731
mund	15732
ĠFL	15733
ambers	15734
Ġbicycle	15735
ĠAlmost	15736
Ġenroll	15737
Ġinflic	15738
Ġprisons	15739
unique	15740
Ġmalicious	15741
Ġbanning	15742
ĠBear	15743
Unlike	15744
Later	15745
zilla	15746
Ġrevenge	15747
angered	15748
ĠCant	15749
Ġnaval	15750
intage	15751
Ġwhatsoever	15752
ovich	15753
ĠKate	15754
ĠSold	15755
Ġskip	15756
Ġnationalist	15757
Ġner	15758
mentation	15759
Ġentertaining	15760
Ġcyn	15761
ĠDiamond	15762
Ġdivine	15763
lation	15764
Ġcorrelation	15765
ĠKaz	15766
Ġbaseline	15767
Ġdupl	15768
Ġnest	15769
Ġoverr	15770
ĠNHS	15771
ĠLan	15772
Ġneighbourhood	15773
Ġnetworking	15774
Ġsheets	15775
asa	15776
Ġtheor	15777
Ġneutrality	15778
Ġgaps	15779
script	15780
Ġignorance	15781
Ġank	15782
cd	15783
Ġtwitter	15784
ĠFan	15785
Ġorganised	15786
Ġintermedi	15787
Ġtouching	15788
SH	15789
Ġconcentrated	15790
Remember	15791
\\	15792
Ġregulated	15793
Ġconsulting	15794
ĠRaw	15795
Ġassaulted	15796
onies	15797
ĠPortugal	15798
Ġoppression	15799
vet	15800
Ġlethal	15801
click	15802
ĠKos	15803
Ġcurs	15804
ĠBeer	15805
them	15806
Ġrab	15807
umbai	15808
Ġevolve	15809
ĠAnimal	15810
Ġhorizont	15811
Ġeuros	15812
Ġinventory	15813
ravis	15814
****************	15815
Ġsaves	15816
Ġost	15817
Ġcum	15818
hu	15819
leased	15820
ĠCox	15821
astrous	15822
Ġrises	15823
ĠPictures	15824
Ġdesigning	15825
Ġconfrontation	15826
ĠHolmes	15827
kn	15828
search	15829
Ġnasty	15830
Ġski	15831
generation	15832
Calif	15833
Ġdrain	15834
Ult	15835
Ġimports	15836
erek	15837
Jon	15838
Ġtransmit	15839
ĠMatter	15840
Ġtooth	15841
spoken	15842
Ġresur	15843
ĠMotors	15844
ĠRoosevelt	15845
Ġquantity	15846
ĠCarib	15847
Ġoverly	15848
Ġcrowded	15849
ĠGive	15850
Ġadministrators	15851
ĠME	15852
ĠUSD	15853
ĠWol	15854
Ġmerit	15855
Ġscripts	15856
irlines	15857
uscript	15858
Ġinvitation	15859
ĠSurv	15860
ĠLG	15861
ighte	15862
Ġbrick	15863
neapolis	15864
Ġoffenders	15865
Ġhated	15866
Ġdonor	15867
ĠFirefox	15868
chief	15869
asures	15870
Ġsealed	15871
Ġvariant	15872
Ġcommitments	15873
imeter	15874
grav	15875
ĠHughes	15876
Overall	15877
Person	15878
Ġbay	15879
ĠRing	15880
colm	15881
ĠRPG	15882
ĠPDF	15883
Ġfixes	15884
Ġ1965	15885
liers	15886
Ġremembers	15887
Ġwrist	15888
Ġpadd	15889
ĠAngela	15890
Ġcostume	15891
ĠEpisode	15892
Port	15893
arez	15894
Ġ1964	15895
Ġnavigation	15896
ĠNathan	15897
Â©	15898
ggle	15899
educ	15900
ĠRodriguez	15901
Ġcompromised	15902
Ġincarcer	15903
ĠPalmer	15904
ĠFinland	15905
squ	15906
Ġstarters	15907
icating	15908
Ġfreeze	15909
Ġcord	15910
ideos	15911
Ġprecision	15912
Ġrejection	15913
Ġgre	15914
Ġmathematical	15915
show	15916
Ġcurrencies	15917
ovo	15918
Ġflawed	15919
________________________________	15920
Ġtire	15921
Ġcommem	15922
Ġbelonging	15923
esta	15924
ĠObserv	15925
Ġnarc	15926
ourge	15927
ilitary	15928
Ġoverth	15929
ĠOccupy	15930
ancies	15931
ĠDise	15932
Ġclash	15933
Ġjam	15934
Ġembarrassing	15935
Ġpitching	15936
ĠShaw	15937
oko	15938
Ġrobbery	15939
seen	15940
Ġholidays	15941
hots	15942
Ġproxy	15943
Ġuncle	15944
ushed	15945
ĠBroadway	15946
Ext	15947
Ġabuses	15948
Ġquestionable	15949
ĠFoster	15950
Ġappet	15951
Ġcurric	15952
oren	15953
mentioned	15954
believ	15955
Ġpresenting	15956
Ġblew	15957
Ġnerve	15958
ĠQueensland	15959
Ġupgrades	15960
Ġconstraints	15961
Ġdisproportion	15962
Ġenv	15963
ĠSullivan	15964
Ġmim	15965
Ġadoles	15966
ĠIndianapolis	15967
Sum	15968
rived	15969
Smith	15970
ĠCop	15971
ĠChase	15972
Ġrendered	15973
Ġinfections	15974
Ġsteadily	15975
ĠSens	15976
ĠBoeing	15977
Ġreminds	15978
ĠDuncan	15979
Ġuncovered	15980
Ġundere	15981
Ġpharmaceutical	15982
Ġbasement	15983
Ġtrademark	15984
Ġbats	15985
ĠRodgers	15986
Ġconting	15987
Ġballots	15988
':	15989
ĠERA	15990
Keep	15991
ĠPubl	15992
index	15993
lessness	15994
ĠCris	15995
Ġapt	15996
Real	15997
WASHINGTON	15998
Ġdigit	15999
ĠMontana	16000
Ġdistribute	16001
Ġopted	16002
asive	16003
OME	16004
Ġbehave	16005
Ġoutlook	16006
iper	16007
original	16008
Ġstiff	16009
Ãº	16010
rities	16011
Ġmanufactured	16012
Ġinsert	16013
ected	16014
Ġboots	16015
Ġate	16016
Ġgrandmother	16017
00000000	16018
ĠRacing	16019
Ġanthrop	16020
Count	16021
ĠMohammed	16022
minster	16023
ando	16024
Ġcomplement	16025
Ġpacks	16026
Ġbackwards	16027
Ġtuition	16028
Ġausterity	16029
know	16030
Ġsuited	16031
ĠKash	16032
unge	16033
Ġperce	16034
stick	16035
Ġevangelical	16036
icides	16037
Ġsab	16038
Ġcontainers	16039
Ġmakeup	16040
Ġlinking	16041
Ġnonsense	16042
Ġprisoner	16043
avi	16044
Ġdownloaded	16045
ĠLl	16046
your	16047
Ġoffence	16048
ĠCabinet	16049
Ġextremist	16050
ĠAthlet	16051
Ġthroat	16052
covery	16053
Ġchron	16054
Ġinjust	16055
doing	16056
Ġintimate	16057
call	16058
mem	16059
Ġsharply	16060
ĠAven	16061
Ġproteins	16062
pol	16063
Ġcredentials	16064
ĠIniti	16065
Ġcorrespondent	16066
raged	16067
Ġlas	16068
Ġhotels	16069
Scott	16070
Ġsecretly	16071
ews	16072
ju	16073
Ġcolumns	16074
Ġtracked	16075
Ġpressures	16076
plant	16077
Ġinvalid	16078
ORK	16079
ĠÙ	16080
eler	16081
Ġlandl	16082
Ġsatellites	16083
ĠAssange	16084
Ġoptional	16085
Ġhacked	16086
Ġbudgets	16087
ĠQuick	16088
Ġqualifying	16089
ĠBaghdad	16090
Gen	16091
Ġtokens	16092
Ġcompounds	16093
ĠPink	16094
Ġber	16095
ãģĦ	16096
Ġrivers	16097
Hillary	16098
Ġpunished	16099
Ġwhoever	16100
social	16101
Ġemotionally	16102
Ġplag	16103
Ġsurviving	16104
Austral	16105
Ġinjection	16106
Ġsolving	16107
Ġcups	16108
ictionary	16109
Ġresid	16110
ĠClin	16111
Ġhammer	16112
children	16113
Ġeliminating	16114
Sam	16115
ĠNigeria	16116
Ġcattle	16117
Ġaggressively	16118
ĠChancellor	16119
priv	16120
Ġoven	16121
Ġhorizon	16122
Ġmanipulation	16123
Ġsweat	16124
Ġlaunches	16125
Ġlifting	16126
escope	16127
Mo	16128
Ġdelete	16129
Email	16130
etition	16131
ĠMine	16132
ĠSierra	16133
ĠBrig	16134
iblical	16135
ĠGot	16136
Ġmetric	16137
Ġbooth	16138
Ġsuburban	16139
sein	16140
ĠSem	16141
ĠPH	16142
compass	16143
ĠStudents	16144
ĠAleppo	16145
ĠComb	16146
June	16147
DI	16148
ĠCell	16149
ĠJesse	16150
ĠPred	16151
ĠPeterson	16152
ĠAlpha	16153
Ġhorrific	16154
ĠBrotherhood	16155
prises	16156
Ġnicely	16157
Ġextremists	16158
local	16159
Ġconcludes	16160
Ġbrewery	16161
GL	16162
Ġambul	16163
erals	16164
Ġmessaging	16165
None	16166
Ġhilar	16167
ĠSacramento	16168
ĠCitizens	16169
Ġpublicity	16170
ĠPresidential	16171
ĠFIFA	16172
Ġjoins	16173
eren	16174
gom	16175
Ġbrush	16176
Ġreconc	16177
ĠHerald	16178
fan	16179
Ġcomplaining	16180
ĠZimmer	16181
Ġprevents	16182
Ġvacuum	16183
ĠBangladesh	16184
zbollah	16185
])	16186
Ġpremise	16187
ĠDA	16188
Ġrides	16189
enson	16190
atisf	16191
liter	16192
abi	16193
vor	16194
Updated	16195
ĠÅ	16196
again	16197
ĠBelt	16198
Ġkg	16199
ĠHey	16200
Ġadvisers	16201
Ġhazard	16202
ipse	16203
Ġjustification	16204
ĠCatal	16205
Ġundergo	16206
Ġanchor	16207
ĠSave	16208
Ġtrades	16209
ĠShin	16210
ede	16211
ĠLegal	16212
Invest	16213
Ġfloat	16214
Ġdestructive	16215
Full	16216
Ġslee	16217
legal	16218
.âĢĻâĢĿ	16219
Ġoun	16220
ĠAround	16221
Ġneighboring	16222
oots	16223
ĠHeritage	16224
Ġenters	16225
ĠMI	16226
ĠMong	16227
ĠAnaly	16228
Ġpictured	16229
Ġtransfers	16230
ĠChip	16231
Ġrefund	16232
Ġvirtue	16233
Ġtroubling	16234
ĠCriminal	16235
ĠColin	16236
Ġfeas	16237
iterranean	16238
izers	16239
Ġaccidents	16240
ĠOverall	16241
Ġcorps	16242
Ġok	16243
Ġsovereign	16244
Ġpurple	16245
Ġannoying	16246
would	16247
Hel	16248
iological	16249
ertainly	16250
Ġrecordings	16251
Ġtroubles	16252
Ġnonetheless	16253
Ġplugin	16254
Ġunconstitutional	16255
ĠEdmonton	16256
Ġlease	16257
Ġ1945	16258
Ġamateur	16259
Ġbypass	16260
spons	16261
aternity	16262
ĠJessica	16263
worthy	16264
Ġdisastrous	16265
Ġirrit	16266
pay	16267
ieve	16268
ainer	16269
Ġcommissioned	16270
eta	16271
clusive	16272
ĠMSNBC	16273
Use	16274
Ġdimension	16275
Table	16276
great	16277
Ġgreed	16278
Ġcommittees	16279
Ġcompanion	16280
ĠHTC	16281
Being	16282
Ġliver	16283
ĠCosta	16284
Ġteaches	16285
ĠCav	16286
ĠCT	16287
Ġ03	16288
ĠReally	16289
Ġdenies	16290
Ġpad	16291
Ġpel	16292
ĠAllah	16293
pert	16294
ĠZone	16295
Ġsincere	16296
Ġjacket	16297
Head	16298
umatic	16299
ĠLic	16300
ĠMurd	16301
urious	16302
ĠPicture	16303
ĠPotter	16304
Ġinaccur	16305
NAS	16306
[...]
